{
  "version": "1.0",
  "truncation": null,
  "padding": null,
  "added_tokens": [
    {
      "id": 0,
      "content": "[UNK]",
      "single_word": false,
      "lstrip": false,
      "rstrip": false,
      "normalized": false,
      "special": true
    },
    {
      "id": 1,
      "content": "[PAD]",
      "single_word": false,
      "lstrip": false,
      "rstrip": false,
      "normalized": false,
      "special": true
    },
    {
      "id": 2,
      "content": "[CLS]",
      "single_word": false,
      "lstrip": false,
      "rstrip": false,
      "normalized": false,
      "special": true
    },
    {
      "id": 3,
      "content": "[SEP]",
      "single_word": false,
      "lstrip": false,
      "rstrip": false,
      "normalized": false,
      "special": true
    },
    {
      "id": 4,
      "content": "[MASK]",
      "single_word": false,
      "lstrip": false,
      "rstrip": false,
      "normalized": false,
      "special": true
    }
  ],
  "normalizer": {
    "type": "BertNormalizer",
    "clean_text": true,
    "handle_chinese_chars": true,
    "strip_accents": null,
    "lowercase": true
  },
  "pre_tokenizer": {
    "type": "Split",
    "pattern": {
      "String": " "
    },
    "behavior": "Removed",
    "invert": false
  },
  "post_processor": null,
  "decoder": null,
  "model": {
    "type": "WordPiece",
    "unk_token": "[UNK]",
    "continuing_subword_prefix": "##",
    "max_input_chars_per_word": 100,
    "vocab": {
      "[UNK]": 0,
      "[PAD]": 1,
      "[CLS]": 2,
      "[SEP]": 3,
      "[MASK]": 4,
      "0": 5,
      "1": 6,
      "2": 7,
      "3": 8,
      "4": 9,
      "5": 10,
      "6": 11,
      "7": 12,
      "8": 13,
      "9": 14,
      "a": 15,
      "b": 16,
      "c": 17,
      "d": 18,
      "e": 19,
      "f": 20,
      "i": 21,
      "j": 22,
      "k": 23,
      "l": 24,
      "n": 25,
      "o": 26,
      "p": 27,
      "r": 28,
      "s": 29,
      "t": 30,
      "u": 31,
      "v": 32,
      "y": 33,
      "##r": 34,
      "##i": 35,
      "##v": 36,
      "##e": 37,
      "##t": 38,
      "##u": 39,
      "##c": 40,
      "##k": 41,
      "##4": 42,
      "##a": 43,
      "##p": 44,
      "##8": 45,
      "##o": 46,
      "##s": 47,
      "##6": 48,
      "##5": 49,
      "##1": 50,
      "##2": 51,
      "##d": 52,
      "##l": 53,
      "##n": 54,
      "##b": 55,
      "##j": 56,
      "##3": 57,
      "##7": 58,
      "##y": 59,
      "##0": 60,
      "##9": 61,
      "##ru": 62,
      "##tru": 63,
      "##ap": 64,
      "##po": 65,
      "##pos": 66,
      "##ck": 67,
      "##truck": 68,
      "##apt": 69,
      "dr": 70,
      "##iv": 71,
      "##it": 72,
      "##etruck": 73,
      "##cit": 74,
      "driv": 75,
      "##etrucktru": 76,
      "drivetrucktru": 77,
      "##ob": 78,
      "##obj": 79,
      "##ad": 80,
      "##oad": 81,
      "##pos1": 82,
      "##pos2": 83,
      "##truckobj": 84,
      "##oadtruckobj": 85,
      "##3apt": 86,
      "##apn": 87,
      "##rp": 88,
      "##irp": 89,
      "##an": 90,
      "##airp": 91,
      "##lan": 92,
      "##airplan": 93,
      "##airplane": 94,
      "un": 95,
      "unl": 96,
      "##3cit": 97,
      "##2apt": 98,
      "##1apt": 99,
      "drivetrucktru5": 100,
      "drivetrucktru4": 101,
      "##oadairplane": 102,
      "##oadairplaneobj": 103,
      "##2cit": 104,
      "##1cit": 105,
      "##44": 106,
      "##66": 107,
      "##55": 108,
      "##77": 109,
      "loadtruckobj": 110,
      "unloadtruckobj": 111,
      "##3pos": 112,
      "drivetrucktru1": 113,
      "drivetrucktru2": 114,
      "##pos3": 115,
      "##pos44": 116,
      "##pos66": 117,
      "##pos55": 118,
      "##pos77": 119,
      "loadairplaneobj": 120,
      "unloadairplaneobj": 121,
      "drivetrucktru2apt": 122,
      "drivetrucktru5apt": 123,
      "drivetrucktru1apt": 124,
      "drivetrucktru4apt": 125,
      "drivetrucktru3apt": 126,
      "##cit1": 127,
      "##cit4": 128,
      "##cit6": 129,
      "##cit5": 130,
      "##cit2": 131,
      "##cit3": 132,
      "##4apt": 133,
      "##5apt": 134,
      "##3pos1": 135,
      "##3pos2": 136,
      "##3tru": 137,
      "##7apt": 138,
      "##8apt": 139,
      "##6apt": 140,
      "drivetrucktru3pos": 141,
      "##pos13cit": 142,
      "##pos23cit": 143,
      "##pos33cit": 144,
      "fl": 145,
      "##yairplane": 146,
      "flyairplane": 147,
      "flyairplaneapn": 148,
      "##pos12cit": 149,
      "##pos11cit": 150,
      "##pos22cit": 151,
      "##pos21cit": 152,
      "##3apn": 153,
      "##1tru": 154,
      "##2tru": 155,
      "##pos11": 156,
      "##pos12": 157,
      "##pos21": 158,
      "##pos22": 159,
      "##88": 160,
      "##00": 161,
      "##99": 162,
      "drivetrucktru3pos1": 163,
      "drivetrucktru3pos2": 164,
      "loadtruckobj1": 165,
      "loadtruckobj2": 166,
      "unloadtruckobj1": 167,
      "unloadtruckobj2": 168,
      "at": 169,
      "##1apn": 170,
      "##2apn": 171,
      "drivetrucktru5pos1": 172,
      "drivetrucktru5pos2": 173,
      "drivetrucktru4pos1": 174,
      "drivetrucktru4pos2": 175,
      "drivetrucktru1pos1": 176,
      "drivetrucktru1pos2": 177,
      "drivetrucktru2pos1": 178,
      "drivetrucktru2pos2": 179,
      "##pos33apt": 180,
      "##pos44apt": 181,
      "##pos66apt": 182,
      "##pos55apt": 183,
      "##pos77apt": 184,
      "loadairplaneobj1": 185,
      "loadairplaneobj2": 186,
      "unloadairplaneobj1": 187,
      "unloadairplaneobj2": 188,
      "##33tru": 189,
      "##44tru": 190,
      "##66tru": 191,
      "##55tru": 192,
      "##77tru": 193,
      "##88tru": 194,
      "##00tru": 195,
      "##99tru": 196,
      "##3apt8": 197,
      "##3apt6": 198,
      "##3apt5": 199,
      "##3apt7": 200,
      "##3apt4": 201,
      "##2apt4": 202,
      "##2apt8": 203,
      "##2apt6": 204,
      "##2apt5": 205,
      "##2apt7": 206,
      "##1apt8": 207,
      "##1apt6": 208,
      "##1apt5": 209,
      "##1apt7": 210,
      "##1apt4": 211,
      "atobj": 212,
      "##3pos44": 213,
      "##3pos66": 214,
      "##3pos55": 215,
      "##3pos77": 216,
      "##3cit4": 217,
      "##3cit6": 218,
      "##3cit5": 219,
      "##3cit1": 220,
      "##3cit2": 221,
      "##3cit3": 222,
      "##2cit4": 223,
      "##2cit6": 224,
      "##2cit5": 225,
      "##2cit1": 226,
      "##2cit2": 227,
      "##2cit3": 228,
      "##1cit4": 229,
      "##1cit6": 230,
      "##1cit5": 231,
      "##1cit2": 232,
      "##1cit3": 233,
      "##1cit1": 234,
      "##33apn": 235,
      "##44apn": 236,
      "##66apn": 237,
      "##55apn": 238,
      "##77apn": 239,
      "##88apn": 240,
      "##00apn": 241,
      "##99apn": 242,
      "##pos13": 243,
      "##pos23": 244,
      "##pos33": 245,
      "##3pos3": 246,
      "drivetrucktru3pos3": 247,
      "drivetrucktru3pos44": 248,
      "drivetrucktru3pos66": 249,
      "drivetrucktru3pos55": 250,
      "drivetrucktru3pos77": 251,
      "loadtruckobj33tru": 252,
      "loadtruckobj44tru": 253,
      "loadtruckobj66tru": 254,
      "loadtruckobj55tru": 255,
      "loadtruckobj77tru": 256,
      "loadtruckobj88tru": 257,
      "loadtruckobj00tru": 258,
      "loadtruckobj99tru": 259,
      "unloadtruckobj33tru": 260,
      "unloadtruckobj44tru": 261,
      "unloadtruckobj66tru": 262,
      "unloadtruckobj55tru": 263,
      "unloadtruckobj77tru": 264,
      "unloadtruckobj88tru": 265,
      "unloadtruckobj00tru": 266,
      "unloadtruckobj99tru": 267,
      "##4apt8": 268,
      "##4apt6": 269,
      "##4apt5": 270,
      "##4apt7": 271,
      "##5apt8": 272,
      "##5apt6": 273,
      "##5apt7": 274,
      "loadtruckobj13tru": 275,
      "loadtruckobj11tru": 276,
      "loadtruckobj12tru": 277,
      "loadtruckobj23tru": 278,
      "loadtruckobj21tru": 279,
      "loadtruckobj22tru": 280,
      "unloadtruckobj13tru": 281,
      "unloadtruckobj11tru": 282,
      "unloadtruckobj12tru": 283,
      "unloadtruckobj23tru": 284,
      "unloadtruckobj21tru": 285,
      "unloadtruckobj22tru": 286,
      "##5apt4": 287,
      "##pos13cit4": 288,
      "##pos13cit6": 289,
      "##pos13cit5": 290,
      "##pos13cit1": 291,
      "##pos13cit2": 292,
      "##pos13cit3": 293,
      "##pos23cit4": 294,
      "##pos23cit6": 295,
      "##pos23cit5": 296,
      "##pos23cit1": 297,
      "##pos23cit2": 298,
      "##pos23cit3": 299,
      "##pos33cit4": 300,
      "##pos33cit6": 301,
      "##pos33cit5": 302,
      "##pos33cit1": 303,
      "##pos33cit2": 304,
      "##pos33cit3": 305,
      "##1pos44": 306,
      "##1pos66": 307,
      "##1pos55": 308,
      "##1pos77": 309,
      "##2pos44": 310,
      "##2pos66": 311,
      "##2pos55": 312,
      "##2pos77": 313,
      "##pos33pos1": 314,
      "##pos33pos2": 315,
      "##pos12cit4": 316,
      "##pos12cit6": 317,
      "##pos12cit5": 318,
      "##pos12cit1": 319,
      "##pos12cit2": 320,
      "##pos12cit3": 321,
      "##pos11cit4": 322,
      "##pos11cit6": 323,
      "##pos11cit5": 324,
      "##pos11cit1": 325,
      "##pos11cit2": 326,
      "##pos11cit3": 327,
      "##pos22cit4": 328,
      "##pos22cit6": 329,
      "##pos22cit5": 330,
      "##pos22cit1": 331,
      "##pos22cit2": 332,
      "##pos22cit3": 333,
      "##pos21cit4": 334,
      "##pos21cit6": 335,
      "##pos21cit5": 336,
      "##pos21cit1": 337,
      "##pos21cit2": 338,
      "##pos21cit3": 339,
      "##7apt4": 340,
      "##7apt8": 341,
      "##7apt6": 342,
      "##7apt5": 343,
      "##8apt4": 344,
      "##8apt6": 345,
      "##8apt7": 346,
      "##6apt4": 347,
      "##6apt8": 348,
      "##6apt5": 349,
      "##6apt7": 350,
      "drivetrucktru2apt4": 351,
      "drivetrucktru2apt8": 352,
      "drivetrucktru2apt6": 353,
      "drivetrucktru2apt5": 354,
      "drivetrucktru2apt7": 355,
      "drivetrucktru5apt4": 356,
      "drivetrucktru5apt8": 357,
      "drivetrucktru5apt6": 358,
      "drivetrucktru5apt5": 359,
      "drivetrucktru5apt7": 360,
      "drivetrucktru1apt4": 361,
      "drivetrucktru1apt8": 362,
      "drivetrucktru1apt6": 363,
      "drivetrucktru1apt5": 364,
      "drivetrucktru1apt7": 365,
      "drivetrucktru4apt4": 366,
      "drivetrucktru4apt8": 367,
      "drivetrucktru4apt6": 368,
      "drivetrucktru4apt5": 369,
      "drivetrucktru4apt7": 370,
      "drivetrucktru3apt4": 371,
      "drivetrucktru3apt8": 372,
      "drivetrucktru3apt6": 373,
      "drivetrucktru3apt5": 374,
      "drivetrucktru3apt7": 375,
      "##8apt5": 376,
      "##3apt1": 377,
      "##3apt2": 378,
      "##2apt1": 379,
      "##2apt3": 380,
      "##1apt2": 381,
      "##1apt3": 382,
      "##4apt1": 383,
      "##4apt2": 384,
      "##4apt3": 385,
      "##5apt1": 386,
      "##5apt2": 387,
      "##5apt3": 388,
      "loadairplaneobj33apn": 389,
      "loadairplaneobj44apn": 390,
      "loadairplaneobj66apn": 391,
      "loadairplaneobj55apn": 392,
      "loadairplaneobj77apn": 393,
      "loadairplaneobj88apn": 394,
      "loadairplaneobj00apn": 395,
      "loadairplaneobj99apn": 396,
      "unloadairplaneobj33apn": 397,
      "unloadairplaneobj44apn": 398,
      "unloadairplaneobj66apn": 399,
      "unloadairplaneobj55apn": 400,
      "unloadairplaneobj77apn": 401,
      "unloadairplaneobj88apn": 402,
      "unloadairplaneobj00apn": 403,
      "unloadairplaneobj99apn": 404,
      "atapn": 405,
      "loadairplaneobj13apn": 406,
      "loadairplaneobj11apn": 407,
      "loadairplaneobj12apn": 408,
      "loadairplaneobj23apn": 409,
      "loadairplaneobj21apn": 410,
      "loadairplaneobj22apn": 411,
      "unloadairplaneobj13apn": 412,
      "unloadairplaneobj11apn": 413,
      "unloadairplaneobj12apn": 414,
      "unloadairplaneobj23apn": 415,
      "unloadairplaneobj21apn": 416,
      "unloadairplaneobj22apn": 417,
      "drivetrucktru5pos44": 418,
      "drivetrucktru5pos66": 419,
      "drivetrucktru5pos55": 420,
      "drivetrucktru5pos77": 421,
      "drivetrucktru5pos11": 422,
      "drivetrucktru5pos12": 423,
      "drivetrucktru5pos21": 424,
      "drivetrucktru5pos22": 425,
      "drivetrucktru4pos44": 426,
      "drivetrucktru4pos66": 427,
      "drivetrucktru4pos55": 428,
      "drivetrucktru4pos77": 429,
      "drivetrucktru4pos11": 430,
      "drivetrucktru4pos12": 431,
      "drivetrucktru4pos21": 432,
      "drivetrucktru4pos22": 433,
      "drivetrucktru1pos44": 434,
      "drivetrucktru1pos66": 435,
      "drivetrucktru1pos55": 436,
      "drivetrucktru1pos77": 437,
      "drivetrucktru1pos11": 438,
      "drivetrucktru1pos12": 439,
      "drivetrucktru1pos21": 440,
      "drivetrucktru1pos22": 441,
      "drivetrucktru2pos44": 442,
      "drivetrucktru2pos66": 443,
      "drivetrucktru2pos55": 444,
      "drivetrucktru2pos77": 445,
      "drivetrucktru2pos11": 446,
      "drivetrucktru2pos12": 447,
      "drivetrucktru2pos21": 448,
      "drivetrucktru2pos22": 449,
      "##3apt3": 450,
      "##2apt2": 451,
      "##1apt1": 452,
      "##4apt4": 453,
      "##5apt5": 454,
      "##pos44cit1": 455,
      "##pos44cit4": 456,
      "##pos44cit6": 457,
      "##pos44cit5": 458,
      "##pos44cit2": 459,
      "##pos44cit3": 460,
      "##pos66cit1": 461,
      "##pos66cit4": 462,
      "##pos66cit6": 463,
      "##pos66cit5": 464,
      "##pos66cit2": 465,
      "##pos66cit3": 466,
      "##pos55cit1": 467,
      "##pos55cit4": 468,
      "##pos55cit6": 469,
      "##pos55cit5": 470,
      "##pos55cit2": 471,
      "##pos55cit3": 472,
      "##pos77cit1": 473,
      "##pos77cit4": 474,
      "##pos77cit6": 475,
      "##pos77cit5": 476,
      "##pos77cit2": 477,
      "##pos77cit3": 478,
      "flyairplaneapn3apt": 479,
      "flyairplaneapn2apt": 480,
      "flyairplaneapn1apt": 481,
      "flyairplaneapn4apt": 482,
      "flyairplaneapn5apt": 483,
      "flyairplaneapn7apt": 484,
      "flyairplaneapn8apt": 485,
      "flyairplaneapn6apt": 486,
      "attru": 487,
      "drivetrucktru5pos33apt": 488,
      "drivetrucktru5pos44apt": 489,
      "drivetrucktru5pos66apt": 490,
      "drivetrucktru5pos55apt": 491,
      "drivetrucktru5pos77apt": 492,
      "drivetrucktru4pos33apt": 493,
      "drivetrucktru4pos44apt": 494,
      "drivetrucktru4pos66apt": 495,
      "drivetrucktru4pos55apt": 496,
      "drivetrucktru4pos77apt": 497,
      "drivetrucktru1pos33apt": 498,
      "drivetrucktru1pos44apt": 499,
      "drivetrucktru1pos66apt": 500,
      "drivetrucktru1pos55apt": 501,
      "drivetrucktru1pos77apt": 502,
      "drivetrucktru2pos33apt": 503,
      "drivetrucktru2pos44apt": 504,
      "drivetrucktru2pos66apt": 505,
      "drivetrucktru2pos55apt": 506,
      "drivetrucktru2pos77apt": 507,
      "drivetrucktru3pos44apt": 508,
      "drivetrucktru3pos66apt": 509,
      "drivetrucktru3pos55apt": 510,
      "drivetrucktru3pos77apt": 511,
      "drivetrucktru2apt1": 512,
      "drivetrucktru2apt2": 513,
      "drivetrucktru5apt1": 514,
      "drivetrucktru5apt2": 515,
      "drivetrucktru1apt1": 516,
      "drivetrucktru1apt2": 517,
      "drivetrucktru4apt1": 518,
      "drivetrucktru4apt2": 519,
      "drivetrucktru3apt1": 520,
      "drivetrucktru3apt2": 521,
      "##7apt1": 522,
      "##7apt2": 523,
      "##7apt3": 524,
      "##8apt1": 525,
      "##8apt2": 526,
      "##8apt3": 527,
      "##6apt1": 528,
      "##6apt2": 529,
      "##6apt3": 530,
      "drivetrucktru3pos11": 531,
      "drivetrucktru3pos12": 532,
      "drivetrucktru3pos21": 533,
      "drivetrucktru3pos22": 534,
      "atobj1": 535,
      "atobj2": 536,
      "##3pos11": 537,
      "##3pos12": 538,
      "##3pos13": 539,
      "##3pos21": 540,
      "##3pos22": 541,
      "##3pos23": 542,
      "##3pos33": 543,
      "##1pos11": 544,
      "##1pos12": 545,
      "##1pos21": 546,
      "##1pos22": 547,
      "##1pos13": 548,
      "##1pos23": 549,
      "##1pos33": 550,
      "##2pos11": 551,
      "##2pos12": 552,
      "##2pos21": 553,
      "##2pos22": 554,
      "##2pos13": 555,
      "##2pos23": 556,
      "##2pos33": 557,
      "##4pos44": 558,
      "##4pos66": 559,
      "##4pos55": 560,
      "##4pos77": 561,
      "##4pos11": 562,
      "##4pos12": 563,
      "##4pos21": 564,
      "##4pos22": 565,
      "##4pos13": 566,
      "##4pos23": 567,
      "##4pos33": 568,
      "##5pos44": 569,
      "##5pos66": 570,
      "##5pos55": 571,
      "##5pos77": 572,
      "##5pos11": 573,
      "##5pos12": 574,
      "##5pos21": 575,
      "##5pos22": 576,
      "##5pos13": 577,
      "##5pos23": 578,
      "##5pos33": 579,
      "##7apt7": 580,
      "##8apt8": 581,
      "##6apt6": 582,
      "##4cit1": 583,
      "##4cit4": 584,
      "##4cit6": 585,
      "##4cit5": 586,
      "##4cit2": 587,
      "##4cit3": 588,
      "##8cit1": 589,
      "##8cit4": 590,
      "##8cit6": 591,
      "##8cit5": 592,
      "##8cit2": 593,
      "##8cit3": 594,
      "##6cit1": 595,
      "##6cit4": 596,
      "##6cit6": 597,
      "##6cit5": 598,
      "##6cit2": 599,
      "##6cit3": 600,
      "##5cit1": 601,
      "##5cit4": 602,
      "##5cit6": 603,
      "##5cit5": 604,
      "##5cit2": 605,
      "##5cit3": 606,
      "##7cit1": 607,
      "##7cit4": 608,
      "##7cit6": 609,
      "##7cit5": 610,
      "##7cit2": 611,
      "##7cit3": 612,
      "drivetrucktru5pos3": 613,
      "drivetrucktru4pos3": 614,
      "drivetrucktru1pos3": 615,
      "drivetrucktru2pos3": 616,
      "##3pos44cit1": 617,
      "##3pos44cit4": 618,
      "##3pos44cit6": 619,
      "##3pos44cit5": 620,
      "##3pos44cit2": 621,
      "##3pos44cit3": 622,
      "##3pos66cit1": 623,
      "##3pos66cit4": 624,
      "##3pos66cit6": 625,
      "##3pos66cit5": 626,
      "##3pos66cit2": 627,
      "##3pos66cit3": 628,
      "##3pos55cit1": 629,
      "##3pos55cit4": 630,
      "##3pos55cit6": 631,
      "##3pos55cit5": 632,
      "##3pos55cit2": 633,
      "##3pos55cit3": 634,
      "##3pos77cit1": 635,
      "##3pos77cit4": 636,
      "##3pos77cit6": 637,
      "##3pos77cit5": 638,
      "##3pos77cit2": 639,
      "##3pos77cit3": 640,
      "drivetrucktru5pos33pos1": 641,
      "drivetrucktru5pos33pos2": 642,
      "drivetrucktru4pos33pos1": 643,
      "drivetrucktru4pos33pos2": 644,
      "drivetrucktru1pos33pos1": 645,
      "drivetrucktru1pos33pos2": 646,
      "drivetrucktru2pos33pos1": 647,
      "drivetrucktru2pos33pos2": 648,
      "drivetrucktru2apt4apt": 649,
      "drivetrucktru2apt5apt": 650,
      "drivetrucktru2apt3pos1": 651,
      "drivetrucktru2apt3pos2": 652,
      "drivetrucktru2apt7apt": 653,
      "drivetrucktru2apt8apt": 654,
      "drivetrucktru2apt6apt": 655,
      "drivetrucktru5apt4apt": 656,
      "drivetrucktru5apt5apt": 657,
      "drivetrucktru5apt3pos1": 658,
      "drivetrucktru5apt3pos2": 659,
      "drivetrucktru5apt7apt": 660,
      "drivetrucktru5apt8apt": 661,
      "drivetrucktru5apt6apt": 662,
      "drivetrucktru1apt4apt": 663,
      "drivetrucktru1apt5apt": 664,
      "drivetrucktru1apt3pos1": 665,
      "drivetrucktru1apt3pos2": 666,
      "drivetrucktru1apt7apt": 667,
      "drivetrucktru1apt8apt": 668,
      "drivetrucktru1apt6apt": 669,
      "drivetrucktru4apt4apt": 670,
      "drivetrucktru4apt5apt": 671,
      "drivetrucktru4apt3pos1": 672,
      "drivetrucktru4apt3pos2": 673,
      "drivetrucktru4apt7apt": 674,
      "drivetrucktru4apt8apt": 675,
      "drivetrucktru4apt6apt": 676,
      "drivetrucktru3apt4apt": 677,
      "drivetrucktru3apt5apt": 678,
      "drivetrucktru3apt3pos1": 679,
      "drivetrucktru3apt3pos2": 680,
      "drivetrucktru3apt7apt": 681,
      "drivetrucktru3apt8apt": 682,
      "drivetrucktru3pos13apt": 683,
      "drivetrucktru3pos12apt": 684,
      "drivetrucktru3pos11apt": 685,
      "drivetrucktru3pos13pos2": 686,
      "drivetrucktru3pos23apt": 687,
      "drivetrucktru3pos22apt": 688,
      "drivetrucktru3pos21apt": 689,
      "drivetrucktru3pos23pos1": 690,
      "drivetrucktru5pos13apt": 691,
      "drivetrucktru5pos12apt": 692,
      "drivetrucktru5pos11apt": 693,
      "drivetrucktru5pos13pos2": 694,
      "drivetrucktru5pos23apt": 695,
      "drivetrucktru5pos22apt": 696,
      "drivetrucktru5pos21apt": 697,
      "drivetrucktru5pos23pos1": 698,
      "drivetrucktru4pos13apt": 699,
      "drivetrucktru4pos12apt": 700,
      "drivetrucktru4pos11apt": 701,
      "drivetrucktru4pos13pos2": 702,
      "drivetrucktru4pos23apt": 703,
      "drivetrucktru4pos22apt": 704,
      "drivetrucktru4pos21apt": 705,
      "drivetrucktru4pos23pos1": 706,
      "drivetrucktru1pos13apt": 707,
      "drivetrucktru1pos12apt": 708,
      "drivetrucktru1pos11apt": 709,
      "drivetrucktru1pos13pos2": 710,
      "drivetrucktru1pos23apt": 711,
      "drivetrucktru1pos22apt": 712,
      "drivetrucktru1pos21apt": 713,
      "drivetrucktru1pos23pos1": 714,
      "drivetrucktru2pos13apt": 715,
      "drivetrucktru2pos12apt": 716,
      "drivetrucktru2pos11apt": 717,
      "drivetrucktru2pos13pos2": 718,
      "drivetrucktru2pos23apt": 719,
      "drivetrucktru2pos22apt": 720,
      "drivetrucktru2pos21apt": 721,
      "drivetrucktru2pos23pos1": 722,
      "drivetrucktru3pos33apt": 723,
      "drivetrucktru3pos33pos1": 724,
      "drivetrucktru3pos33pos2": 725,
      "drivetrucktru3apt6apt": 726,
      "##3apt8cit1": 727,
      "##3apt8cit4": 728,
      "##3apt8cit6": 729,
      "##3apt8cit5": 730,
      "##3apt8cit2": 731,
      "##3apt8cit3": 732,
      "##3apt6cit1": 733,
      "##3apt6cit4": 734,
      "##3apt6cit6": 735,
      "##3apt6cit5": 736,
      "##3apt6cit2": 737,
      "##3apt6cit3": 738,
      "##3apt5cit1": 739,
      "##3apt5cit4": 740,
      "##3apt5cit6": 741,
      "##3apt5cit5": 742,
      "##3apt5cit2": 743,
      "##3apt5cit3": 744,
      "##3apt7cit1": 745,
      "##3apt7cit4": 746,
      "##3apt7cit6": 747,
      "##3apt7cit5": 748,
      "##3apt7cit2": 749,
      "##3apt7cit3": 750,
      "##3apt4cit1": 751,
      "##3apt4cit4": 752,
      "##3apt4cit6": 753,
      "##3apt4cit3": 754,
      "##3apt4cit5": 755,
      "##3apt4cit2": 756,
      "##2apt4cit1": 757,
      "##2apt4cit4": 758,
      "##2apt4cit6": 759,
      "##2apt4cit5": 760,
      "##2apt4cit2": 761,
      "##2apt4cit3": 762,
      "##2apt8cit1": 763,
      "##2apt8cit4": 764,
      "##2apt8cit6": 765,
      "##2apt8cit5": 766,
      "##2apt8cit2": 767,
      "##2apt8cit3": 768,
      "##2apt6cit1": 769,
      "##2apt6cit4": 770,
      "##2apt6cit6": 771,
      "##2apt6cit5": 772,
      "##2apt6cit2": 773,
      "##2apt6cit3": 774,
      "##2apt5cit1": 775,
      "##2apt5cit4": 776,
      "##2apt5cit6": 777,
      "##2apt5cit5": 778,
      "##2apt5cit2": 779,
      "##2apt5cit3": 780,
      "##2apt7cit1": 781,
      "##2apt7cit4": 782,
      "##2apt7cit6": 783,
      "##2apt7cit5": 784,
      "##2apt7cit2": 785,
      "##2apt7cit3": 786,
      "##1apt8cit1": 787,
      "##1apt8cit4": 788,
      "##1apt8cit6": 789,
      "##1apt8cit5": 790,
      "##1apt8cit2": 791,
      "##1apt8cit3": 792,
      "##1apt6cit1": 793,
      "##1apt6cit4": 794,
      "##1apt6cit6": 795,
      "##1apt6cit5": 796,
      "##1apt6cit2": 797,
      "##1apt6cit3": 798,
      "##1apt5cit1": 799,
      "##1apt5cit4": 800,
      "##1apt5cit6": 801,
      "##1apt5cit5": 802,
      "##1apt5cit2": 803,
      "##1apt5cit3": 804,
      "##1apt7cit1": 805,
      "##1apt7cit4": 806,
      "##1apt7cit6": 807,
      "##1apt7cit5": 808,
      "##1apt7cit2": 809,
      "##1apt7cit3": 810,
      "##1apt4cit1": 811,
      "##1apt4cit4": 812,
      "##1apt4cit6": 813,
      "##1apt4cit5": 814,
      "##1apt4cit2": 815,
      "##3pos33cit4": 816,
      "##3pos33cit6": 817,
      "##3pos33cit5": 818,
      "##3pos33cit1": 819,
      "##3pos33cit2": 820,
      "##3pos33cit3": 821,
      "##1apt4cit3": 822,
      "drivetrucktru2apt3apt": 823,
      "drivetrucktru2apt2apt": 824,
      "drivetrucktru2apt1apt": 825,
      "drivetrucktru5apt3apt": 826,
      "drivetrucktru5apt2apt": 827,
      "drivetrucktru5apt1apt": 828,
      "drivetrucktru1apt3apt": 829,
      "drivetrucktru1apt2apt": 830,
      "drivetrucktru1apt1apt": 831,
      "drivetrucktru4apt3apt": 832,
      "drivetrucktru4apt2apt": 833,
      "drivetrucktru4apt1apt": 834,
      "drivetrucktru3apt3apt": 835,
      "drivetrucktru3apt2apt": 836,
      "drivetrucktru3apt1apt": 837,
      "drivetrucktru3pos13pos1": 838,
      "drivetrucktru3pos23pos2": 839,
      "drivetrucktru5pos13pos1": 840,
      "drivetrucktru5pos23pos2": 841,
      "drivetrucktru4pos13pos1": 842,
      "drivetrucktru4pos23pos2": 843,
      "drivetrucktru1pos13pos1": 844,
      "drivetrucktru1pos23pos2": 845,
      "drivetrucktru2pos13pos1": 846,
      "drivetrucktru2pos23pos2": 847,
      "atobj3": 848,
      "atobj44": 849,
      "atobj66": 850,
      "atobj55": 851,
      "atobj77": 852,
      "atobj88": 853,
      "atobj00": 854,
      "atobj99": 855,
      "##1pos44cit1": 856,
      "##1pos44cit4": 857,
      "##1pos44cit6": 858,
      "##1pos44cit5": 859,
      "##1pos44cit2": 860,
      "##1pos44cit3": 861,
      "##1pos66cit1": 862,
      "##1pos66cit4": 863,
      "##1pos66cit6": 864,
      "##1pos66cit5": 865,
      "##1pos66cit2": 866,
      "##1pos66cit3": 867,
      "##1pos55cit1": 868,
      "##1pos55cit4": 869,
      "##1pos55cit6": 870,
      "##1pos55cit5": 871,
      "##1pos55cit2": 872,
      "##1pos55cit3": 873,
      "##1pos77cit1": 874,
      "##1pos77cit4": 875,
      "##1pos77cit6": 876,
      "##1pos77cit5": 877,
      "##1pos77cit2": 878,
      "##1pos77cit3": 879,
      "##2pos44cit1": 880,
      "##2pos44cit4": 881,
      "##2pos44cit6": 882,
      "##2pos44cit5": 883,
      "##2pos44cit2": 884,
      "##2pos44cit3": 885,
      "##2pos66cit1": 886,
      "##2pos66cit4": 887,
      "##2pos66cit6": 888,
      "##2pos66cit5": 889,
      "##2pos66cit2": 890,
      "##2pos66cit3": 891,
      "##2pos55cit1": 892,
      "##2pos55cit4": 893,
      "##2pos55cit6": 894,
      "##2pos55cit5": 895,
      "##2pos55cit2": 896,
      "##2pos55cit3": 897,
      "##2pos77cit1": 898,
      "##2pos77cit4": 899,
      "##2pos77cit6": 900,
      "##2pos77cit5": 901,
      "##2pos77cit2": 902,
      "##2pos77cit3": 903,
      "drivetrucktru2apt4apt8": 904,
      "drivetrucktru2apt4apt6": 905,
      "drivetrucktru2apt4apt5": 906,
      "drivetrucktru2apt4apt7": 907,
      "drivetrucktru2apt5apt8": 908,
      "drivetrucktru2apt5apt6": 909,
      "drivetrucktru2apt5apt7": 910,
      "drivetrucktru2apt5apt4": 911,
      "drivetrucktru2apt7apt4": 912,
      "drivetrucktru2apt7apt8": 913,
      "drivetrucktru2apt7apt6": 914,
      "drivetrucktru2apt7apt5": 915,
      "drivetrucktru2apt8apt4": 916,
      "drivetrucktru2apt8apt6": 917,
      "drivetrucktru2apt8apt7": 918,
      "drivetrucktru2apt6apt4": 919,
      "drivetrucktru2apt6apt8": 920,
      "drivetrucktru2apt6apt5": 921,
      "drivetrucktru2apt6apt7": 922,
      "drivetrucktru2apt8apt5": 923,
      "drivetrucktru5apt4apt8": 924,
      "drivetrucktru5apt4apt6": 925,
      "drivetrucktru5apt4apt5": 926,
      "drivetrucktru5apt4apt7": 927,
      "drivetrucktru5apt5apt8": 928,
      "drivetrucktru5apt5apt6": 929,
      "drivetrucktru5apt5apt7": 930,
      "drivetrucktru5apt5apt4": 931,
      "drivetrucktru5apt7apt4": 932,
      "drivetrucktru5apt7apt8": 933,
      "drivetrucktru5apt7apt6": 934,
      "drivetrucktru5apt7apt5": 935,
      "drivetrucktru5apt8apt4": 936,
      "drivetrucktru5apt8apt6": 937,
      "drivetrucktru5apt8apt7": 938,
      "drivetrucktru5apt6apt4": 939,
      "drivetrucktru5apt6apt8": 940,
      "drivetrucktru5apt6apt5": 941,
      "drivetrucktru5apt6apt7": 942,
      "drivetrucktru5apt8apt5": 943,
      "drivetrucktru1apt4apt8": 944,
      "drivetrucktru1apt4apt6": 945,
      "drivetrucktru1apt4apt5": 946,
      "drivetrucktru1apt4apt7": 947,
      "drivetrucktru1apt5apt8": 948,
      "drivetrucktru1apt5apt6": 949,
      "drivetrucktru1apt5apt7": 950,
      "drivetrucktru1apt5apt4": 951,
      "drivetrucktru1apt7apt4": 952,
      "drivetrucktru1apt7apt8": 953,
      "drivetrucktru1apt7apt6": 954,
      "drivetrucktru1apt7apt5": 955,
      "drivetrucktru1apt8apt4": 956,
      "drivetrucktru1apt8apt6": 957,
      "drivetrucktru1apt8apt7": 958,
      "drivetrucktru1apt6apt4": 959,
      "drivetrucktru1apt6apt8": 960,
      "drivetrucktru1apt6apt5": 961,
      "drivetrucktru1apt6apt7": 962,
      "drivetrucktru1apt8apt5": 963,
      "drivetrucktru4apt4apt8": 964,
      "drivetrucktru4apt4apt6": 965,
      "drivetrucktru4apt4apt5": 966,
      "drivetrucktru4apt4apt7": 967,
      "drivetrucktru4apt5apt8": 968,
      "drivetrucktru4apt5apt6": 969,
      "drivetrucktru4apt5apt7": 970,
      "drivetrucktru4apt7apt4": 971,
      "drivetrucktru4apt7apt8": 972,
      "drivetrucktru4apt7apt6": 973,
      "drivetrucktru4apt7apt5": 974,
      "drivetrucktru4apt8apt4": 975,
      "drivetrucktru4apt8apt6": 976,
      "drivetrucktru4apt8apt7": 977,
      "drivetrucktru4apt6apt4": 978,
      "drivetrucktru4apt6apt8": 979,
      "drivetrucktru4apt6apt5": 980,
      "drivetrucktru4apt6apt7": 981,
      "drivetrucktru4apt8apt5": 982,
      "drivetrucktru3apt4apt8": 983,
      "drivetrucktru3apt4apt6": 984,
      "drivetrucktru3apt4apt5": 985,
      "drivetrucktru3apt4apt7": 986,
      "drivetrucktru3apt5apt8": 987,
      "drivetrucktru3apt5apt6": 988,
      "drivetrucktru3apt5apt7": 989,
      "drivetrucktru3apt5apt4": 990,
      "drivetrucktru3apt7apt4": 991,
      "drivetrucktru3apt7apt8": 992,
      "drivetrucktru3apt7apt6": 993,
      "drivetrucktru3apt7apt5": 994,
      "drivetrucktru3apt8apt4": 995,
      "drivetrucktru3apt8apt6": 996,
      "drivetrucktru3apt8apt7": 997,
      "drivetrucktru3apt6apt4": 998,
      "drivetrucktru3apt6apt8": 999,
      "drivetrucktru3apt6apt5": 1000,
      "drivetrucktru3apt6apt7": 1001,
      "drivetrucktru4apt5apt4": 1002,
      "drivetrucktru3apt8apt5": 1003,
      "drivetrucktru2apt3pos44cit1": 1004,
      "drivetrucktru2apt3pos44cit4": 1005,
      "drivetrucktru2apt3pos44cit6": 1006,
      "drivetrucktru2apt3pos44cit5": 1007,
      "drivetrucktru2apt3pos44cit2": 1008,
      "drivetrucktru2apt3pos44cit3": 1009,
      "drivetrucktru2apt3pos66cit1": 1010,
      "drivetrucktru2apt3pos66cit4": 1011,
      "drivetrucktru2apt3pos66cit6": 1012,
      "drivetrucktru2apt3pos66cit5": 1013,
      "drivetrucktru2apt3pos66cit2": 1014,
      "drivetrucktru2apt3pos66cit3": 1015,
      "drivetrucktru2apt3pos55cit1": 1016,
      "drivetrucktru2apt3pos55cit4": 1017,
      "drivetrucktru2apt3pos55cit6": 1018,
      "drivetrucktru2apt3pos55cit5": 1019,
      "drivetrucktru2apt3pos55cit2": 1020,
      "drivetrucktru2apt3pos55cit3": 1021,
      "drivetrucktru2apt3pos77cit1": 1022,
      "drivetrucktru2apt3pos77cit4": 1023,
      "drivetrucktru2apt3pos77cit6": 1024,
      "drivetrucktru2apt3pos77cit5": 1025,
      "drivetrucktru2apt3pos77cit2": 1026,
      "drivetrucktru2apt3pos77cit3": 1027,
      "drivetrucktru2apt3apt8cit1": 1028,
      "drivetrucktru2apt3apt8cit4": 1029,
      "drivetrucktru2apt3apt8cit6": 1030,
      "drivetrucktru2apt3apt8cit5": 1031,
      "drivetrucktru2apt3apt8cit2": 1032,
      "drivetrucktru2apt3apt8cit3": 1033,
      "drivetrucktru2apt3apt6cit1": 1034,
      "drivetrucktru2apt3apt6cit4": 1035,
      "drivetrucktru2apt3apt6cit6": 1036,
      "drivetrucktru2apt3apt6cit5": 1037,
      "drivetrucktru2apt3apt6cit2": 1038,
      "drivetrucktru2apt3apt6cit3": 1039,
      "drivetrucktru2apt3apt5cit1": 1040,
      "drivetrucktru2apt3apt5cit4": 1041,
      "drivetrucktru2apt3apt5cit6": 1042,
      "drivetrucktru2apt3apt5cit5": 1043,
      "drivetrucktru2apt3apt5cit2": 1044,
      "drivetrucktru2apt3apt5cit3": 1045,
      "drivetrucktru2apt3apt7cit1": 1046,
      "drivetrucktru2apt3apt7cit4": 1047,
      "drivetrucktru2apt3apt7cit6": 1048,
      "drivetrucktru2apt3apt7cit5": 1049,
      "drivetrucktru2apt3apt7cit2": 1050,
      "drivetrucktru2apt3apt7cit3": 1051,
      "drivetrucktru2apt3apt4cit1": 1052,
      "drivetrucktru2apt3apt4cit4": 1053,
      "drivetrucktru2apt3apt4cit6": 1054,
      "drivetrucktru2apt3apt4cit3": 1055,
      "drivetrucktru2apt3apt4cit5": 1056,
      "drivetrucktru2apt3apt4cit2": 1057,
      "drivetrucktru2apt2apt4cit1": 1058,
      "drivetrucktru2apt2apt4cit4": 1059,
      "drivetrucktru2apt2apt4cit6": 1060,
      "drivetrucktru2apt2apt4cit5": 1061,
      "drivetrucktru2apt2apt4cit2": 1062,
      "drivetrucktru2apt2apt4cit3": 1063,
      "drivetrucktru2apt2apt8cit1": 1064,
      "drivetrucktru2apt2apt8cit4": 1065,
      "drivetrucktru2apt2apt8cit6": 1066,
      "drivetrucktru2apt2apt8cit5": 1067,
      "drivetrucktru2apt2apt8cit2": 1068,
      "drivetrucktru2apt2apt8cit3": 1069,
      "drivetrucktru2apt2apt6cit1": 1070,
      "drivetrucktru2apt2apt6cit4": 1071,
      "drivetrucktru2apt2apt6cit6": 1072,
      "drivetrucktru2apt2apt6cit5": 1073,
      "drivetrucktru2apt2apt6cit2": 1074,
      "drivetrucktru2apt2apt6cit3": 1075,
      "drivetrucktru2apt2apt5cit1": 1076,
      "drivetrucktru2apt2apt5cit4": 1077,
      "drivetrucktru2apt2apt5cit6": 1078,
      "drivetrucktru2apt2apt5cit5": 1079,
      "drivetrucktru2apt2apt5cit2": 1080,
      "drivetrucktru2apt2apt5cit3": 1081,
      "drivetrucktru2apt2apt7cit1": 1082,
      "drivetrucktru2apt2apt7cit4": 1083,
      "drivetrucktru2apt2apt7cit6": 1084,
      "drivetrucktru2apt2apt7cit5": 1085,
      "drivetrucktru2apt2apt7cit2": 1086,
      "drivetrucktru2apt2apt7cit3": 1087,
      "drivetrucktru2apt1apt8cit1": 1088,
      "drivetrucktru2apt1apt8cit4": 1089,
      "drivetrucktru2apt1apt8cit6": 1090,
      "drivetrucktru2apt1apt8cit5": 1091,
      "drivetrucktru2apt1apt8cit2": 1092,
      "drivetrucktru2apt1apt8cit3": 1093,
      "drivetrucktru2apt1apt6cit1": 1094,
      "drivetrucktru2apt1apt6cit4": 1095,
      "drivetrucktru2apt1apt6cit6": 1096,
      "drivetrucktru2apt1apt6cit5": 1097,
      "drivetrucktru2apt1apt6cit2": 1098,
      "drivetrucktru2apt1apt6cit3": 1099,
      "drivetrucktru2apt1apt5cit1": 1100,
      "drivetrucktru2apt1apt5cit4": 1101,
      "drivetrucktru2apt1apt5cit6": 1102,
      "drivetrucktru2apt1apt5cit5": 1103,
      "drivetrucktru2apt1apt5cit2": 1104,
      "drivetrucktru2apt1apt5cit3": 1105,
      "drivetrucktru2apt1apt7cit1": 1106,
      "drivetrucktru2apt1apt7cit4": 1107,
      "drivetrucktru2apt1apt7cit6": 1108,
      "drivetrucktru2apt1apt7cit5": 1109,
      "drivetrucktru2apt1apt7cit2": 1110,
      "drivetrucktru2apt1apt7cit3": 1111,
      "drivetrucktru2apt1apt4cit1": 1112,
      "drivetrucktru2apt1apt4cit4": 1113,
      "drivetrucktru2apt1apt4cit6": 1114,
      "drivetrucktru2apt1apt4cit5": 1115,
      "drivetrucktru2apt1apt4cit2": 1116,
      "drivetrucktru2apt3pos33cit4": 1117,
      "drivetrucktru2apt3pos33cit6": 1118,
      "drivetrucktru2apt3pos33cit5": 1119,
      "drivetrucktru2apt3pos33cit1": 1120,
      "drivetrucktru2apt3pos33cit2": 1121,
      "drivetrucktru2apt3pos33cit3": 1122,
      "drivetrucktru2apt1apt4cit3": 1123,
      "drivetrucktru2apt1pos44cit1": 1124,
      "drivetrucktru2apt1pos44cit4": 1125,
      "drivetrucktru2apt1pos44cit6": 1126,
      "drivetrucktru2apt1pos44cit5": 1127,
      "drivetrucktru2apt1pos44cit2": 1128,
      "drivetrucktru2apt1pos44cit3": 1129,
      "drivetrucktru2apt1pos66cit1": 1130,
      "drivetrucktru2apt1pos66cit4": 1131,
      "drivetrucktru2apt1pos66cit6": 1132,
      "drivetrucktru2apt1pos66cit5": 1133,
      "drivetrucktru2apt1pos66cit2": 1134,
      "drivetrucktru2apt1pos66cit3": 1135,
      "drivetrucktru2apt1pos55cit1": 1136,
      "drivetrucktru2apt1pos55cit4": 1137,
      "drivetrucktru2apt1pos55cit6": 1138,
      "drivetrucktru2apt1pos55cit5": 1139,
      "drivetrucktru2apt1pos55cit2": 1140,
      "drivetrucktru2apt1pos55cit3": 1141,
      "drivetrucktru2apt1pos77cit1": 1142,
      "drivetrucktru2apt1pos77cit4": 1143,
      "drivetrucktru2apt1pos77cit6": 1144,
      "drivetrucktru2apt1pos77cit5": 1145,
      "drivetrucktru2apt1pos77cit2": 1146,
      "drivetrucktru2apt1pos77cit3": 1147,
      "drivetrucktru2apt2pos44cit1": 1148,
      "drivetrucktru2apt2pos44cit4": 1149,
      "drivetrucktru2apt2pos44cit6": 1150,
      "drivetrucktru2apt2pos44cit5": 1151,
      "drivetrucktru2apt2pos44cit2": 1152,
      "drivetrucktru2apt2pos44cit3": 1153,
      "drivetrucktru2apt2pos66cit1": 1154,
      "drivetrucktru2apt2pos66cit4": 1155,
      "drivetrucktru2apt2pos66cit6": 1156,
      "drivetrucktru2apt2pos66cit5": 1157,
      "drivetrucktru2apt2pos66cit2": 1158,
      "drivetrucktru2apt2pos66cit3": 1159,
      "drivetrucktru2apt2pos55cit1": 1160,
      "drivetrucktru2apt2pos55cit4": 1161,
      "drivetrucktru2apt2pos55cit6": 1162,
      "drivetrucktru2apt2pos55cit5": 1163,
      "drivetrucktru2apt2pos55cit2": 1164,
      "drivetrucktru2apt2pos55cit3": 1165,
      "drivetrucktru2apt2pos77cit1": 1166,
      "drivetrucktru2apt2pos77cit4": 1167,
      "drivetrucktru2apt2pos77cit6": 1168,
      "drivetrucktru2apt2pos77cit5": 1169,
      "drivetrucktru2apt2pos77cit2": 1170,
      "drivetrucktru2apt2pos77cit3": 1171,
      "drivetrucktru5apt3pos44cit1": 1172,
      "drivetrucktru5apt3pos44cit4": 1173,
      "drivetrucktru5apt3pos44cit6": 1174,
      "drivetrucktru5apt3pos44cit5": 1175,
      "drivetrucktru5apt3pos44cit2": 1176,
      "drivetrucktru5apt3pos44cit3": 1177,
      "drivetrucktru5apt3pos66cit1": 1178,
      "drivetrucktru5apt3pos66cit4": 1179,
      "drivetrucktru5apt3pos66cit6": 1180,
      "drivetrucktru5apt3pos66cit5": 1181,
      "drivetrucktru5apt3pos66cit2": 1182,
      "drivetrucktru5apt3pos66cit3": 1183,
      "drivetrucktru5apt3pos55cit1": 1184,
      "drivetrucktru5apt3pos55cit4": 1185,
      "drivetrucktru5apt3pos55cit6": 1186,
      "drivetrucktru5apt3pos55cit5": 1187,
      "drivetrucktru5apt3pos55cit2": 1188,
      "drivetrucktru5apt3pos55cit3": 1189,
      "drivetrucktru5apt3pos77cit1": 1190,
      "drivetrucktru5apt3pos77cit4": 1191,
      "drivetrucktru5apt3pos77cit6": 1192,
      "drivetrucktru5apt3pos77cit5": 1193,
      "drivetrucktru5apt3pos77cit2": 1194,
      "drivetrucktru5apt3pos77cit3": 1195,
      "drivetrucktru5apt3apt8cit1": 1196,
      "drivetrucktru5apt3apt8cit4": 1197,
      "drivetrucktru5apt3apt8cit6": 1198,
      "drivetrucktru5apt3apt8cit5": 1199,
      "drivetrucktru5apt3apt8cit2": 1200,
      "drivetrucktru5apt3apt8cit3": 1201,
      "drivetrucktru5apt3apt6cit1": 1202,
      "drivetrucktru5apt3apt6cit4": 1203,
      "drivetrucktru5apt3apt6cit6": 1204,
      "drivetrucktru5apt3apt6cit5": 1205,
      "drivetrucktru5apt3apt6cit2": 1206,
      "drivetrucktru5apt3apt6cit3": 1207,
      "drivetrucktru5apt3apt5cit1": 1208,
      "drivetrucktru5apt3apt5cit4": 1209,
      "drivetrucktru5apt3apt5cit6": 1210,
      "drivetrucktru5apt3apt5cit5": 1211,
      "drivetrucktru5apt3apt5cit2": 1212,
      "drivetrucktru5apt3apt5cit3": 1213,
      "drivetrucktru5apt3apt7cit1": 1214,
      "drivetrucktru5apt3apt7cit4": 1215,
      "drivetrucktru5apt3apt7cit6": 1216,
      "drivetrucktru5apt3apt7cit5": 1217,
      "drivetrucktru5apt3apt7cit2": 1218,
      "drivetrucktru5apt3apt7cit3": 1219,
      "drivetrucktru5apt3apt4cit1": 1220,
      "drivetrucktru5apt3apt4cit4": 1221,
      "drivetrucktru5apt3apt4cit6": 1222,
      "drivetrucktru5apt3apt4cit3": 1223,
      "drivetrucktru5apt3apt4cit5": 1224,
      "drivetrucktru5apt3apt4cit2": 1225,
      "drivetrucktru5apt2apt4cit1": 1226,
      "drivetrucktru5apt2apt4cit4": 1227,
      "drivetrucktru5apt2apt4cit6": 1228,
      "drivetrucktru5apt2apt4cit5": 1229,
      "drivetrucktru5apt2apt4cit2": 1230,
      "drivetrucktru5apt2apt4cit3": 1231,
      "drivetrucktru5apt2apt8cit1": 1232,
      "drivetrucktru5apt2apt8cit4": 1233,
      "drivetrucktru5apt2apt8cit6": 1234,
      "drivetrucktru5apt2apt8cit5": 1235,
      "drivetrucktru5apt2apt8cit2": 1236,
      "drivetrucktru5apt2apt8cit3": 1237,
      "drivetrucktru5apt2apt6cit1": 1238,
      "drivetrucktru5apt2apt6cit4": 1239,
      "drivetrucktru5apt2apt6cit6": 1240,
      "drivetrucktru5apt2apt6cit5": 1241,
      "drivetrucktru5apt2apt6cit2": 1242,
      "drivetrucktru5apt2apt6cit3": 1243,
      "drivetrucktru5apt2apt5cit1": 1244,
      "drivetrucktru5apt2apt5cit4": 1245,
      "drivetrucktru5apt2apt5cit6": 1246,
      "drivetrucktru5apt2apt5cit5": 1247,
      "drivetrucktru5apt2apt5cit2": 1248,
      "drivetrucktru5apt2apt5cit3": 1249,
      "drivetrucktru5apt2apt7cit1": 1250,
      "drivetrucktru5apt2apt7cit4": 1251,
      "drivetrucktru5apt2apt7cit6": 1252,
      "drivetrucktru5apt2apt7cit5": 1253,
      "drivetrucktru5apt2apt7cit2": 1254,
      "drivetrucktru5apt2apt7cit3": 1255,
      "drivetrucktru5apt1apt8cit1": 1256,
      "drivetrucktru5apt1apt8cit4": 1257,
      "drivetrucktru5apt1apt8cit6": 1258,
      "drivetrucktru5apt1apt8cit5": 1259,
      "drivetrucktru5apt1apt8cit2": 1260,
      "drivetrucktru5apt1apt8cit3": 1261,
      "drivetrucktru5apt1apt6cit1": 1262,
      "drivetrucktru5apt1apt6cit4": 1263,
      "drivetrucktru5apt1apt6cit6": 1264,
      "drivetrucktru5apt1apt6cit5": 1265,
      "drivetrucktru5apt1apt6cit2": 1266,
      "drivetrucktru5apt1apt6cit3": 1267,
      "drivetrucktru5apt1apt5cit1": 1268,
      "drivetrucktru5apt1apt5cit4": 1269,
      "drivetrucktru5apt1apt5cit6": 1270,
      "drivetrucktru5apt1apt5cit5": 1271,
      "drivetrucktru5apt1apt5cit2": 1272,
      "drivetrucktru5apt1apt5cit3": 1273,
      "drivetrucktru5apt1apt7cit1": 1274,
      "drivetrucktru5apt1apt7cit4": 1275,
      "drivetrucktru5apt1apt7cit6": 1276,
      "drivetrucktru5apt1apt7cit5": 1277,
      "drivetrucktru5apt1apt7cit2": 1278,
      "drivetrucktru5apt1apt7cit3": 1279,
      "drivetrucktru5apt1apt4cit1": 1280,
      "drivetrucktru5apt1apt4cit4": 1281,
      "drivetrucktru5apt1apt4cit6": 1282,
      "drivetrucktru5apt1apt4cit5": 1283,
      "drivetrucktru5apt1apt4cit2": 1284,
      "drivetrucktru5apt3pos33cit4": 1285,
      "drivetrucktru5apt3pos33cit6": 1286,
      "drivetrucktru5apt3pos33cit5": 1287,
      "drivetrucktru5apt3pos33cit1": 1288,
      "drivetrucktru5apt3pos33cit2": 1289,
      "drivetrucktru5apt3pos33cit3": 1290,
      "drivetrucktru5apt1apt4cit3": 1291,
      "drivetrucktru5apt1pos44cit1": 1292,
      "drivetrucktru5apt1pos44cit4": 1293,
      "drivetrucktru5apt1pos44cit6": 1294,
      "drivetrucktru5apt1pos44cit5": 1295,
      "drivetrucktru5apt1pos44cit2": 1296,
      "drivetrucktru5apt1pos44cit3": 1297,
      "drivetrucktru5apt1pos66cit1": 1298,
      "drivetrucktru5apt1pos66cit4": 1299,
      "drivetrucktru5apt1pos66cit6": 1300,
      "drivetrucktru5apt1pos66cit5": 1301,
      "drivetrucktru5apt1pos66cit2": 1302,
      "drivetrucktru5apt1pos66cit3": 1303,
      "drivetrucktru5apt1pos55cit1": 1304,
      "drivetrucktru5apt1pos55cit4": 1305,
      "drivetrucktru5apt1pos55cit6": 1306,
      "drivetrucktru5apt1pos55cit5": 1307,
      "drivetrucktru5apt1pos55cit2": 1308,
      "drivetrucktru5apt1pos55cit3": 1309,
      "drivetrucktru5apt1pos77cit1": 1310,
      "drivetrucktru5apt1pos77cit4": 1311,
      "drivetrucktru5apt1pos77cit6": 1312,
      "drivetrucktru5apt1pos77cit5": 1313,
      "drivetrucktru5apt1pos77cit2": 1314,
      "drivetrucktru5apt1pos77cit3": 1315,
      "drivetrucktru5apt2pos44cit1": 1316,
      "drivetrucktru5apt2pos44cit4": 1317,
      "drivetrucktru5apt2pos44cit6": 1318,
      "drivetrucktru5apt2pos44cit5": 1319,
      "drivetrucktru5apt2pos44cit2": 1320,
      "drivetrucktru5apt2pos44cit3": 1321,
      "drivetrucktru5apt2pos66cit1": 1322,
      "drivetrucktru5apt2pos66cit4": 1323,
      "drivetrucktru5apt2pos66cit6": 1324,
      "drivetrucktru5apt2pos66cit5": 1325,
      "drivetrucktru5apt2pos66cit2": 1326,
      "drivetrucktru5apt2pos66cit3": 1327,
      "drivetrucktru5apt2pos55cit1": 1328,
      "drivetrucktru5apt2pos55cit4": 1329,
      "drivetrucktru5apt2pos55cit6": 1330,
      "drivetrucktru5apt2pos55cit5": 1331,
      "drivetrucktru5apt2pos55cit2": 1332,
      "drivetrucktru5apt2pos55cit3": 1333,
      "drivetrucktru5apt2pos77cit1": 1334,
      "drivetrucktru5apt2pos77cit4": 1335,
      "drivetrucktru5apt2pos77cit6": 1336,
      "drivetrucktru5apt2pos77cit5": 1337,
      "drivetrucktru5apt2pos77cit2": 1338,
      "drivetrucktru5apt2pos77cit3": 1339,
      "drivetrucktru1apt3pos44cit1": 1340,
      "drivetrucktru1apt3pos44cit4": 1341,
      "drivetrucktru1apt3pos44cit6": 1342,
      "drivetrucktru1apt3pos44cit5": 1343,
      "drivetrucktru1apt3pos44cit2": 1344,
      "drivetrucktru1apt3pos44cit3": 1345,
      "drivetrucktru1apt3pos66cit1": 1346,
      "drivetrucktru1apt3pos66cit4": 1347,
      "drivetrucktru1apt3pos66cit6": 1348,
      "drivetrucktru1apt3pos66cit5": 1349,
      "drivetrucktru1apt3pos66cit2": 1350,
      "drivetrucktru1apt3pos66cit3": 1351,
      "drivetrucktru1apt3pos55cit1": 1352,
      "drivetrucktru1apt3pos55cit4": 1353,
      "drivetrucktru1apt3pos55cit6": 1354,
      "drivetrucktru1apt3pos55cit5": 1355,
      "drivetrucktru1apt3pos55cit2": 1356,
      "drivetrucktru1apt3pos55cit3": 1357,
      "drivetrucktru1apt3pos77cit1": 1358,
      "drivetrucktru1apt3pos77cit4": 1359,
      "drivetrucktru1apt3pos77cit6": 1360,
      "drivetrucktru1apt3pos77cit5": 1361,
      "drivetrucktru1apt3pos77cit2": 1362,
      "drivetrucktru1apt3pos77cit3": 1363,
      "drivetrucktru1apt3apt8cit1": 1364,
      "drivetrucktru1apt3apt8cit4": 1365,
      "drivetrucktru1apt3apt8cit6": 1366,
      "drivetrucktru1apt3apt8cit5": 1367,
      "drivetrucktru1apt3apt8cit2": 1368,
      "drivetrucktru1apt3apt8cit3": 1369,
      "drivetrucktru1apt3apt6cit1": 1370,
      "drivetrucktru1apt3apt6cit4": 1371,
      "drivetrucktru1apt3apt6cit6": 1372,
      "drivetrucktru1apt3apt6cit5": 1373,
      "drivetrucktru1apt3apt6cit2": 1374,
      "drivetrucktru1apt3apt6cit3": 1375,
      "drivetrucktru1apt3apt5cit1": 1376,
      "drivetrucktru1apt3apt5cit4": 1377,
      "drivetrucktru1apt3apt5cit6": 1378,
      "drivetrucktru1apt3apt5cit5": 1379,
      "drivetrucktru1apt3apt5cit2": 1380,
      "drivetrucktru1apt3apt5cit3": 1381,
      "drivetrucktru1apt3apt7cit1": 1382,
      "drivetrucktru1apt3apt7cit4": 1383,
      "drivetrucktru1apt3apt7cit6": 1384,
      "drivetrucktru1apt3apt7cit5": 1385,
      "drivetrucktru1apt3apt7cit2": 1386,
      "drivetrucktru1apt3apt7cit3": 1387,
      "drivetrucktru1apt3apt4cit1": 1388,
      "drivetrucktru1apt3apt4cit4": 1389,
      "drivetrucktru1apt3apt4cit6": 1390,
      "drivetrucktru1apt3apt4cit3": 1391,
      "drivetrucktru1apt3apt4cit2": 1392,
      "drivetrucktru1apt2apt4cit1": 1393,
      "drivetrucktru1apt2apt4cit4": 1394,
      "drivetrucktru1apt2apt4cit6": 1395,
      "drivetrucktru1apt2apt4cit5": 1396,
      "drivetrucktru1apt2apt4cit2": 1397,
      "drivetrucktru1apt2apt4cit3": 1398,
      "drivetrucktru1apt2apt8cit1": 1399,
      "drivetrucktru1apt2apt8cit4": 1400,
      "drivetrucktru1apt2apt8cit6": 1401,
      "drivetrucktru1apt2apt8cit5": 1402,
      "drivetrucktru1apt2apt8cit2": 1403,
      "drivetrucktru1apt2apt8cit3": 1404,
      "drivetrucktru1apt2apt6cit1": 1405,
      "drivetrucktru1apt2apt6cit4": 1406,
      "drivetrucktru1apt2apt6cit6": 1407,
      "drivetrucktru1apt2apt6cit5": 1408,
      "drivetrucktru1apt2apt6cit2": 1409,
      "drivetrucktru1apt2apt6cit3": 1410,
      "drivetrucktru1apt2apt5cit1": 1411,
      "drivetrucktru1apt2apt5cit4": 1412,
      "drivetrucktru1apt2apt5cit6": 1413,
      "drivetrucktru1apt2apt5cit5": 1414,
      "drivetrucktru1apt2apt5cit2": 1415,
      "drivetrucktru1apt2apt5cit3": 1416,
      "drivetrucktru1apt2apt7cit1": 1417,
      "drivetrucktru1apt2apt7cit4": 1418,
      "drivetrucktru1apt2apt7cit6": 1419,
      "drivetrucktru1apt2apt7cit5": 1420,
      "drivetrucktru1apt2apt7cit2": 1421,
      "drivetrucktru1apt2apt7cit3": 1422,
      "drivetrucktru1apt1apt8cit1": 1423,
      "drivetrucktru1apt1apt8cit4": 1424,
      "drivetrucktru1apt1apt8cit6": 1425,
      "drivetrucktru1apt1apt8cit5": 1426,
      "drivetrucktru1apt1apt8cit2": 1427,
      "drivetrucktru1apt1apt8cit3": 1428,
      "drivetrucktru1apt1apt6cit1": 1429,
      "drivetrucktru1apt1apt6cit4": 1430,
      "drivetrucktru1apt1apt6cit6": 1431,
      "drivetrucktru1apt1apt6cit5": 1432,
      "drivetrucktru1apt1apt6cit2": 1433,
      "drivetrucktru1apt1apt6cit3": 1434,
      "drivetrucktru1apt1apt5cit1": 1435,
      "drivetrucktru1apt1apt5cit4": 1436,
      "drivetrucktru1apt1apt5cit6": 1437,
      "drivetrucktru1apt1apt5cit5": 1438,
      "drivetrucktru1apt1apt5cit2": 1439,
      "drivetrucktru1apt1apt5cit3": 1440,
      "drivetrucktru1apt1apt7cit1": 1441,
      "drivetrucktru1apt1apt7cit4": 1442,
      "drivetrucktru1apt1apt7cit6": 1443,
      "drivetrucktru1apt1apt7cit5": 1444,
      "drivetrucktru1apt1apt7cit2": 1445,
      "drivetrucktru1apt1apt7cit3": 1446,
      "drivetrucktru1apt1apt4cit1": 1447,
      "drivetrucktru1apt1apt4cit4": 1448,
      "drivetrucktru1apt1apt4cit6": 1449,
      "drivetrucktru1apt1apt4cit5": 1450,
      "drivetrucktru1apt1apt4cit2": 1451,
      "drivetrucktru1apt3pos33cit4": 1452,
      "drivetrucktru1apt3pos33cit6": 1453,
      "drivetrucktru1apt3pos33cit5": 1454,
      "drivetrucktru1apt3pos33cit1": 1455,
      "drivetrucktru1apt3pos33cit2": 1456,
      "drivetrucktru1apt3pos33cit3": 1457,
      "drivetrucktru1apt1apt4cit3": 1458,
      "drivetrucktru1apt1pos44cit1": 1459,
      "drivetrucktru1apt1pos44cit4": 1460,
      "drivetrucktru1apt1pos44cit6": 1461,
      "drivetrucktru1apt1pos44cit5": 1462,
      "drivetrucktru1apt1pos44cit2": 1463,
      "drivetrucktru1apt1pos44cit3": 1464,
      "drivetrucktru1apt1pos66cit1": 1465,
      "drivetrucktru1apt1pos66cit4": 1466,
      "drivetrucktru1apt1pos66cit6": 1467,
      "drivetrucktru1apt1pos66cit5": 1468,
      "drivetrucktru1apt1pos66cit2": 1469,
      "drivetrucktru1apt1pos66cit3": 1470,
      "drivetrucktru1apt1pos55cit1": 1471,
      "drivetrucktru1apt1pos55cit4": 1472,
      "drivetrucktru1apt1pos55cit6": 1473,
      "drivetrucktru1apt1pos55cit5": 1474,
      "drivetrucktru1apt1pos55cit2": 1475,
      "drivetrucktru1apt1pos55cit3": 1476,
      "drivetrucktru1apt1pos77cit1": 1477,
      "drivetrucktru1apt1pos77cit4": 1478,
      "drivetrucktru1apt1pos77cit6": 1479,
      "drivetrucktru1apt1pos77cit5": 1480,
      "drivetrucktru1apt1pos77cit2": 1481,
      "drivetrucktru1apt1pos77cit3": 1482,
      "drivetrucktru1apt2pos44cit1": 1483,
      "drivetrucktru1apt2pos44cit4": 1484,
      "drivetrucktru1apt2pos44cit6": 1485,
      "drivetrucktru1apt2pos44cit5": 1486,
      "drivetrucktru1apt2pos44cit2": 1487,
      "drivetrucktru1apt2pos44cit3": 1488,
      "drivetrucktru1apt2pos66cit1": 1489,
      "drivetrucktru1apt2pos66cit4": 1490,
      "drivetrucktru1apt2pos66cit6": 1491,
      "drivetrucktru1apt2pos66cit5": 1492,
      "drivetrucktru1apt2pos66cit2": 1493,
      "drivetrucktru1apt2pos66cit3": 1494,
      "drivetrucktru1apt2pos55cit1": 1495,
      "drivetrucktru1apt2pos55cit4": 1496,
      "drivetrucktru1apt2pos55cit6": 1497,
      "drivetrucktru1apt2pos55cit5": 1498,
      "drivetrucktru1apt2pos55cit2": 1499,
      "drivetrucktru1apt2pos55cit3": 1500,
      "drivetrucktru1apt2pos77cit1": 1501,
      "drivetrucktru1apt2pos77cit4": 1502,
      "drivetrucktru1apt2pos77cit6": 1503,
      "drivetrucktru1apt2pos77cit5": 1504,
      "drivetrucktru1apt2pos77cit2": 1505,
      "drivetrucktru1apt2pos77cit3": 1506,
      "drivetrucktru4apt3pos44cit1": 1507,
      "drivetrucktru4apt3pos44cit4": 1508,
      "drivetrucktru4apt3pos44cit6": 1509,
      "drivetrucktru4apt3pos44cit5": 1510,
      "drivetrucktru4apt3pos44cit2": 1511,
      "drivetrucktru4apt3pos44cit3": 1512,
      "drivetrucktru4apt3pos66cit1": 1513,
      "drivetrucktru4apt3pos66cit4": 1514,
      "drivetrucktru4apt3pos66cit6": 1515,
      "drivetrucktru4apt3pos66cit5": 1516,
      "drivetrucktru4apt3pos66cit2": 1517,
      "drivetrucktru4apt3pos66cit3": 1518,
      "drivetrucktru4apt3pos55cit1": 1519,
      "drivetrucktru4apt3pos55cit4": 1520,
      "drivetrucktru4apt3pos55cit6": 1521,
      "drivetrucktru4apt3pos55cit5": 1522,
      "drivetrucktru4apt3pos55cit2": 1523,
      "drivetrucktru4apt3pos55cit3": 1524,
      "drivetrucktru4apt3pos77cit1": 1525,
      "drivetrucktru4apt3pos77cit4": 1526,
      "drivetrucktru4apt3pos77cit6": 1527,
      "drivetrucktru4apt3pos77cit5": 1528,
      "drivetrucktru4apt3pos77cit2": 1529,
      "drivetrucktru4apt3pos77cit3": 1530,
      "drivetrucktru4apt3apt8cit1": 1531,
      "drivetrucktru4apt3apt8cit4": 1532,
      "drivetrucktru4apt3apt8cit6": 1533,
      "drivetrucktru4apt3apt8cit5": 1534,
      "drivetrucktru4apt3apt8cit2": 1535,
      "drivetrucktru4apt3apt8cit3": 1536,
      "drivetrucktru4apt3apt6cit1": 1537,
      "drivetrucktru4apt3apt6cit4": 1538,
      "drivetrucktru4apt3apt6cit6": 1539,
      "drivetrucktru4apt3apt6cit5": 1540,
      "drivetrucktru4apt3apt6cit2": 1541,
      "drivetrucktru4apt3apt6cit3": 1542,
      "drivetrucktru4apt3apt5cit1": 1543,
      "drivetrucktru4apt3apt5cit4": 1544,
      "drivetrucktru4apt3apt5cit6": 1545,
      "drivetrucktru4apt3apt5cit5": 1546,
      "drivetrucktru4apt3apt5cit2": 1547,
      "drivetrucktru4apt3apt5cit3": 1548,
      "drivetrucktru4apt3apt7cit1": 1549,
      "drivetrucktru4apt3apt7cit4": 1550,
      "drivetrucktru4apt3apt7cit6": 1551,
      "drivetrucktru4apt3apt7cit5": 1552,
      "drivetrucktru4apt3apt7cit2": 1553,
      "drivetrucktru4apt3apt7cit3": 1554,
      "drivetrucktru4apt3apt4cit1": 1555,
      "drivetrucktru4apt3apt4cit4": 1556,
      "drivetrucktru4apt3apt4cit6": 1557,
      "drivetrucktru4apt3apt4cit3": 1558,
      "drivetrucktru4apt3apt4cit5": 1559,
      "drivetrucktru4apt2apt4cit1": 1560,
      "drivetrucktru4apt2apt4cit4": 1561,
      "drivetrucktru4apt2apt4cit6": 1562,
      "drivetrucktru4apt2apt4cit5": 1563,
      "drivetrucktru4apt2apt4cit2": 1564,
      "drivetrucktru4apt2apt4cit3": 1565,
      "drivetrucktru4apt2apt8cit1": 1566,
      "drivetrucktru4apt2apt8cit4": 1567,
      "drivetrucktru4apt2apt8cit6": 1568,
      "drivetrucktru4apt2apt8cit5": 1569,
      "drivetrucktru4apt2apt8cit2": 1570,
      "drivetrucktru4apt2apt8cit3": 1571,
      "drivetrucktru4apt2apt6cit1": 1572,
      "drivetrucktru4apt2apt6cit4": 1573,
      "drivetrucktru4apt2apt6cit6": 1574,
      "drivetrucktru4apt2apt6cit5": 1575,
      "drivetrucktru4apt2apt6cit2": 1576,
      "drivetrucktru4apt2apt6cit3": 1577,
      "drivetrucktru4apt2apt5cit1": 1578,
      "drivetrucktru4apt2apt5cit4": 1579,
      "drivetrucktru4apt2apt5cit6": 1580,
      "drivetrucktru4apt2apt5cit5": 1581,
      "drivetrucktru4apt2apt5cit2": 1582,
      "drivetrucktru4apt2apt5cit3": 1583,
      "drivetrucktru4apt2apt7cit1": 1584,
      "drivetrucktru4apt2apt7cit4": 1585,
      "drivetrucktru4apt2apt7cit6": 1586,
      "drivetrucktru4apt2apt7cit5": 1587,
      "drivetrucktru4apt2apt7cit2": 1588,
      "drivetrucktru4apt2apt7cit3": 1589,
      "drivetrucktru4apt1apt8cit1": 1590,
      "drivetrucktru4apt1apt8cit4": 1591,
      "drivetrucktru4apt1apt8cit6": 1592,
      "drivetrucktru4apt1apt8cit5": 1593,
      "drivetrucktru4apt1apt8cit2": 1594,
      "drivetrucktru4apt1apt8cit3": 1595,
      "drivetrucktru4apt1apt6cit1": 1596,
      "drivetrucktru4apt1apt6cit4": 1597,
      "drivetrucktru4apt1apt6cit6": 1598,
      "drivetrucktru4apt1apt6cit5": 1599,
      "drivetrucktru4apt1apt6cit2": 1600,
      "drivetrucktru4apt1apt6cit3": 1601,
      "drivetrucktru4apt1apt5cit1": 1602,
      "drivetrucktru4apt1apt5cit4": 1603,
      "drivetrucktru4apt1apt5cit6": 1604,
      "drivetrucktru4apt1apt5cit5": 1605,
      "drivetrucktru4apt1apt5cit2": 1606,
      "drivetrucktru4apt1apt5cit3": 1607,
      "drivetrucktru4apt1apt7cit1": 1608,
      "drivetrucktru4apt1apt7cit4": 1609,
      "drivetrucktru4apt1apt7cit6": 1610,
      "drivetrucktru4apt1apt7cit5": 1611,
      "drivetrucktru4apt1apt7cit2": 1612,
      "drivetrucktru4apt1apt7cit3": 1613,
      "drivetrucktru4apt1apt4cit1": 1614,
      "drivetrucktru4apt1apt4cit4": 1615,
      "drivetrucktru4apt1apt4cit6": 1616,
      "drivetrucktru4apt1apt4cit5": 1617,
      "drivetrucktru4apt1apt4cit2": 1618,
      "drivetrucktru4apt3pos33cit4": 1619,
      "drivetrucktru4apt3pos33cit6": 1620,
      "drivetrucktru4apt3pos33cit5": 1621,
      "drivetrucktru4apt3pos33cit1": 1622,
      "drivetrucktru4apt3pos33cit2": 1623,
      "drivetrucktru4apt3pos33cit3": 1624,
      "drivetrucktru4apt1apt4cit3": 1625,
      "drivetrucktru4apt1pos44cit1": 1626,
      "drivetrucktru4apt1pos44cit4": 1627,
      "drivetrucktru4apt1pos44cit6": 1628,
      "drivetrucktru4apt1pos44cit5": 1629,
      "drivetrucktru4apt1pos44cit2": 1630,
      "drivetrucktru4apt1pos44cit3": 1631,
      "drivetrucktru4apt1pos66cit1": 1632,
      "drivetrucktru4apt1pos66cit4": 1633,
      "drivetrucktru4apt1pos66cit6": 1634,
      "drivetrucktru4apt1pos66cit5": 1635,
      "drivetrucktru4apt1pos66cit2": 1636,
      "drivetrucktru4apt1pos66cit3": 1637,
      "drivetrucktru4apt1pos55cit1": 1638,
      "drivetrucktru4apt1pos55cit4": 1639,
      "drivetrucktru4apt1pos55cit6": 1640,
      "drivetrucktru4apt1pos55cit5": 1641,
      "drivetrucktru4apt1pos55cit2": 1642,
      "drivetrucktru4apt1pos55cit3": 1643,
      "drivetrucktru4apt1pos77cit1": 1644,
      "drivetrucktru4apt1pos77cit4": 1645,
      "drivetrucktru4apt1pos77cit6": 1646,
      "drivetrucktru4apt1pos77cit5": 1647,
      "drivetrucktru4apt1pos77cit2": 1648,
      "drivetrucktru4apt1pos77cit3": 1649,
      "drivetrucktru4apt2pos44cit1": 1650,
      "drivetrucktru4apt2pos44cit4": 1651,
      "drivetrucktru4apt2pos44cit6": 1652,
      "drivetrucktru4apt2pos44cit5": 1653,
      "drivetrucktru4apt2pos44cit2": 1654,
      "drivetrucktru4apt2pos44cit3": 1655,
      "drivetrucktru4apt2pos66cit1": 1656,
      "drivetrucktru4apt2pos66cit4": 1657,
      "drivetrucktru4apt2pos66cit6": 1658,
      "drivetrucktru4apt2pos66cit5": 1659,
      "drivetrucktru4apt2pos66cit2": 1660,
      "drivetrucktru4apt2pos66cit3": 1661,
      "drivetrucktru4apt2pos55cit1": 1662,
      "drivetrucktru4apt2pos55cit4": 1663,
      "drivetrucktru4apt2pos55cit6": 1664,
      "drivetrucktru4apt2pos55cit5": 1665,
      "drivetrucktru4apt2pos55cit2": 1666,
      "drivetrucktru4apt2pos55cit3": 1667,
      "drivetrucktru4apt2pos77cit1": 1668,
      "drivetrucktru4apt2pos77cit4": 1669,
      "drivetrucktru4apt2pos77cit6": 1670,
      "drivetrucktru4apt2pos77cit5": 1671,
      "drivetrucktru4apt2pos77cit2": 1672,
      "drivetrucktru4apt2pos77cit3": 1673,
      "drivetrucktru3apt3pos44cit1": 1674,
      "drivetrucktru3apt3pos44cit4": 1675,
      "drivetrucktru3apt3pos44cit6": 1676,
      "drivetrucktru3apt3pos44cit5": 1677,
      "drivetrucktru3apt3pos44cit2": 1678,
      "drivetrucktru3apt3pos44cit3": 1679,
      "drivetrucktru3apt3pos66cit1": 1680,
      "drivetrucktru3apt3pos66cit4": 1681,
      "drivetrucktru3apt3pos66cit6": 1682,
      "drivetrucktru3apt3pos66cit5": 1683,
      "drivetrucktru3apt3pos66cit2": 1684,
      "drivetrucktru3apt3pos66cit3": 1685,
      "drivetrucktru3apt3pos55cit1": 1686,
      "drivetrucktru3apt3pos55cit4": 1687,
      "drivetrucktru3apt3pos55cit6": 1688,
      "drivetrucktru3apt3pos55cit5": 1689,
      "drivetrucktru3apt3pos55cit2": 1690,
      "drivetrucktru3apt3pos55cit3": 1691,
      "drivetrucktru3apt3pos77cit1": 1692,
      "drivetrucktru3apt3pos77cit4": 1693,
      "drivetrucktru3apt3pos77cit6": 1694,
      "drivetrucktru3apt3pos77cit5": 1695,
      "drivetrucktru3apt3pos77cit2": 1696,
      "drivetrucktru3apt3pos77cit3": 1697,
      "drivetrucktru3apt3apt8cit1": 1698,
      "drivetrucktru3apt3apt8cit4": 1699,
      "drivetrucktru3apt3apt8cit6": 1700,
      "drivetrucktru3apt3apt8cit5": 1701,
      "drivetrucktru3apt3apt8cit2": 1702,
      "drivetrucktru3apt3apt8cit3": 1703,
      "drivetrucktru3apt3apt6cit1": 1704,
      "drivetrucktru3apt3apt6cit4": 1705,
      "drivetrucktru3apt3apt6cit6": 1706,
      "drivetrucktru3apt3apt6cit5": 1707,
      "drivetrucktru3apt3apt6cit2": 1708,
      "drivetrucktru3apt3apt6cit3": 1709,
      "drivetrucktru3apt3apt5cit1": 1710,
      "drivetrucktru3apt3apt5cit4": 1711,
      "drivetrucktru3apt3apt5cit6": 1712,
      "drivetrucktru3apt3apt5cit5": 1713,
      "drivetrucktru3apt3apt5cit2": 1714,
      "drivetrucktru3apt3apt5cit3": 1715,
      "drivetrucktru3apt3apt7cit1": 1716,
      "drivetrucktru3apt3apt7cit4": 1717,
      "drivetrucktru3apt3apt7cit6": 1718,
      "drivetrucktru3apt3apt7cit5": 1719,
      "drivetrucktru3apt3apt7cit2": 1720,
      "drivetrucktru3apt3apt7cit3": 1721,
      "drivetrucktru3apt3apt4cit1": 1722,
      "drivetrucktru3apt3apt4cit4": 1723,
      "drivetrucktru3apt3apt4cit6": 1724,
      "drivetrucktru3apt3apt4cit3": 1725,
      "drivetrucktru3apt3apt4cit5": 1726,
      "drivetrucktru3apt3apt4cit2": 1727,
      "drivetrucktru3apt2apt4cit1": 1728,
      "drivetrucktru3apt2apt4cit4": 1729,
      "drivetrucktru3apt2apt4cit6": 1730,
      "drivetrucktru3apt2apt4cit5": 1731,
      "drivetrucktru3apt2apt4cit2": 1732,
      "drivetrucktru3apt2apt4cit3": 1733,
      "drivetrucktru3apt2apt8cit1": 1734,
      "drivetrucktru3apt2apt8cit4": 1735,
      "drivetrucktru3apt2apt8cit6": 1736,
      "drivetrucktru3apt2apt8cit5": 1737,
      "drivetrucktru3apt2apt8cit2": 1738,
      "drivetrucktru3apt2apt8cit3": 1739,
      "drivetrucktru3apt2apt6cit1": 1740,
      "drivetrucktru3apt2apt6cit4": 1741,
      "drivetrucktru3apt2apt6cit6": 1742,
      "drivetrucktru3apt2apt6cit5": 1743,
      "drivetrucktru3apt2apt6cit2": 1744,
      "drivetrucktru3apt2apt6cit3": 1745,
      "drivetrucktru3apt2apt5cit1": 1746,
      "drivetrucktru3apt2apt5cit4": 1747,
      "drivetrucktru3apt2apt5cit6": 1748,
      "drivetrucktru3apt2apt5cit5": 1749,
      "drivetrucktru3apt2apt5cit2": 1750,
      "drivetrucktru3apt2apt5cit3": 1751,
      "drivetrucktru3apt2apt7cit1": 1752,
      "drivetrucktru3apt2apt7cit4": 1753,
      "drivetrucktru3apt2apt7cit6": 1754,
      "drivetrucktru3apt2apt7cit5": 1755,
      "drivetrucktru3apt2apt7cit2": 1756,
      "drivetrucktru3apt2apt7cit3": 1757,
      "drivetrucktru3apt1apt8cit1": 1758,
      "drivetrucktru3apt1apt8cit4": 1759,
      "drivetrucktru3apt1apt8cit6": 1760,
      "drivetrucktru3apt1apt8cit5": 1761,
      "drivetrucktru3apt1apt8cit2": 1762,
      "drivetrucktru3apt1apt8cit3": 1763,
      "drivetrucktru3apt1apt6cit1": 1764,
      "drivetrucktru3apt1apt6cit4": 1765,
      "drivetrucktru3apt1apt6cit6": 1766,
      "drivetrucktru3apt1apt6cit5": 1767,
      "drivetrucktru3apt1apt6cit2": 1768,
      "drivetrucktru3apt1apt6cit3": 1769,
      "drivetrucktru3apt1apt5cit1": 1770,
      "drivetrucktru3apt1apt5cit4": 1771,
      "drivetrucktru3apt1apt5cit6": 1772,
      "drivetrucktru3apt1apt5cit5": 1773,
      "drivetrucktru3apt1apt5cit2": 1774,
      "drivetrucktru3apt1apt5cit3": 1775,
      "drivetrucktru3apt1apt7cit1": 1776,
      "drivetrucktru3apt1apt7cit4": 1777,
      "drivetrucktru3apt1apt7cit6": 1778,
      "drivetrucktru3apt1apt7cit5": 1779,
      "drivetrucktru3apt1apt7cit2": 1780,
      "drivetrucktru3apt1apt7cit3": 1781,
      "drivetrucktru3apt1apt4cit1": 1782,
      "drivetrucktru3apt1apt4cit4": 1783,
      "drivetrucktru3apt1apt4cit6": 1784,
      "drivetrucktru3apt1apt4cit5": 1785,
      "drivetrucktru3apt1apt4cit2": 1786,
      "drivetrucktru3apt3pos33cit4": 1787,
      "drivetrucktru3apt3pos33cit6": 1788,
      "drivetrucktru3apt3pos33cit5": 1789,
      "drivetrucktru3apt3pos33cit1": 1790,
      "drivetrucktru3apt3pos33cit2": 1791,
      "drivetrucktru3apt3pos33cit3": 1792,
      "drivetrucktru3apt1pos44cit1": 1793,
      "drivetrucktru3apt1pos44cit4": 1794,
      "drivetrucktru3apt1pos44cit6": 1795,
      "drivetrucktru3apt1pos44cit5": 1796,
      "drivetrucktru3apt1pos44cit2": 1797,
      "drivetrucktru3apt1pos44cit3": 1798,
      "drivetrucktru3apt1pos66cit1": 1799,
      "drivetrucktru3apt1pos66cit4": 1800,
      "drivetrucktru3apt1pos66cit6": 1801,
      "drivetrucktru3apt1pos66cit5": 1802,
      "drivetrucktru3apt1pos66cit2": 1803,
      "drivetrucktru3apt1pos66cit3": 1804,
      "drivetrucktru3apt1pos55cit1": 1805,
      "drivetrucktru3apt1pos55cit4": 1806,
      "drivetrucktru3apt1pos55cit6": 1807,
      "drivetrucktru3apt1pos55cit5": 1808,
      "drivetrucktru3apt1pos55cit2": 1809,
      "drivetrucktru3apt1pos55cit3": 1810,
      "drivetrucktru3apt1pos77cit1": 1811,
      "drivetrucktru3apt1pos77cit4": 1812,
      "drivetrucktru3apt1pos77cit6": 1813,
      "drivetrucktru3apt1pos77cit5": 1814,
      "drivetrucktru3apt1pos77cit2": 1815,
      "drivetrucktru3apt1pos77cit3": 1816,
      "drivetrucktru3apt2pos44cit1": 1817,
      "drivetrucktru3apt2pos44cit4": 1818,
      "drivetrucktru3apt2pos44cit6": 1819,
      "drivetrucktru3apt2pos44cit5": 1820,
      "drivetrucktru3apt2pos44cit2": 1821,
      "drivetrucktru3apt2pos44cit3": 1822,
      "drivetrucktru3apt2pos66cit1": 1823,
      "drivetrucktru3apt2pos66cit4": 1824,
      "drivetrucktru3apt2pos66cit6": 1825,
      "drivetrucktru3apt2pos66cit5": 1826,
      "drivetrucktru3apt2pos66cit2": 1827,
      "drivetrucktru3apt2pos66cit3": 1828,
      "drivetrucktru3apt2pos55cit1": 1829,
      "drivetrucktru3apt2pos55cit4": 1830,
      "drivetrucktru3apt2pos55cit6": 1831,
      "drivetrucktru3apt2pos55cit5": 1832,
      "drivetrucktru3apt2pos55cit2": 1833,
      "drivetrucktru3apt2pos55cit3": 1834,
      "drivetrucktru3apt2pos77cit1": 1835,
      "drivetrucktru3apt2pos77cit4": 1836,
      "drivetrucktru3apt2pos77cit6": 1837,
      "drivetrucktru3apt2pos77cit5": 1838,
      "drivetrucktru3apt2pos77cit2": 1839,
      "drivetrucktru3apt2pos77cit3": 1840,
      "drivetrucktru3pos13pos44cit1": 1841,
      "drivetrucktru3pos13pos44cit4": 1842,
      "drivetrucktru3pos13pos44cit6": 1843,
      "drivetrucktru3pos13pos44cit5": 1844,
      "drivetrucktru3pos13pos44cit2": 1845,
      "drivetrucktru3pos13pos44cit3": 1846,
      "drivetrucktru3pos13pos66cit1": 1847,
      "drivetrucktru3pos13pos66cit4": 1848,
      "drivetrucktru3pos13pos66cit6": 1849,
      "drivetrucktru3pos13pos66cit5": 1850,
      "drivetrucktru3pos13pos66cit2": 1851,
      "drivetrucktru3pos13pos66cit3": 1852,
      "drivetrucktru3pos13pos55cit1": 1853,
      "drivetrucktru3pos13pos55cit4": 1854,
      "drivetrucktru3pos13pos55cit6": 1855,
      "drivetrucktru3pos13pos55cit5": 1856,
      "drivetrucktru3pos13pos55cit2": 1857,
      "drivetrucktru3pos13pos55cit3": 1858,
      "drivetrucktru3pos13pos77cit1": 1859,
      "drivetrucktru3pos13pos77cit4": 1860,
      "drivetrucktru3pos13pos77cit6": 1861,
      "drivetrucktru3pos13pos77cit5": 1862,
      "drivetrucktru3pos13pos77cit2": 1863,
      "drivetrucktru3pos13pos77cit3": 1864,
      "drivetrucktru3pos13apt8cit1": 1865,
      "drivetrucktru3pos13apt8cit4": 1866,
      "drivetrucktru3pos13apt8cit6": 1867,
      "drivetrucktru3pos13apt8cit5": 1868,
      "drivetrucktru3pos13apt8cit2": 1869,
      "drivetrucktru3pos13apt8cit3": 1870,
      "drivetrucktru3pos13apt6cit1": 1871,
      "drivetrucktru3pos13apt6cit4": 1872,
      "drivetrucktru3pos13apt6cit6": 1873,
      "drivetrucktru3pos13apt6cit5": 1874,
      "drivetrucktru3pos13apt6cit2": 1875,
      "drivetrucktru3pos13apt6cit3": 1876,
      "drivetrucktru3pos13apt5cit1": 1877,
      "drivetrucktru3pos13apt5cit4": 1878,
      "drivetrucktru3pos13apt5cit6": 1879,
      "drivetrucktru3pos13apt5cit5": 1880,
      "drivetrucktru3pos13apt5cit2": 1881,
      "drivetrucktru3pos13apt5cit3": 1882,
      "drivetrucktru3pos13apt7cit1": 1883,
      "drivetrucktru3pos13apt7cit4": 1884,
      "drivetrucktru3pos13apt7cit6": 1885,
      "drivetrucktru3pos13apt7cit5": 1886,
      "drivetrucktru3pos13apt7cit2": 1887,
      "drivetrucktru3pos13apt7cit3": 1888,
      "drivetrucktru3pos13apt4cit1": 1889,
      "drivetrucktru3pos13apt4cit4": 1890,
      "drivetrucktru3pos13apt4cit6": 1891,
      "drivetrucktru3pos13apt4cit3": 1892,
      "drivetrucktru3pos13apt4cit5": 1893,
      "drivetrucktru3pos13apt4cit2": 1894,
      "drivetrucktru3pos12apt4cit1": 1895,
      "drivetrucktru3pos12apt4cit4": 1896,
      "drivetrucktru3pos12apt4cit6": 1897,
      "drivetrucktru3pos12apt4cit5": 1898,
      "drivetrucktru3pos12apt4cit2": 1899,
      "drivetrucktru3pos12apt4cit3": 1900,
      "drivetrucktru3pos12apt8cit1": 1901,
      "drivetrucktru3pos12apt8cit4": 1902,
      "drivetrucktru3pos12apt8cit6": 1903,
      "drivetrucktru3pos12apt8cit5": 1904,
      "drivetrucktru3pos12apt8cit2": 1905,
      "drivetrucktru3pos12apt8cit3": 1906,
      "drivetrucktru3pos12apt6cit1": 1907,
      "drivetrucktru3pos12apt6cit4": 1908,
      "drivetrucktru3pos12apt6cit6": 1909,
      "drivetrucktru3pos12apt6cit5": 1910,
      "drivetrucktru3pos12apt6cit2": 1911,
      "drivetrucktru3pos12apt6cit3": 1912,
      "drivetrucktru3pos12apt5cit1": 1913,
      "drivetrucktru3pos12apt5cit4": 1914,
      "drivetrucktru3pos12apt5cit6": 1915,
      "drivetrucktru3pos12apt5cit5": 1916,
      "drivetrucktru3pos12apt5cit2": 1917,
      "drivetrucktru3pos12apt5cit3": 1918,
      "drivetrucktru3pos12apt7cit1": 1919,
      "drivetrucktru3pos12apt7cit4": 1920,
      "drivetrucktru3pos12apt7cit6": 1921,
      "drivetrucktru3pos12apt7cit5": 1922,
      "drivetrucktru3pos12apt7cit2": 1923,
      "drivetrucktru3pos12apt7cit3": 1924,
      "drivetrucktru3pos11apt8cit1": 1925,
      "drivetrucktru3pos11apt8cit4": 1926,
      "drivetrucktru3pos11apt8cit6": 1927,
      "drivetrucktru3pos11apt8cit5": 1928,
      "drivetrucktru3pos11apt8cit2": 1929,
      "drivetrucktru3pos11apt8cit3": 1930,
      "drivetrucktru3pos11apt6cit1": 1931,
      "drivetrucktru3pos11apt6cit4": 1932,
      "drivetrucktru3pos11apt6cit6": 1933,
      "drivetrucktru3pos11apt6cit5": 1934,
      "drivetrucktru3pos11apt6cit2": 1935,
      "drivetrucktru3pos11apt6cit3": 1936,
      "drivetrucktru3pos11apt5cit1": 1937,
      "drivetrucktru3pos11apt5cit4": 1938,
      "drivetrucktru3pos11apt5cit6": 1939,
      "drivetrucktru3pos11apt5cit5": 1940,
      "drivetrucktru3pos11apt5cit2": 1941,
      "drivetrucktru3pos11apt5cit3": 1942,
      "drivetrucktru3pos11apt7cit1": 1943,
      "drivetrucktru3pos11apt7cit4": 1944,
      "drivetrucktru3pos11apt7cit6": 1945,
      "drivetrucktru3pos11apt7cit5": 1946,
      "drivetrucktru3pos11apt7cit2": 1947,
      "drivetrucktru3pos11apt7cit3": 1948,
      "drivetrucktru3pos11apt4cit1": 1949,
      "drivetrucktru3pos11apt4cit4": 1950,
      "drivetrucktru3pos11apt4cit6": 1951,
      "drivetrucktru3pos11apt4cit5": 1952,
      "drivetrucktru3pos11apt4cit2": 1953,
      "drivetrucktru3pos13pos33cit4": 1954,
      "drivetrucktru3pos13pos33cit6": 1955,
      "drivetrucktru3pos13pos33cit5": 1956,
      "drivetrucktru3pos13pos33cit1": 1957,
      "drivetrucktru3pos13pos33cit2": 1958,
      "drivetrucktru3pos13pos33cit3": 1959,
      "drivetrucktru3pos11apt4cit3": 1960,
      "drivetrucktru3pos11pos44cit1": 1961,
      "drivetrucktru3pos11pos44cit4": 1962,
      "drivetrucktru3pos11pos44cit6": 1963,
      "drivetrucktru3pos11pos44cit5": 1964,
      "drivetrucktru3pos11pos44cit2": 1965,
      "drivetrucktru3pos11pos44cit3": 1966,
      "drivetrucktru3pos11pos66cit1": 1967,
      "drivetrucktru3pos11pos66cit4": 1968,
      "drivetrucktru3pos11pos66cit6": 1969,
      "drivetrucktru3pos11pos66cit5": 1970,
      "drivetrucktru3pos11pos66cit2": 1971,
      "drivetrucktru3pos11pos66cit3": 1972,
      "drivetrucktru3pos11pos55cit1": 1973,
      "drivetrucktru3pos11pos55cit4": 1974,
      "drivetrucktru3pos11pos55cit6": 1975,
      "drivetrucktru3pos11pos55cit5": 1976,
      "drivetrucktru3pos11pos55cit2": 1977,
      "drivetrucktru3pos11pos55cit3": 1978,
      "drivetrucktru3pos11pos77cit1": 1979,
      "drivetrucktru3pos11pos77cit4": 1980,
      "drivetrucktru3pos11pos77cit6": 1981,
      "drivetrucktru3pos11pos77cit5": 1982,
      "drivetrucktru3pos11pos77cit2": 1983,
      "drivetrucktru3pos11pos77cit3": 1984,
      "drivetrucktru3pos12pos44cit1": 1985,
      "drivetrucktru3pos12pos44cit4": 1986,
      "drivetrucktru3pos12pos44cit6": 1987,
      "drivetrucktru3pos12pos44cit5": 1988,
      "drivetrucktru3pos12pos44cit2": 1989,
      "drivetrucktru3pos12pos44cit3": 1990,
      "drivetrucktru3pos12pos66cit1": 1991,
      "drivetrucktru3pos12pos66cit4": 1992,
      "drivetrucktru3pos12pos66cit6": 1993,
      "drivetrucktru3pos12pos66cit5": 1994,
      "drivetrucktru3pos12pos66cit2": 1995,
      "drivetrucktru3pos12pos66cit3": 1996,
      "drivetrucktru3pos12pos55cit1": 1997,
      "drivetrucktru3pos12pos55cit4": 1998,
      "drivetrucktru3pos12pos55cit6": 1999,
      "drivetrucktru3pos12pos55cit5": 2000,
      "drivetrucktru3pos12pos55cit2": 2001,
      "drivetrucktru3pos12pos55cit3": 2002,
      "drivetrucktru3pos12pos77cit1": 2003,
      "drivetrucktru3pos12pos77cit4": 2004,
      "drivetrucktru3pos12pos77cit6": 2005,
      "drivetrucktru3pos12pos77cit5": 2006,
      "drivetrucktru3pos12pos77cit2": 2007,
      "drivetrucktru3pos12pos77cit3": 2008,
      "drivetrucktru3pos23pos44cit1": 2009,
      "drivetrucktru3pos23pos44cit4": 2010,
      "drivetrucktru3pos23pos44cit6": 2011,
      "drivetrucktru3pos23pos44cit5": 2012,
      "drivetrucktru3pos23pos44cit2": 2013,
      "drivetrucktru3pos23pos44cit3": 2014,
      "drivetrucktru3pos23pos66cit1": 2015,
      "drivetrucktru3pos23pos66cit4": 2016,
      "drivetrucktru3pos23pos66cit6": 2017,
      "drivetrucktru3pos23pos66cit5": 2018,
      "drivetrucktru3pos23pos66cit2": 2019,
      "drivetrucktru3pos23pos66cit3": 2020,
      "drivetrucktru3pos23pos55cit1": 2021,
      "drivetrucktru3pos23pos55cit4": 2022,
      "drivetrucktru3pos23pos55cit6": 2023,
      "drivetrucktru3pos23pos55cit5": 2024,
      "drivetrucktru3pos23pos55cit2": 2025,
      "drivetrucktru3pos23pos55cit3": 2026,
      "drivetrucktru3pos23pos77cit1": 2027,
      "drivetrucktru3pos23pos77cit4": 2028,
      "drivetrucktru3pos23pos77cit6": 2029,
      "drivetrucktru3pos23pos77cit5": 2030,
      "drivetrucktru3pos23pos77cit2": 2031,
      "drivetrucktru3pos23pos77cit3": 2032,
      "drivetrucktru3pos23apt8cit1": 2033,
      "drivetrucktru3pos23apt8cit4": 2034,
      "drivetrucktru3pos23apt8cit6": 2035,
      "drivetrucktru3pos23apt8cit5": 2036,
      "drivetrucktru3pos23apt8cit2": 2037,
      "drivetrucktru3pos23apt8cit3": 2038,
      "drivetrucktru3pos23apt6cit1": 2039,
      "drivetrucktru3pos23apt6cit4": 2040,
      "drivetrucktru3pos23apt6cit6": 2041,
      "drivetrucktru3pos23apt6cit5": 2042,
      "drivetrucktru3pos23apt6cit2": 2043,
      "drivetrucktru3pos23apt6cit3": 2044,
      "drivetrucktru3pos23apt5cit1": 2045,
      "drivetrucktru3pos23apt5cit4": 2046,
      "drivetrucktru3pos23apt5cit6": 2047,
      "drivetrucktru3pos23apt5cit5": 2048,
      "drivetrucktru3pos23apt5cit2": 2049,
      "drivetrucktru3pos23apt5cit3": 2050,
      "drivetrucktru3pos23apt7cit1": 2051,
      "drivetrucktru3pos23apt7cit4": 2052,
      "drivetrucktru3pos23apt7cit6": 2053,
      "drivetrucktru3pos23apt7cit5": 2054,
      "drivetrucktru3pos23apt7cit2": 2055,
      "drivetrucktru3pos23apt7cit3": 2056,
      "drivetrucktru3pos23apt4cit1": 2057,
      "drivetrucktru3pos23apt4cit4": 2058,
      "drivetrucktru3pos23apt4cit6": 2059,
      "drivetrucktru3pos23apt4cit3": 2060,
      "drivetrucktru3pos23apt4cit5": 2061,
      "drivetrucktru3pos23apt4cit2": 2062,
      "drivetrucktru3pos22apt4cit1": 2063,
      "drivetrucktru3pos22apt4cit4": 2064,
      "drivetrucktru3pos22apt4cit6": 2065,
      "drivetrucktru3pos22apt4cit5": 2066,
      "drivetrucktru3pos22apt4cit2": 2067,
      "drivetrucktru3pos22apt4cit3": 2068,
      "drivetrucktru3pos22apt8cit1": 2069,
      "drivetrucktru3pos22apt8cit4": 2070,
      "drivetrucktru3pos22apt8cit6": 2071,
      "drivetrucktru3pos22apt8cit5": 2072,
      "drivetrucktru3pos22apt8cit2": 2073,
      "drivetrucktru3pos22apt8cit3": 2074,
      "drivetrucktru3pos22apt6cit1": 2075,
      "drivetrucktru3pos22apt6cit4": 2076,
      "drivetrucktru3pos22apt6cit6": 2077,
      "drivetrucktru3pos22apt6cit5": 2078,
      "drivetrucktru3pos22apt6cit2": 2079,
      "drivetrucktru3pos22apt6cit3": 2080,
      "drivetrucktru3pos22apt5cit1": 2081,
      "drivetrucktru3pos22apt5cit4": 2082,
      "drivetrucktru3pos22apt5cit6": 2083,
      "drivetrucktru3pos22apt5cit5": 2084,
      "drivetrucktru3pos22apt5cit2": 2085,
      "drivetrucktru3pos22apt5cit3": 2086,
      "drivetrucktru3pos22apt7cit1": 2087,
      "drivetrucktru3pos22apt7cit4": 2088,
      "drivetrucktru3pos22apt7cit6": 2089,
      "drivetrucktru3pos22apt7cit5": 2090,
      "drivetrucktru3pos22apt7cit2": 2091,
      "drivetrucktru3pos22apt7cit3": 2092,
      "drivetrucktru3pos21apt8cit1": 2093,
      "drivetrucktru3pos21apt8cit4": 2094,
      "drivetrucktru3pos21apt8cit6": 2095,
      "drivetrucktru3pos21apt8cit5": 2096,
      "drivetrucktru3pos21apt8cit2": 2097,
      "drivetrucktru3pos21apt8cit3": 2098,
      "drivetrucktru3pos21apt6cit1": 2099,
      "drivetrucktru3pos21apt6cit4": 2100,
      "drivetrucktru3pos21apt6cit6": 2101,
      "drivetrucktru3pos21apt6cit5": 2102,
      "drivetrucktru3pos21apt6cit2": 2103,
      "drivetrucktru3pos21apt6cit3": 2104,
      "drivetrucktru3pos21apt5cit1": 2105,
      "drivetrucktru3pos21apt5cit4": 2106,
      "drivetrucktru3pos21apt5cit6": 2107,
      "drivetrucktru3pos21apt5cit5": 2108,
      "drivetrucktru3pos21apt5cit2": 2109,
      "drivetrucktru3pos21apt5cit3": 2110,
      "drivetrucktru3pos21apt7cit1": 2111,
      "drivetrucktru3pos21apt7cit4": 2112,
      "drivetrucktru3pos21apt7cit6": 2113,
      "drivetrucktru3pos21apt7cit5": 2114,
      "drivetrucktru3pos21apt7cit2": 2115,
      "drivetrucktru3pos21apt7cit3": 2116,
      "drivetrucktru3pos21apt4cit1": 2117,
      "drivetrucktru3pos21apt4cit4": 2118,
      "drivetrucktru3pos21apt4cit6": 2119,
      "drivetrucktru3pos21apt4cit5": 2120,
      "drivetrucktru3pos21apt4cit2": 2121,
      "drivetrucktru3pos23pos33cit4": 2122,
      "drivetrucktru3pos23pos33cit6": 2123,
      "drivetrucktru3pos23pos33cit5": 2124,
      "drivetrucktru3pos23pos33cit1": 2125,
      "drivetrucktru3pos23pos33cit2": 2126,
      "drivetrucktru3pos23pos33cit3": 2127,
      "drivetrucktru3pos21apt4cit3": 2128,
      "drivetrucktru3pos21pos44cit1": 2129,
      "drivetrucktru3pos21pos44cit4": 2130,
      "drivetrucktru3pos21pos44cit6": 2131,
      "drivetrucktru3pos21pos44cit5": 2132,
      "drivetrucktru3pos21pos44cit2": 2133,
      "drivetrucktru3pos21pos44cit3": 2134,
      "drivetrucktru3pos21pos66cit1": 2135,
      "drivetrucktru3pos21pos66cit4": 2136,
      "drivetrucktru3pos21pos66cit6": 2137,
      "drivetrucktru3pos21pos66cit5": 2138,
      "drivetrucktru3pos21pos66cit2": 2139,
      "drivetrucktru3pos21pos66cit3": 2140,
      "drivetrucktru3pos21pos55cit1": 2141,
      "drivetrucktru3pos21pos55cit4": 2142,
      "drivetrucktru3pos21pos55cit6": 2143,
      "drivetrucktru3pos21pos55cit5": 2144,
      "drivetrucktru3pos21pos55cit2": 2145,
      "drivetrucktru3pos21pos55cit3": 2146,
      "drivetrucktru3pos21pos77cit1": 2147,
      "drivetrucktru3pos21pos77cit4": 2148,
      "drivetrucktru3pos21pos77cit6": 2149,
      "drivetrucktru3pos21pos77cit5": 2150,
      "drivetrucktru3pos21pos77cit2": 2151,
      "drivetrucktru3pos21pos77cit3": 2152,
      "drivetrucktru3pos22pos44cit1": 2153,
      "drivetrucktru3pos22pos44cit4": 2154,
      "drivetrucktru3pos22pos44cit6": 2155,
      "drivetrucktru3pos22pos44cit5": 2156,
      "drivetrucktru3pos22pos44cit2": 2157,
      "drivetrucktru3pos22pos44cit3": 2158,
      "drivetrucktru3pos22pos66cit1": 2159,
      "drivetrucktru3pos22pos66cit4": 2160,
      "drivetrucktru3pos22pos66cit6": 2161,
      "drivetrucktru3pos22pos66cit5": 2162,
      "drivetrucktru3pos22pos66cit2": 2163,
      "drivetrucktru3pos22pos66cit3": 2164,
      "drivetrucktru3pos22pos55cit1": 2165,
      "drivetrucktru3pos22pos55cit4": 2166,
      "drivetrucktru3pos22pos55cit6": 2167,
      "drivetrucktru3pos22pos55cit5": 2168,
      "drivetrucktru3pos22pos55cit2": 2169,
      "drivetrucktru3pos22pos55cit3": 2170,
      "drivetrucktru3pos22pos77cit1": 2171,
      "drivetrucktru3pos22pos77cit4": 2172,
      "drivetrucktru3pos22pos77cit6": 2173,
      "drivetrucktru3pos22pos77cit5": 2174,
      "drivetrucktru3pos22pos77cit2": 2175,
      "drivetrucktru3pos22pos77cit3": 2176,
      "drivetrucktru5pos13pos44cit1": 2177,
      "drivetrucktru5pos13pos44cit4": 2178,
      "drivetrucktru5pos13pos44cit6": 2179,
      "drivetrucktru5pos13pos44cit5": 2180,
      "drivetrucktru5pos13pos44cit2": 2181,
      "drivetrucktru5pos13pos44cit3": 2182,
      "drivetrucktru5pos13pos66cit1": 2183,
      "drivetrucktru5pos13pos66cit4": 2184,
      "drivetrucktru5pos13pos66cit6": 2185,
      "drivetrucktru5pos13pos66cit5": 2186,
      "drivetrucktru5pos13pos66cit2": 2187,
      "drivetrucktru5pos13pos66cit3": 2188,
      "drivetrucktru5pos13pos55cit1": 2189,
      "drivetrucktru5pos13pos55cit4": 2190,
      "drivetrucktru5pos13pos55cit6": 2191,
      "drivetrucktru5pos13pos55cit5": 2192,
      "drivetrucktru5pos13pos55cit2": 2193,
      "drivetrucktru5pos13pos55cit3": 2194,
      "drivetrucktru5pos13pos77cit1": 2195,
      "drivetrucktru5pos13pos77cit4": 2196,
      "drivetrucktru5pos13pos77cit6": 2197,
      "drivetrucktru5pos13pos77cit5": 2198,
      "drivetrucktru5pos13pos77cit2": 2199,
      "drivetrucktru5pos13pos77cit3": 2200,
      "drivetrucktru5pos13apt8cit1": 2201,
      "drivetrucktru5pos13apt8cit4": 2202,
      "drivetrucktru5pos13apt8cit6": 2203,
      "drivetrucktru5pos13apt8cit5": 2204,
      "drivetrucktru5pos13apt8cit2": 2205,
      "drivetrucktru5pos13apt8cit3": 2206,
      "drivetrucktru5pos13apt6cit1": 2207,
      "drivetrucktru5pos13apt6cit4": 2208,
      "drivetrucktru5pos13apt6cit6": 2209,
      "drivetrucktru5pos13apt6cit5": 2210,
      "drivetrucktru5pos13apt6cit2": 2211,
      "drivetrucktru5pos13apt6cit3": 2212,
      "drivetrucktru5pos13apt5cit1": 2213,
      "drivetrucktru5pos13apt5cit4": 2214,
      "drivetrucktru5pos13apt5cit6": 2215,
      "drivetrucktru5pos13apt5cit5": 2216,
      "drivetrucktru5pos13apt5cit2": 2217,
      "drivetrucktru5pos13apt5cit3": 2218,
      "drivetrucktru5pos13apt7cit1": 2219,
      "drivetrucktru5pos13apt7cit4": 2220,
      "drivetrucktru5pos13apt7cit6": 2221,
      "drivetrucktru5pos13apt7cit5": 2222,
      "drivetrucktru5pos13apt7cit2": 2223,
      "drivetrucktru5pos13apt7cit3": 2224,
      "drivetrucktru5pos13apt4cit1": 2225,
      "drivetrucktru5pos13apt4cit4": 2226,
      "drivetrucktru5pos13apt4cit6": 2227,
      "drivetrucktru5pos13apt4cit3": 2228,
      "drivetrucktru5pos13apt4cit5": 2229,
      "drivetrucktru5pos13apt4cit2": 2230,
      "drivetrucktru5pos12apt4cit1": 2231,
      "drivetrucktru5pos12apt4cit4": 2232,
      "drivetrucktru5pos12apt4cit6": 2233,
      "drivetrucktru5pos12apt4cit5": 2234,
      "drivetrucktru5pos12apt4cit2": 2235,
      "drivetrucktru5pos12apt4cit3": 2236,
      "drivetrucktru5pos12apt8cit1": 2237,
      "drivetrucktru5pos12apt8cit4": 2238,
      "drivetrucktru5pos12apt8cit6": 2239,
      "drivetrucktru5pos12apt8cit5": 2240,
      "drivetrucktru5pos12apt8cit2": 2241,
      "drivetrucktru5pos12apt8cit3": 2242,
      "drivetrucktru5pos12apt6cit1": 2243,
      "drivetrucktru5pos12apt6cit4": 2244,
      "drivetrucktru5pos12apt6cit6": 2245,
      "drivetrucktru5pos12apt6cit5": 2246,
      "drivetrucktru5pos12apt6cit2": 2247,
      "drivetrucktru5pos12apt6cit3": 2248,
      "drivetrucktru5pos12apt5cit1": 2249,
      "drivetrucktru5pos12apt5cit4": 2250,
      "drivetrucktru5pos12apt5cit6": 2251,
      "drivetrucktru5pos12apt5cit5": 2252,
      "drivetrucktru5pos12apt5cit2": 2253,
      "drivetrucktru5pos12apt5cit3": 2254,
      "drivetrucktru5pos12apt7cit1": 2255,
      "drivetrucktru5pos12apt7cit4": 2256,
      "drivetrucktru5pos12apt7cit6": 2257,
      "drivetrucktru5pos12apt7cit5": 2258,
      "drivetrucktru5pos12apt7cit2": 2259,
      "drivetrucktru5pos12apt7cit3": 2260,
      "drivetrucktru5pos11apt8cit1": 2261,
      "drivetrucktru5pos11apt8cit4": 2262,
      "drivetrucktru5pos11apt8cit6": 2263,
      "drivetrucktru5pos11apt8cit5": 2264,
      "drivetrucktru5pos11apt8cit2": 2265,
      "drivetrucktru5pos11apt8cit3": 2266,
      "drivetrucktru5pos11apt6cit1": 2267,
      "drivetrucktru5pos11apt6cit4": 2268,
      "drivetrucktru5pos11apt6cit6": 2269,
      "drivetrucktru5pos11apt6cit5": 2270,
      "drivetrucktru5pos11apt6cit2": 2271,
      "drivetrucktru5pos11apt6cit3": 2272,
      "drivetrucktru5pos11apt5cit1": 2273,
      "drivetrucktru5pos11apt5cit4": 2274,
      "drivetrucktru5pos11apt5cit6": 2275,
      "drivetrucktru5pos11apt5cit5": 2276,
      "drivetrucktru5pos11apt5cit2": 2277,
      "drivetrucktru5pos11apt5cit3": 2278,
      "drivetrucktru5pos11apt7cit1": 2279,
      "drivetrucktru5pos11apt7cit4": 2280,
      "drivetrucktru5pos11apt7cit6": 2281,
      "drivetrucktru5pos11apt7cit5": 2282,
      "drivetrucktru5pos11apt7cit2": 2283,
      "drivetrucktru5pos11apt7cit3": 2284,
      "drivetrucktru5pos11apt4cit1": 2285,
      "drivetrucktru5pos11apt4cit4": 2286,
      "drivetrucktru5pos11apt4cit6": 2287,
      "drivetrucktru5pos11apt4cit5": 2288,
      "drivetrucktru5pos11apt4cit2": 2289,
      "drivetrucktru5pos13pos33cit4": 2290,
      "drivetrucktru5pos13pos33cit6": 2291,
      "drivetrucktru5pos13pos33cit5": 2292,
      "drivetrucktru5pos13pos33cit1": 2293,
      "drivetrucktru5pos13pos33cit2": 2294,
      "drivetrucktru5pos13pos33cit3": 2295,
      "drivetrucktru5pos11apt4cit3": 2296,
      "drivetrucktru5pos23pos44cit1": 2297,
      "drivetrucktru5pos23pos44cit4": 2298,
      "drivetrucktru5pos23pos44cit6": 2299,
      "drivetrucktru5pos23pos44cit5": 2300,
      "drivetrucktru5pos23pos44cit2": 2301,
      "drivetrucktru5pos23pos44cit3": 2302,
      "drivetrucktru5pos23pos66cit1": 2303,
      "drivetrucktru5pos23pos66cit4": 2304,
      "drivetrucktru5pos23pos66cit6": 2305,
      "drivetrucktru5pos23pos66cit5": 2306,
      "drivetrucktru5pos23pos66cit2": 2307,
      "drivetrucktru5pos23pos66cit3": 2308,
      "drivetrucktru5pos23pos55cit1": 2309,
      "drivetrucktru5pos23pos55cit4": 2310,
      "drivetrucktru5pos23pos55cit6": 2311,
      "drivetrucktru5pos23pos55cit5": 2312,
      "drivetrucktru5pos23pos55cit2": 2313,
      "drivetrucktru5pos23pos55cit3": 2314,
      "drivetrucktru5pos23pos77cit1": 2315,
      "drivetrucktru5pos23pos77cit4": 2316,
      "drivetrucktru5pos23pos77cit6": 2317,
      "drivetrucktru5pos23pos77cit5": 2318,
      "drivetrucktru5pos23pos77cit2": 2319,
      "drivetrucktru5pos23pos77cit3": 2320,
      "drivetrucktru5pos23apt8cit1": 2321,
      "drivetrucktru5pos23apt8cit4": 2322,
      "drivetrucktru5pos23apt8cit6": 2323,
      "drivetrucktru5pos23apt8cit5": 2324,
      "drivetrucktru5pos23apt8cit2": 2325,
      "drivetrucktru5pos23apt8cit3": 2326,
      "drivetrucktru5pos23apt6cit1": 2327,
      "drivetrucktru5pos23apt6cit4": 2328,
      "drivetrucktru5pos23apt6cit6": 2329,
      "drivetrucktru5pos23apt6cit5": 2330,
      "drivetrucktru5pos23apt6cit2": 2331,
      "drivetrucktru5pos23apt6cit3": 2332,
      "drivetrucktru5pos23apt5cit1": 2333,
      "drivetrucktru5pos23apt5cit4": 2334,
      "drivetrucktru5pos23apt5cit6": 2335,
      "drivetrucktru5pos23apt5cit5": 2336,
      "drivetrucktru5pos23apt5cit2": 2337,
      "drivetrucktru5pos23apt5cit3": 2338,
      "drivetrucktru5pos23apt7cit1": 2339,
      "drivetrucktru5pos23apt7cit4": 2340,
      "drivetrucktru5pos23apt7cit6": 2341,
      "drivetrucktru5pos23apt7cit5": 2342,
      "drivetrucktru5pos23apt7cit2": 2343,
      "drivetrucktru5pos23apt7cit3": 2344,
      "drivetrucktru5pos23apt4cit1": 2345,
      "drivetrucktru5pos23apt4cit4": 2346,
      "drivetrucktru5pos23apt4cit6": 2347,
      "drivetrucktru5pos23apt4cit3": 2348,
      "drivetrucktru5pos23apt4cit5": 2349,
      "drivetrucktru5pos23apt4cit2": 2350,
      "drivetrucktru5pos22apt4cit1": 2351,
      "drivetrucktru5pos22apt4cit4": 2352,
      "drivetrucktru5pos22apt4cit6": 2353,
      "drivetrucktru5pos22apt4cit5": 2354,
      "drivetrucktru5pos22apt4cit2": 2355,
      "drivetrucktru5pos22apt4cit3": 2356,
      "drivetrucktru5pos22apt8cit1": 2357,
      "drivetrucktru5pos22apt8cit4": 2358,
      "drivetrucktru5pos22apt8cit6": 2359,
      "drivetrucktru5pos22apt8cit5": 2360,
      "drivetrucktru5pos22apt8cit2": 2361,
      "drivetrucktru5pos22apt8cit3": 2362,
      "drivetrucktru5pos22apt6cit1": 2363,
      "drivetrucktru5pos22apt6cit4": 2364,
      "drivetrucktru5pos22apt6cit6": 2365,
      "drivetrucktru5pos22apt6cit5": 2366,
      "drivetrucktru5pos22apt6cit2": 2367,
      "drivetrucktru5pos22apt6cit3": 2368,
      "drivetrucktru5pos22apt5cit1": 2369,
      "drivetrucktru5pos22apt5cit4": 2370,
      "drivetrucktru5pos22apt5cit6": 2371,
      "drivetrucktru5pos22apt5cit5": 2372,
      "drivetrucktru5pos22apt5cit2": 2373,
      "drivetrucktru5pos22apt5cit3": 2374,
      "drivetrucktru5pos22apt7cit1": 2375,
      "drivetrucktru5pos22apt7cit4": 2376,
      "drivetrucktru5pos22apt7cit6": 2377,
      "drivetrucktru5pos22apt7cit5": 2378,
      "drivetrucktru5pos22apt7cit2": 2379,
      "drivetrucktru5pos22apt7cit3": 2380,
      "drivetrucktru5pos21apt8cit1": 2381,
      "drivetrucktru5pos21apt8cit4": 2382,
      "drivetrucktru5pos21apt8cit6": 2383,
      "drivetrucktru5pos21apt8cit5": 2384,
      "drivetrucktru5pos21apt8cit2": 2385,
      "drivetrucktru5pos21apt8cit3": 2386,
      "drivetrucktru5pos21apt6cit1": 2387,
      "drivetrucktru5pos21apt6cit4": 2388,
      "drivetrucktru5pos21apt6cit6": 2389,
      "drivetrucktru5pos21apt6cit5": 2390,
      "drivetrucktru5pos21apt6cit2": 2391,
      "drivetrucktru5pos21apt6cit3": 2392,
      "drivetrucktru5pos21apt5cit1": 2393,
      "drivetrucktru5pos21apt5cit4": 2394,
      "drivetrucktru5pos21apt5cit6": 2395,
      "drivetrucktru5pos21apt5cit5": 2396,
      "drivetrucktru5pos21apt5cit2": 2397,
      "drivetrucktru5pos21apt5cit3": 2398,
      "drivetrucktru5pos21apt7cit1": 2399,
      "drivetrucktru5pos21apt7cit4": 2400,
      "drivetrucktru5pos21apt7cit6": 2401,
      "drivetrucktru5pos21apt7cit5": 2402,
      "drivetrucktru5pos21apt7cit2": 2403,
      "drivetrucktru5pos21apt7cit3": 2404,
      "drivetrucktru5pos21apt4cit1": 2405,
      "drivetrucktru5pos21apt4cit4": 2406,
      "drivetrucktru5pos21apt4cit6": 2407,
      "drivetrucktru5pos21apt4cit5": 2408,
      "drivetrucktru5pos21apt4cit2": 2409,
      "drivetrucktru5pos23pos33cit4": 2410,
      "drivetrucktru5pos23pos33cit6": 2411,
      "drivetrucktru5pos23pos33cit5": 2412,
      "drivetrucktru5pos23pos33cit1": 2413,
      "drivetrucktru5pos23pos33cit2": 2414,
      "drivetrucktru5pos23pos33cit3": 2415,
      "drivetrucktru5pos21apt4cit3": 2416,
      "drivetrucktru4pos13pos44cit1": 2417,
      "drivetrucktru4pos13pos44cit4": 2418,
      "drivetrucktru4pos13pos44cit6": 2419,
      "drivetrucktru4pos13pos44cit5": 2420,
      "drivetrucktru4pos13pos44cit2": 2421,
      "drivetrucktru4pos13pos44cit3": 2422,
      "drivetrucktru4pos13pos66cit1": 2423,
      "drivetrucktru4pos13pos66cit4": 2424,
      "drivetrucktru4pos13pos66cit6": 2425,
      "drivetrucktru4pos13pos66cit5": 2426,
      "drivetrucktru4pos13pos66cit2": 2427,
      "drivetrucktru4pos13pos66cit3": 2428,
      "drivetrucktru4pos13pos55cit1": 2429,
      "drivetrucktru4pos13pos55cit4": 2430,
      "drivetrucktru4pos13pos55cit6": 2431,
      "drivetrucktru4pos13pos55cit5": 2432,
      "drivetrucktru4pos13pos55cit2": 2433,
      "drivetrucktru4pos13pos55cit3": 2434,
      "drivetrucktru4pos13pos77cit1": 2435,
      "drivetrucktru4pos13pos77cit4": 2436,
      "drivetrucktru4pos13pos77cit6": 2437,
      "drivetrucktru4pos13pos77cit5": 2438,
      "drivetrucktru4pos13pos77cit2": 2439,
      "drivetrucktru4pos13pos77cit3": 2440,
      "drivetrucktru4pos13apt8cit1": 2441,
      "drivetrucktru4pos13apt8cit4": 2442,
      "drivetrucktru4pos13apt8cit6": 2443,
      "drivetrucktru4pos13apt8cit5": 2444,
      "drivetrucktru4pos13apt8cit2": 2445,
      "drivetrucktru4pos13apt8cit3": 2446,
      "drivetrucktru4pos13apt6cit1": 2447,
      "drivetrucktru4pos13apt6cit4": 2448,
      "drivetrucktru4pos13apt6cit6": 2449,
      "drivetrucktru4pos13apt6cit5": 2450,
      "drivetrucktru4pos13apt6cit2": 2451,
      "drivetrucktru4pos13apt6cit3": 2452,
      "drivetrucktru4pos13apt5cit1": 2453,
      "drivetrucktru4pos13apt5cit4": 2454,
      "drivetrucktru4pos13apt5cit6": 2455,
      "drivetrucktru4pos13apt5cit5": 2456,
      "drivetrucktru4pos13apt5cit2": 2457,
      "drivetrucktru4pos13apt5cit3": 2458,
      "drivetrucktru4pos13apt7cit1": 2459,
      "drivetrucktru4pos13apt7cit4": 2460,
      "drivetrucktru4pos13apt7cit6": 2461,
      "drivetrucktru4pos13apt7cit5": 2462,
      "drivetrucktru4pos13apt7cit2": 2463,
      "drivetrucktru4pos13apt7cit3": 2464,
      "drivetrucktru4pos13apt4cit1": 2465,
      "drivetrucktru4pos13apt4cit4": 2466,
      "drivetrucktru4pos13apt4cit6": 2467,
      "drivetrucktru4pos13apt4cit3": 2468,
      "drivetrucktru4pos13apt4cit5": 2469,
      "drivetrucktru4pos13apt4cit2": 2470,
      "drivetrucktru4pos12apt4cit1": 2471,
      "drivetrucktru4pos12apt4cit4": 2472,
      "drivetrucktru4pos12apt4cit6": 2473,
      "drivetrucktru4pos12apt4cit5": 2474,
      "drivetrucktru4pos12apt4cit2": 2475,
      "drivetrucktru4pos12apt4cit3": 2476,
      "drivetrucktru4pos12apt8cit1": 2477,
      "drivetrucktru4pos12apt8cit4": 2478,
      "drivetrucktru4pos12apt8cit6": 2479,
      "drivetrucktru4pos12apt8cit5": 2480,
      "drivetrucktru4pos12apt8cit2": 2481,
      "drivetrucktru4pos12apt8cit3": 2482,
      "drivetrucktru4pos12apt6cit1": 2483,
      "drivetrucktru4pos12apt6cit4": 2484,
      "drivetrucktru4pos12apt6cit6": 2485,
      "drivetrucktru4pos12apt6cit5": 2486,
      "drivetrucktru4pos12apt6cit2": 2487,
      "drivetrucktru4pos12apt6cit3": 2488,
      "drivetrucktru4pos12apt5cit1": 2489,
      "drivetrucktru4pos12apt5cit4": 2490,
      "drivetrucktru4pos12apt5cit6": 2491,
      "drivetrucktru4pos12apt5cit5": 2492,
      "drivetrucktru4pos12apt5cit2": 2493,
      "drivetrucktru4pos12apt5cit3": 2494,
      "drivetrucktru4pos12apt7cit1": 2495,
      "drivetrucktru4pos12apt7cit4": 2496,
      "drivetrucktru4pos12apt7cit6": 2497,
      "drivetrucktru4pos12apt7cit5": 2498,
      "drivetrucktru4pos12apt7cit2": 2499,
      "drivetrucktru4pos12apt7cit3": 2500,
      "drivetrucktru4pos11apt8cit1": 2501,
      "drivetrucktru4pos11apt8cit4": 2502,
      "drivetrucktru4pos11apt8cit6": 2503,
      "drivetrucktru4pos11apt8cit5": 2504,
      "drivetrucktru4pos11apt8cit2": 2505,
      "drivetrucktru4pos11apt8cit3": 2506,
      "drivetrucktru4pos11apt6cit1": 2507,
      "drivetrucktru4pos11apt6cit4": 2508,
      "drivetrucktru4pos11apt6cit6": 2509,
      "drivetrucktru4pos11apt6cit5": 2510,
      "drivetrucktru4pos11apt6cit2": 2511,
      "drivetrucktru4pos11apt6cit3": 2512,
      "drivetrucktru4pos11apt5cit1": 2513,
      "drivetrucktru4pos11apt5cit4": 2514,
      "drivetrucktru4pos11apt5cit6": 2515,
      "drivetrucktru4pos11apt5cit5": 2516,
      "drivetrucktru4pos11apt5cit2": 2517,
      "drivetrucktru4pos11apt5cit3": 2518,
      "drivetrucktru4pos11apt7cit1": 2519,
      "drivetrucktru4pos11apt7cit4": 2520,
      "drivetrucktru4pos11apt7cit6": 2521,
      "drivetrucktru4pos11apt7cit5": 2522,
      "drivetrucktru4pos11apt7cit2": 2523,
      "drivetrucktru4pos11apt7cit3": 2524,
      "drivetrucktru4pos11apt4cit1": 2525,
      "drivetrucktru4pos11apt4cit4": 2526,
      "drivetrucktru4pos11apt4cit6": 2527,
      "drivetrucktru4pos11apt4cit5": 2528,
      "drivetrucktru4pos11apt4cit2": 2529,
      "drivetrucktru4pos13pos33cit4": 2530,
      "drivetrucktru4pos13pos33cit6": 2531,
      "drivetrucktru4pos13pos33cit5": 2532,
      "drivetrucktru4pos13pos33cit1": 2533,
      "drivetrucktru4pos13pos33cit2": 2534,
      "drivetrucktru4pos13pos33cit3": 2535,
      "drivetrucktru4pos11apt4cit3": 2536,
      "drivetrucktru4pos23pos44cit1": 2537,
      "drivetrucktru4pos23pos44cit4": 2538,
      "drivetrucktru4pos23pos44cit6": 2539,
      "drivetrucktru4pos23pos44cit5": 2540,
      "drivetrucktru4pos23pos44cit2": 2541,
      "drivetrucktru4pos23pos44cit3": 2542,
      "drivetrucktru4pos23pos66cit1": 2543,
      "drivetrucktru4pos23pos66cit4": 2544,
      "drivetrucktru4pos23pos66cit6": 2545,
      "drivetrucktru4pos23pos66cit5": 2546,
      "drivetrucktru4pos23pos66cit2": 2547,
      "drivetrucktru4pos23pos66cit3": 2548,
      "drivetrucktru4pos23pos55cit1": 2549,
      "drivetrucktru4pos23pos55cit4": 2550,
      "drivetrucktru4pos23pos55cit6": 2551,
      "drivetrucktru4pos23pos55cit5": 2552,
      "drivetrucktru4pos23pos55cit2": 2553,
      "drivetrucktru4pos23pos55cit3": 2554,
      "drivetrucktru4pos23pos77cit1": 2555,
      "drivetrucktru4pos23pos77cit4": 2556,
      "drivetrucktru4pos23pos77cit6": 2557,
      "drivetrucktru4pos23pos77cit5": 2558,
      "drivetrucktru4pos23pos77cit2": 2559,
      "drivetrucktru4pos23pos77cit3": 2560,
      "drivetrucktru4pos23apt8cit1": 2561,
      "drivetrucktru4pos23apt8cit4": 2562,
      "drivetrucktru4pos23apt8cit6": 2563,
      "drivetrucktru4pos23apt8cit5": 2564,
      "drivetrucktru4pos23apt8cit2": 2565,
      "drivetrucktru4pos23apt8cit3": 2566,
      "drivetrucktru4pos23apt6cit1": 2567,
      "drivetrucktru4pos23apt6cit4": 2568,
      "drivetrucktru4pos23apt6cit6": 2569,
      "drivetrucktru4pos23apt6cit5": 2570,
      "drivetrucktru4pos23apt6cit2": 2571,
      "drivetrucktru4pos23apt6cit3": 2572,
      "drivetrucktru4pos23apt5cit1": 2573,
      "drivetrucktru4pos23apt5cit4": 2574,
      "drivetrucktru4pos23apt5cit6": 2575,
      "drivetrucktru4pos23apt5cit5": 2576,
      "drivetrucktru4pos23apt5cit2": 2577,
      "drivetrucktru4pos23apt5cit3": 2578,
      "drivetrucktru4pos23apt7cit1": 2579,
      "drivetrucktru4pos23apt7cit4": 2580,
      "drivetrucktru4pos23apt7cit6": 2581,
      "drivetrucktru4pos23apt7cit5": 2582,
      "drivetrucktru4pos23apt7cit2": 2583,
      "drivetrucktru4pos23apt7cit3": 2584,
      "drivetrucktru4pos23apt4cit1": 2585,
      "drivetrucktru4pos23apt4cit4": 2586,
      "drivetrucktru4pos23apt4cit6": 2587,
      "drivetrucktru4pos23apt4cit3": 2588,
      "drivetrucktru4pos23apt4cit5": 2589,
      "drivetrucktru4pos23apt4cit2": 2590,
      "drivetrucktru4pos22apt4cit1": 2591,
      "drivetrucktru4pos22apt4cit4": 2592,
      "drivetrucktru4pos22apt4cit6": 2593,
      "drivetrucktru4pos22apt4cit5": 2594,
      "drivetrucktru4pos22apt4cit2": 2595,
      "drivetrucktru4pos22apt4cit3": 2596,
      "drivetrucktru4pos22apt8cit1": 2597,
      "drivetrucktru4pos22apt8cit4": 2598,
      "drivetrucktru4pos22apt8cit6": 2599,
      "drivetrucktru4pos22apt8cit5": 2600,
      "drivetrucktru4pos22apt8cit2": 2601,
      "drivetrucktru4pos22apt8cit3": 2602,
      "drivetrucktru4pos22apt6cit1": 2603,
      "drivetrucktru4pos22apt6cit4": 2604,
      "drivetrucktru4pos22apt6cit6": 2605,
      "drivetrucktru4pos22apt6cit5": 2606,
      "drivetrucktru4pos22apt6cit2": 2607,
      "drivetrucktru4pos22apt6cit3": 2608,
      "drivetrucktru4pos22apt5cit1": 2609,
      "drivetrucktru4pos22apt5cit4": 2610,
      "drivetrucktru4pos22apt5cit6": 2611,
      "drivetrucktru4pos22apt5cit5": 2612,
      "drivetrucktru4pos22apt5cit2": 2613,
      "drivetrucktru4pos22apt5cit3": 2614,
      "drivetrucktru4pos22apt7cit1": 2615,
      "drivetrucktru4pos22apt7cit4": 2616,
      "drivetrucktru4pos22apt7cit6": 2617,
      "drivetrucktru4pos22apt7cit5": 2618,
      "drivetrucktru4pos22apt7cit2": 2619,
      "drivetrucktru4pos22apt7cit3": 2620,
      "drivetrucktru4pos21apt8cit1": 2621,
      "drivetrucktru4pos21apt8cit4": 2622,
      "drivetrucktru4pos21apt8cit6": 2623,
      "drivetrucktru4pos21apt8cit5": 2624,
      "drivetrucktru4pos21apt8cit2": 2625,
      "drivetrucktru4pos21apt8cit3": 2626,
      "drivetrucktru4pos21apt6cit1": 2627,
      "drivetrucktru4pos21apt6cit4": 2628,
      "drivetrucktru4pos21apt6cit6": 2629,
      "drivetrucktru4pos21apt6cit5": 2630,
      "drivetrucktru4pos21apt6cit2": 2631,
      "drivetrucktru4pos21apt6cit3": 2632,
      "drivetrucktru4pos21apt5cit1": 2633,
      "drivetrucktru4pos21apt5cit4": 2634,
      "drivetrucktru4pos21apt5cit6": 2635,
      "drivetrucktru4pos21apt5cit5": 2636,
      "drivetrucktru4pos21apt5cit2": 2637,
      "drivetrucktru4pos21apt5cit3": 2638,
      "drivetrucktru4pos21apt7cit1": 2639,
      "drivetrucktru4pos21apt7cit4": 2640,
      "drivetrucktru4pos21apt7cit6": 2641,
      "drivetrucktru4pos21apt7cit5": 2642,
      "drivetrucktru4pos21apt7cit2": 2643,
      "drivetrucktru4pos21apt7cit3": 2644,
      "drivetrucktru4pos21apt4cit1": 2645,
      "drivetrucktru4pos21apt4cit4": 2646,
      "drivetrucktru4pos21apt4cit6": 2647,
      "drivetrucktru4pos21apt4cit5": 2648,
      "drivetrucktru4pos21apt4cit2": 2649,
      "drivetrucktru4pos23pos33cit4": 2650,
      "drivetrucktru4pos23pos33cit6": 2651,
      "drivetrucktru4pos23pos33cit5": 2652,
      "drivetrucktru4pos23pos33cit1": 2653,
      "drivetrucktru4pos23pos33cit2": 2654,
      "drivetrucktru4pos23pos33cit3": 2655,
      "drivetrucktru4pos21apt4cit3": 2656,
      "drivetrucktru1pos13pos44cit1": 2657,
      "drivetrucktru1pos13pos44cit4": 2658,
      "drivetrucktru1pos13pos44cit6": 2659,
      "drivetrucktru1pos13pos44cit5": 2660,
      "drivetrucktru1pos13pos44cit2": 2661,
      "drivetrucktru1pos13pos44cit3": 2662,
      "drivetrucktru1pos13pos66cit1": 2663,
      "drivetrucktru1pos13pos66cit4": 2664,
      "drivetrucktru1pos13pos66cit6": 2665,
      "drivetrucktru1pos13pos66cit5": 2666,
      "drivetrucktru1pos13pos66cit2": 2667,
      "drivetrucktru1pos13pos66cit3": 2668,
      "drivetrucktru1pos13pos55cit1": 2669,
      "drivetrucktru1pos13pos55cit4": 2670,
      "drivetrucktru1pos13pos55cit6": 2671,
      "drivetrucktru1pos13pos55cit5": 2672,
      "drivetrucktru1pos13pos55cit2": 2673,
      "drivetrucktru1pos13pos55cit3": 2674,
      "drivetrucktru1pos13pos77cit1": 2675,
      "drivetrucktru1pos13pos77cit4": 2676,
      "drivetrucktru1pos13pos77cit6": 2677,
      "drivetrucktru1pos13pos77cit5": 2678,
      "drivetrucktru1pos13pos77cit2": 2679,
      "drivetrucktru1pos13pos77cit3": 2680,
      "drivetrucktru1pos13apt8cit1": 2681,
      "drivetrucktru1pos13apt8cit4": 2682,
      "drivetrucktru1pos13apt8cit6": 2683,
      "drivetrucktru1pos13apt8cit5": 2684,
      "drivetrucktru1pos13apt8cit2": 2685,
      "drivetrucktru1pos13apt8cit3": 2686,
      "drivetrucktru1pos13apt6cit1": 2687,
      "drivetrucktru1pos13apt6cit4": 2688,
      "drivetrucktru1pos13apt6cit6": 2689,
      "drivetrucktru1pos13apt6cit5": 2690,
      "drivetrucktru1pos13apt6cit2": 2691,
      "drivetrucktru1pos13apt6cit3": 2692,
      "drivetrucktru1pos13apt5cit1": 2693,
      "drivetrucktru1pos13apt5cit4": 2694,
      "drivetrucktru1pos13apt5cit6": 2695,
      "drivetrucktru1pos13apt5cit5": 2696,
      "drivetrucktru1pos13apt5cit2": 2697,
      "drivetrucktru1pos13apt5cit3": 2698,
      "drivetrucktru1pos13apt7cit1": 2699,
      "drivetrucktru1pos13apt7cit4": 2700,
      "drivetrucktru1pos13apt7cit6": 2701,
      "drivetrucktru1pos13apt7cit5": 2702,
      "drivetrucktru1pos13apt7cit2": 2703,
      "drivetrucktru1pos13apt7cit3": 2704,
      "drivetrucktru1pos13apt4cit1": 2705,
      "drivetrucktru1pos13apt4cit4": 2706,
      "drivetrucktru1pos13apt4cit6": 2707,
      "drivetrucktru1pos13apt4cit3": 2708,
      "drivetrucktru1pos13apt4cit5": 2709,
      "drivetrucktru1pos13apt4cit2": 2710,
      "drivetrucktru1pos12apt4cit1": 2711,
      "drivetrucktru1pos12apt4cit4": 2712,
      "drivetrucktru1pos12apt4cit6": 2713,
      "drivetrucktru1pos12apt4cit5": 2714,
      "drivetrucktru1pos12apt4cit2": 2715,
      "drivetrucktru1pos12apt4cit3": 2716,
      "drivetrucktru1pos12apt8cit1": 2717,
      "drivetrucktru1pos12apt8cit4": 2718,
      "drivetrucktru1pos12apt8cit6": 2719,
      "drivetrucktru1pos12apt8cit5": 2720,
      "drivetrucktru1pos12apt8cit2": 2721,
      "drivetrucktru1pos12apt8cit3": 2722,
      "drivetrucktru1pos12apt6cit1": 2723,
      "drivetrucktru1pos12apt6cit4": 2724,
      "drivetrucktru1pos12apt6cit6": 2725,
      "drivetrucktru1pos12apt6cit5": 2726,
      "drivetrucktru1pos12apt6cit2": 2727,
      "drivetrucktru1pos12apt6cit3": 2728,
      "drivetrucktru1pos12apt5cit1": 2729,
      "drivetrucktru1pos12apt5cit4": 2730,
      "drivetrucktru1pos12apt5cit6": 2731,
      "drivetrucktru1pos12apt5cit5": 2732,
      "drivetrucktru1pos12apt5cit2": 2733,
      "drivetrucktru1pos12apt5cit3": 2734,
      "drivetrucktru1pos12apt7cit1": 2735,
      "drivetrucktru1pos12apt7cit4": 2736,
      "drivetrucktru1pos12apt7cit6": 2737,
      "drivetrucktru1pos12apt7cit5": 2738,
      "drivetrucktru1pos12apt7cit2": 2739,
      "drivetrucktru1pos12apt7cit3": 2740,
      "drivetrucktru1pos11apt8cit1": 2741,
      "drivetrucktru1pos11apt8cit4": 2742,
      "drivetrucktru1pos11apt8cit6": 2743,
      "drivetrucktru1pos11apt8cit5": 2744,
      "drivetrucktru1pos11apt8cit2": 2745,
      "drivetrucktru1pos11apt8cit3": 2746,
      "drivetrucktru1pos11apt6cit1": 2747,
      "drivetrucktru1pos11apt6cit4": 2748,
      "drivetrucktru1pos11apt6cit6": 2749,
      "drivetrucktru1pos11apt6cit5": 2750,
      "drivetrucktru1pos11apt6cit2": 2751,
      "drivetrucktru1pos11apt6cit3": 2752,
      "drivetrucktru1pos11apt5cit1": 2753,
      "drivetrucktru1pos11apt5cit4": 2754,
      "drivetrucktru1pos11apt5cit6": 2755,
      "drivetrucktru1pos11apt5cit5": 2756,
      "drivetrucktru1pos11apt5cit2": 2757,
      "drivetrucktru1pos11apt5cit3": 2758,
      "drivetrucktru1pos11apt7cit1": 2759,
      "drivetrucktru1pos11apt7cit4": 2760,
      "drivetrucktru1pos11apt7cit6": 2761,
      "drivetrucktru1pos11apt7cit5": 2762,
      "drivetrucktru1pos11apt7cit2": 2763,
      "drivetrucktru1pos11apt7cit3": 2764,
      "drivetrucktru1pos11apt4cit1": 2765,
      "drivetrucktru1pos11apt4cit4": 2766,
      "drivetrucktru1pos11apt4cit6": 2767,
      "drivetrucktru1pos11apt4cit5": 2768,
      "drivetrucktru1pos11apt4cit2": 2769,
      "drivetrucktru1pos13pos33cit4": 2770,
      "drivetrucktru1pos13pos33cit6": 2771,
      "drivetrucktru1pos13pos33cit5": 2772,
      "drivetrucktru1pos13pos33cit1": 2773,
      "drivetrucktru1pos13pos33cit2": 2774,
      "drivetrucktru1pos13pos33cit3": 2775,
      "drivetrucktru1pos11apt4cit3": 2776,
      "drivetrucktru1pos23pos44cit1": 2777,
      "drivetrucktru1pos23pos44cit4": 2778,
      "drivetrucktru1pos23pos44cit6": 2779,
      "drivetrucktru1pos23pos44cit5": 2780,
      "drivetrucktru1pos23pos44cit2": 2781,
      "drivetrucktru1pos23pos44cit3": 2782,
      "drivetrucktru1pos23pos66cit1": 2783,
      "drivetrucktru1pos23pos66cit4": 2784,
      "drivetrucktru1pos23pos66cit6": 2785,
      "drivetrucktru1pos23pos66cit5": 2786,
      "drivetrucktru1pos23pos66cit2": 2787,
      "drivetrucktru1pos23pos66cit3": 2788,
      "drivetrucktru1pos23pos55cit1": 2789,
      "drivetrucktru1pos23pos55cit4": 2790,
      "drivetrucktru1pos23pos55cit6": 2791,
      "drivetrucktru1pos23pos55cit5": 2792,
      "drivetrucktru1pos23pos55cit2": 2793,
      "drivetrucktru1pos23pos55cit3": 2794,
      "drivetrucktru1pos23pos77cit1": 2795,
      "drivetrucktru1pos23pos77cit4": 2796,
      "drivetrucktru1pos23pos77cit6": 2797,
      "drivetrucktru1pos23pos77cit5": 2798,
      "drivetrucktru1pos23pos77cit2": 2799,
      "drivetrucktru1pos23pos77cit3": 2800,
      "drivetrucktru1pos23apt8cit1": 2801,
      "drivetrucktru1pos23apt8cit4": 2802,
      "drivetrucktru1pos23apt8cit6": 2803,
      "drivetrucktru1pos23apt8cit5": 2804,
      "drivetrucktru1pos23apt8cit2": 2805,
      "drivetrucktru1pos23apt8cit3": 2806,
      "drivetrucktru1pos23apt6cit1": 2807,
      "drivetrucktru1pos23apt6cit4": 2808,
      "drivetrucktru1pos23apt6cit6": 2809,
      "drivetrucktru1pos23apt6cit5": 2810,
      "drivetrucktru1pos23apt6cit2": 2811,
      "drivetrucktru1pos23apt6cit3": 2812,
      "drivetrucktru1pos23apt5cit1": 2813,
      "drivetrucktru1pos23apt5cit4": 2814,
      "drivetrucktru1pos23apt5cit6": 2815,
      "drivetrucktru1pos23apt5cit5": 2816,
      "drivetrucktru1pos23apt5cit2": 2817,
      "drivetrucktru1pos23apt5cit3": 2818,
      "drivetrucktru1pos23apt7cit1": 2819,
      "drivetrucktru1pos23apt7cit4": 2820,
      "drivetrucktru1pos23apt7cit6": 2821,
      "drivetrucktru1pos23apt7cit5": 2822,
      "drivetrucktru1pos23apt7cit2": 2823,
      "drivetrucktru1pos23apt7cit3": 2824,
      "drivetrucktru1pos23apt4cit1": 2825,
      "drivetrucktru1pos23apt4cit4": 2826,
      "drivetrucktru1pos23apt4cit6": 2827,
      "drivetrucktru1pos23apt4cit3": 2828,
      "drivetrucktru1pos23apt4cit5": 2829,
      "drivetrucktru1pos23apt4cit2": 2830,
      "drivetrucktru1pos22apt4cit1": 2831,
      "drivetrucktru1pos22apt4cit4": 2832,
      "drivetrucktru1pos22apt4cit6": 2833,
      "drivetrucktru1pos22apt4cit5": 2834,
      "drivetrucktru1pos22apt4cit2": 2835,
      "drivetrucktru1pos22apt4cit3": 2836,
      "drivetrucktru1pos22apt8cit1": 2837,
      "drivetrucktru1pos22apt8cit4": 2838,
      "drivetrucktru1pos22apt8cit6": 2839,
      "drivetrucktru1pos22apt8cit5": 2840,
      "drivetrucktru1pos22apt8cit2": 2841,
      "drivetrucktru1pos22apt8cit3": 2842,
      "drivetrucktru1pos22apt6cit1": 2843,
      "drivetrucktru1pos22apt6cit4": 2844,
      "drivetrucktru1pos22apt6cit6": 2845,
      "drivetrucktru1pos22apt6cit5": 2846,
      "drivetrucktru1pos22apt6cit2": 2847,
      "drivetrucktru1pos22apt6cit3": 2848,
      "drivetrucktru1pos22apt5cit1": 2849,
      "drivetrucktru1pos22apt5cit4": 2850,
      "drivetrucktru1pos22apt5cit6": 2851,
      "drivetrucktru1pos22apt5cit5": 2852,
      "drivetrucktru1pos22apt5cit2": 2853,
      "drivetrucktru1pos22apt5cit3": 2854,
      "drivetrucktru1pos22apt7cit1": 2855,
      "drivetrucktru1pos22apt7cit4": 2856,
      "drivetrucktru1pos22apt7cit6": 2857,
      "drivetrucktru1pos22apt7cit5": 2858,
      "drivetrucktru1pos22apt7cit2": 2859,
      "drivetrucktru1pos22apt7cit3": 2860,
      "drivetrucktru1pos21apt8cit1": 2861,
      "drivetrucktru1pos21apt8cit4": 2862,
      "drivetrucktru1pos21apt8cit6": 2863,
      "drivetrucktru1pos21apt8cit5": 2864,
      "drivetrucktru1pos21apt8cit2": 2865,
      "drivetrucktru1pos21apt8cit3": 2866,
      "drivetrucktru1pos21apt6cit1": 2867,
      "drivetrucktru1pos21apt6cit4": 2868,
      "drivetrucktru1pos21apt6cit6": 2869,
      "drivetrucktru1pos21apt6cit5": 2870,
      "drivetrucktru1pos21apt6cit2": 2871,
      "drivetrucktru1pos21apt6cit3": 2872,
      "drivetrucktru1pos21apt5cit1": 2873,
      "drivetrucktru1pos21apt5cit4": 2874,
      "drivetrucktru1pos21apt5cit6": 2875,
      "drivetrucktru1pos21apt5cit5": 2876,
      "drivetrucktru1pos21apt5cit2": 2877,
      "drivetrucktru1pos21apt5cit3": 2878,
      "drivetrucktru1pos21apt7cit1": 2879,
      "drivetrucktru1pos21apt7cit4": 2880,
      "drivetrucktru1pos21apt7cit6": 2881,
      "drivetrucktru1pos21apt7cit5": 2882,
      "drivetrucktru1pos21apt7cit2": 2883,
      "drivetrucktru1pos21apt7cit3": 2884,
      "drivetrucktru1pos21apt4cit1": 2885,
      "drivetrucktru1pos21apt4cit4": 2886,
      "drivetrucktru1pos21apt4cit6": 2887,
      "drivetrucktru1pos21apt4cit5": 2888,
      "drivetrucktru1pos21apt4cit2": 2889,
      "drivetrucktru1pos23pos33cit4": 2890,
      "drivetrucktru1pos23pos33cit6": 2891,
      "drivetrucktru1pos23pos33cit5": 2892,
      "drivetrucktru1pos23pos33cit1": 2893,
      "drivetrucktru1pos23pos33cit2": 2894,
      "drivetrucktru1pos23pos33cit3": 2895,
      "drivetrucktru1pos21apt4cit3": 2896,
      "drivetrucktru2pos13pos44cit1": 2897,
      "drivetrucktru2pos13pos44cit4": 2898,
      "drivetrucktru2pos13pos44cit6": 2899,
      "drivetrucktru2pos13pos44cit5": 2900,
      "drivetrucktru2pos13pos44cit2": 2901,
      "drivetrucktru2pos13pos44cit3": 2902,
      "drivetrucktru2pos13pos66cit1": 2903,
      "drivetrucktru2pos13pos66cit4": 2904,
      "drivetrucktru2pos13pos66cit6": 2905,
      "drivetrucktru2pos13pos66cit5": 2906,
      "drivetrucktru2pos13pos66cit2": 2907,
      "drivetrucktru2pos13pos66cit3": 2908,
      "drivetrucktru2pos13pos55cit1": 2909,
      "drivetrucktru2pos13pos55cit4": 2910,
      "drivetrucktru2pos13pos55cit6": 2911,
      "drivetrucktru2pos13pos55cit5": 2912,
      "drivetrucktru2pos13pos55cit2": 2913,
      "drivetrucktru2pos13pos55cit3": 2914,
      "drivetrucktru2pos13pos77cit1": 2915,
      "drivetrucktru2pos13pos77cit4": 2916,
      "drivetrucktru2pos13pos77cit6": 2917,
      "drivetrucktru2pos13pos77cit5": 2918,
      "drivetrucktru2pos13pos77cit2": 2919,
      "drivetrucktru2pos13pos77cit3": 2920,
      "drivetrucktru2pos13apt8cit1": 2921,
      "drivetrucktru2pos13apt8cit4": 2922,
      "drivetrucktru2pos13apt8cit6": 2923,
      "drivetrucktru2pos13apt8cit5": 2924,
      "drivetrucktru2pos13apt8cit2": 2925,
      "drivetrucktru2pos13apt8cit3": 2926,
      "drivetrucktru2pos13apt6cit1": 2927,
      "drivetrucktru2pos13apt6cit4": 2928,
      "drivetrucktru2pos13apt6cit6": 2929,
      "drivetrucktru2pos13apt6cit5": 2930,
      "drivetrucktru2pos13apt6cit2": 2931,
      "drivetrucktru2pos13apt6cit3": 2932,
      "drivetrucktru2pos13apt5cit1": 2933,
      "drivetrucktru2pos13apt5cit4": 2934,
      "drivetrucktru2pos13apt5cit6": 2935,
      "drivetrucktru2pos13apt5cit5": 2936,
      "drivetrucktru2pos13apt5cit2": 2937,
      "drivetrucktru2pos13apt5cit3": 2938,
      "drivetrucktru2pos13apt7cit1": 2939,
      "drivetrucktru2pos13apt7cit4": 2940,
      "drivetrucktru2pos13apt7cit6": 2941,
      "drivetrucktru2pos13apt7cit5": 2942,
      "drivetrucktru2pos13apt7cit2": 2943,
      "drivetrucktru2pos13apt7cit3": 2944,
      "drivetrucktru2pos13apt4cit1": 2945,
      "drivetrucktru2pos13apt4cit4": 2946,
      "drivetrucktru2pos13apt4cit6": 2947,
      "drivetrucktru2pos13apt4cit3": 2948,
      "drivetrucktru2pos13apt4cit5": 2949,
      "drivetrucktru2pos13apt4cit2": 2950,
      "drivetrucktru2pos12apt4cit1": 2951,
      "drivetrucktru2pos12apt4cit4": 2952,
      "drivetrucktru2pos12apt4cit6": 2953,
      "drivetrucktru2pos12apt4cit5": 2954,
      "drivetrucktru2pos12apt4cit2": 2955,
      "drivetrucktru2pos12apt4cit3": 2956,
      "drivetrucktru2pos12apt8cit1": 2957,
      "drivetrucktru2pos12apt8cit4": 2958,
      "drivetrucktru2pos12apt8cit6": 2959,
      "drivetrucktru2pos12apt8cit5": 2960,
      "drivetrucktru2pos12apt8cit2": 2961,
      "drivetrucktru2pos12apt8cit3": 2962,
      "drivetrucktru2pos12apt6cit1": 2963,
      "drivetrucktru2pos12apt6cit4": 2964,
      "drivetrucktru2pos12apt6cit6": 2965,
      "drivetrucktru2pos12apt6cit5": 2966,
      "drivetrucktru2pos12apt6cit2": 2967,
      "drivetrucktru2pos12apt6cit3": 2968,
      "drivetrucktru2pos12apt5cit1": 2969,
      "drivetrucktru2pos12apt5cit4": 2970,
      "drivetrucktru2pos12apt5cit6": 2971,
      "drivetrucktru2pos12apt5cit5": 2972,
      "drivetrucktru2pos12apt5cit2": 2973,
      "drivetrucktru2pos12apt5cit3": 2974,
      "drivetrucktru2pos12apt7cit1": 2975,
      "drivetrucktru2pos12apt7cit4": 2976,
      "drivetrucktru2pos12apt7cit6": 2977,
      "drivetrucktru2pos12apt7cit5": 2978,
      "drivetrucktru2pos12apt7cit2": 2979,
      "drivetrucktru2pos12apt7cit3": 2980,
      "drivetrucktru2pos11apt8cit1": 2981,
      "drivetrucktru2pos11apt8cit4": 2982,
      "drivetrucktru2pos11apt8cit6": 2983,
      "drivetrucktru2pos11apt8cit5": 2984,
      "drivetrucktru2pos11apt8cit2": 2985,
      "drivetrucktru2pos11apt8cit3": 2986,
      "drivetrucktru2pos11apt6cit1": 2987,
      "drivetrucktru2pos11apt6cit4": 2988,
      "drivetrucktru2pos11apt6cit6": 2989,
      "drivetrucktru2pos11apt6cit5": 2990,
      "drivetrucktru2pos11apt6cit2": 2991,
      "drivetrucktru2pos11apt6cit3": 2992,
      "drivetrucktru2pos11apt5cit1": 2993,
      "drivetrucktru2pos11apt5cit4": 2994,
      "drivetrucktru2pos11apt5cit6": 2995,
      "drivetrucktru2pos11apt5cit5": 2996,
      "drivetrucktru2pos11apt5cit2": 2997,
      "drivetrucktru2pos11apt5cit3": 2998,
      "drivetrucktru2pos11apt7cit1": 2999,
      "drivetrucktru2pos11apt7cit4": 3000,
      "drivetrucktru2pos11apt7cit6": 3001,
      "drivetrucktru2pos11apt7cit5": 3002,
      "drivetrucktru2pos11apt7cit2": 3003,
      "drivetrucktru2pos11apt7cit3": 3004,
      "drivetrucktru2pos11apt4cit1": 3005,
      "drivetrucktru2pos11apt4cit4": 3006,
      "drivetrucktru2pos11apt4cit6": 3007,
      "drivetrucktru2pos11apt4cit5": 3008,
      "drivetrucktru2pos11apt4cit2": 3009,
      "drivetrucktru2pos13pos33cit4": 3010,
      "drivetrucktru2pos13pos33cit6": 3011,
      "drivetrucktru2pos13pos33cit5": 3012,
      "drivetrucktru2pos13pos33cit1": 3013,
      "drivetrucktru2pos13pos33cit2": 3014,
      "drivetrucktru2pos13pos33cit3": 3015,
      "drivetrucktru2pos11apt4cit3": 3016,
      "drivetrucktru2pos23pos44cit1": 3017,
      "drivetrucktru2pos23pos44cit4": 3018,
      "drivetrucktru2pos23pos44cit6": 3019,
      "drivetrucktru2pos23pos44cit5": 3020,
      "drivetrucktru2pos23pos44cit2": 3021,
      "drivetrucktru2pos23pos44cit3": 3022,
      "drivetrucktru2pos23pos66cit1": 3023,
      "drivetrucktru2pos23pos66cit4": 3024,
      "drivetrucktru2pos23pos66cit6": 3025,
      "drivetrucktru2pos23pos66cit5": 3026,
      "drivetrucktru2pos23pos66cit2": 3027,
      "drivetrucktru2pos23pos66cit3": 3028,
      "drivetrucktru2pos23pos55cit1": 3029,
      "drivetrucktru2pos23pos55cit4": 3030,
      "drivetrucktru2pos23pos55cit6": 3031,
      "drivetrucktru2pos23pos55cit5": 3032,
      "drivetrucktru2pos23pos55cit2": 3033,
      "drivetrucktru2pos23pos55cit3": 3034,
      "drivetrucktru2pos23pos77cit1": 3035,
      "drivetrucktru2pos23pos77cit4": 3036,
      "drivetrucktru2pos23pos77cit6": 3037,
      "drivetrucktru2pos23pos77cit5": 3038,
      "drivetrucktru2pos23pos77cit2": 3039,
      "drivetrucktru2pos23pos77cit3": 3040,
      "drivetrucktru2pos23apt8cit1": 3041,
      "drivetrucktru2pos23apt8cit4": 3042,
      "drivetrucktru2pos23apt8cit6": 3043,
      "drivetrucktru2pos23apt8cit5": 3044,
      "drivetrucktru2pos23apt8cit2": 3045,
      "drivetrucktru2pos23apt8cit3": 3046,
      "drivetrucktru2pos23apt6cit1": 3047,
      "drivetrucktru2pos23apt6cit4": 3048,
      "drivetrucktru2pos23apt6cit6": 3049,
      "drivetrucktru2pos23apt6cit5": 3050,
      "drivetrucktru2pos23apt6cit2": 3051,
      "drivetrucktru2pos23apt6cit3": 3052,
      "drivetrucktru2pos23apt5cit1": 3053,
      "drivetrucktru2pos23apt5cit4": 3054,
      "drivetrucktru2pos23apt5cit6": 3055,
      "drivetrucktru2pos23apt5cit5": 3056,
      "drivetrucktru2pos23apt5cit2": 3057,
      "drivetrucktru2pos23apt5cit3": 3058,
      "drivetrucktru2pos23apt7cit1": 3059,
      "drivetrucktru2pos23apt7cit4": 3060,
      "drivetrucktru2pos23apt7cit6": 3061,
      "drivetrucktru2pos23apt7cit5": 3062,
      "drivetrucktru2pos23apt7cit2": 3063,
      "drivetrucktru2pos23apt7cit3": 3064,
      "drivetrucktru2pos23apt4cit1": 3065,
      "drivetrucktru2pos23apt4cit4": 3066,
      "drivetrucktru2pos23apt4cit6": 3067,
      "drivetrucktru2pos23apt4cit3": 3068,
      "drivetrucktru2pos23apt4cit5": 3069,
      "drivetrucktru2pos23apt4cit2": 3070,
      "drivetrucktru2pos22apt4cit1": 3071,
      "drivetrucktru2pos22apt4cit4": 3072,
      "drivetrucktru2pos22apt4cit6": 3073,
      "drivetrucktru2pos22apt4cit5": 3074,
      "drivetrucktru2pos22apt4cit2": 3075,
      "drivetrucktru2pos22apt4cit3": 3076,
      "drivetrucktru2pos22apt8cit1": 3077,
      "drivetrucktru2pos22apt8cit4": 3078,
      "drivetrucktru2pos22apt8cit6": 3079,
      "drivetrucktru2pos22apt8cit5": 3080,
      "drivetrucktru2pos22apt8cit2": 3081,
      "drivetrucktru2pos22apt8cit3": 3082,
      "drivetrucktru2pos22apt6cit1": 3083,
      "drivetrucktru2pos22apt6cit4": 3084,
      "drivetrucktru2pos22apt6cit6": 3085,
      "drivetrucktru2pos22apt6cit5": 3086,
      "drivetrucktru2pos22apt6cit2": 3087,
      "drivetrucktru2pos22apt6cit3": 3088,
      "drivetrucktru2pos22apt5cit1": 3089,
      "drivetrucktru2pos22apt5cit4": 3090,
      "drivetrucktru2pos22apt5cit6": 3091,
      "drivetrucktru2pos22apt5cit5": 3092,
      "drivetrucktru2pos22apt5cit2": 3093,
      "drivetrucktru2pos22apt5cit3": 3094,
      "drivetrucktru2pos22apt7cit1": 3095,
      "drivetrucktru2pos22apt7cit4": 3096,
      "drivetrucktru2pos22apt7cit6": 3097,
      "drivetrucktru2pos22apt7cit5": 3098,
      "drivetrucktru2pos22apt7cit2": 3099,
      "drivetrucktru2pos22apt7cit3": 3100,
      "drivetrucktru2pos21apt8cit1": 3101,
      "drivetrucktru2pos21apt8cit4": 3102,
      "drivetrucktru2pos21apt8cit6": 3103,
      "drivetrucktru2pos21apt8cit5": 3104,
      "drivetrucktru2pos21apt8cit2": 3105,
      "drivetrucktru2pos21apt8cit3": 3106,
      "drivetrucktru2pos21apt6cit1": 3107,
      "drivetrucktru2pos21apt6cit4": 3108,
      "drivetrucktru2pos21apt6cit6": 3109,
      "drivetrucktru2pos21apt6cit5": 3110,
      "drivetrucktru2pos21apt6cit2": 3111,
      "drivetrucktru2pos21apt6cit3": 3112,
      "drivetrucktru2pos21apt5cit1": 3113,
      "drivetrucktru2pos21apt5cit4": 3114,
      "drivetrucktru2pos21apt5cit6": 3115,
      "drivetrucktru2pos21apt5cit5": 3116,
      "drivetrucktru2pos21apt5cit2": 3117,
      "drivetrucktru2pos21apt5cit3": 3118,
      "drivetrucktru2pos21apt7cit1": 3119,
      "drivetrucktru2pos21apt7cit4": 3120,
      "drivetrucktru2pos21apt7cit6": 3121,
      "drivetrucktru2pos21apt7cit5": 3122,
      "drivetrucktru2pos21apt7cit2": 3123,
      "drivetrucktru2pos21apt7cit3": 3124,
      "drivetrucktru2pos21apt4cit1": 3125,
      "drivetrucktru2pos21apt4cit4": 3126,
      "drivetrucktru2pos21apt4cit6": 3127,
      "drivetrucktru2pos21apt4cit5": 3128,
      "drivetrucktru2pos21apt4cit2": 3129,
      "drivetrucktru2pos23pos33cit4": 3130,
      "drivetrucktru2pos23pos33cit6": 3131,
      "drivetrucktru2pos23pos33cit5": 3132,
      "drivetrucktru2pos23pos33cit1": 3133,
      "drivetrucktru2pos23pos33cit2": 3134,
      "drivetrucktru2pos23pos33cit3": 3135,
      "drivetrucktru2pos21apt4cit3": 3136,
      "drivetrucktru3pos33pos44cit1": 3137,
      "drivetrucktru3pos33pos44cit4": 3138,
      "drivetrucktru3pos33pos44cit6": 3139,
      "drivetrucktru3pos33pos44cit5": 3140,
      "drivetrucktru3pos33pos44cit2": 3141,
      "drivetrucktru3pos33pos44cit3": 3142,
      "drivetrucktru3pos33pos66cit1": 3143,
      "drivetrucktru3pos33pos66cit4": 3144,
      "drivetrucktru3pos33pos66cit6": 3145,
      "drivetrucktru3pos33pos66cit5": 3146,
      "drivetrucktru3pos33pos66cit2": 3147,
      "drivetrucktru3pos33pos66cit3": 3148,
      "drivetrucktru3pos33pos55cit1": 3149,
      "drivetrucktru3pos33pos55cit4": 3150,
      "drivetrucktru3pos33pos55cit6": 3151,
      "drivetrucktru3pos33pos55cit5": 3152,
      "drivetrucktru3pos33pos55cit2": 3153,
      "drivetrucktru3pos33pos55cit3": 3154,
      "drivetrucktru3pos33pos77cit1": 3155,
      "drivetrucktru3pos33pos77cit4": 3156,
      "drivetrucktru3pos33pos77cit6": 3157,
      "drivetrucktru3pos33pos77cit5": 3158,
      "drivetrucktru3pos33pos77cit2": 3159,
      "drivetrucktru3pos33pos77cit3": 3160,
      "drivetrucktru3pos33apt8cit1": 3161,
      "drivetrucktru3pos33apt8cit4": 3162,
      "drivetrucktru3pos33apt8cit6": 3163,
      "drivetrucktru3pos33apt8cit5": 3164,
      "drivetrucktru3pos33apt8cit2": 3165,
      "drivetrucktru3pos33apt8cit3": 3166,
      "drivetrucktru3pos33apt6cit1": 3167,
      "drivetrucktru3pos33apt6cit4": 3168,
      "drivetrucktru3pos33apt6cit6": 3169,
      "drivetrucktru3pos33apt6cit5": 3170,
      "drivetrucktru3pos33apt6cit2": 3171,
      "drivetrucktru3pos33apt6cit3": 3172,
      "drivetrucktru3pos33apt5cit1": 3173,
      "drivetrucktru3pos33apt5cit4": 3174,
      "drivetrucktru3pos33apt5cit6": 3175,
      "drivetrucktru3pos33apt5cit5": 3176,
      "drivetrucktru3pos33apt5cit2": 3177,
      "drivetrucktru3pos33apt5cit3": 3178,
      "drivetrucktru3pos33apt7cit1": 3179,
      "drivetrucktru3pos33apt7cit4": 3180,
      "drivetrucktru3pos33apt7cit6": 3181,
      "drivetrucktru3pos33apt7cit5": 3182,
      "drivetrucktru3pos33apt7cit2": 3183,
      "drivetrucktru3pos33apt7cit3": 3184,
      "drivetrucktru3pos33apt4cit1": 3185,
      "drivetrucktru3pos33apt4cit4": 3186,
      "drivetrucktru3pos33apt4cit6": 3187,
      "drivetrucktru3pos33apt4cit3": 3188,
      "drivetrucktru3pos33apt4cit5": 3189,
      "drivetrucktru3pos33apt4cit2": 3190,
      "drivetrucktru3pos44pos13cit4": 3191,
      "drivetrucktru3pos44pos13cit6": 3192,
      "drivetrucktru3pos44pos13cit5": 3193,
      "drivetrucktru3pos44pos13cit1": 3194,
      "drivetrucktru3pos44pos13cit2": 3195,
      "drivetrucktru3pos44pos13cit3": 3196,
      "drivetrucktru3pos44pos23cit4": 3197,
      "drivetrucktru3pos44pos23cit6": 3198,
      "drivetrucktru3pos44pos23cit5": 3199,
      "drivetrucktru3pos44pos23cit1": 3200,
      "drivetrucktru3pos44pos23cit2": 3201,
      "drivetrucktru3pos44pos23cit3": 3202,
      "drivetrucktru3pos44pos33cit4": 3203,
      "drivetrucktru3pos44pos33cit6": 3204,
      "drivetrucktru3pos44pos33cit5": 3205,
      "drivetrucktru3pos44pos33cit1": 3206,
      "drivetrucktru3pos44pos33cit2": 3207,
      "drivetrucktru3pos44pos33cit3": 3208,
      "drivetrucktru3pos44pos12cit4": 3209,
      "drivetrucktru3pos44pos12cit6": 3210,
      "drivetrucktru3pos44pos12cit5": 3211,
      "drivetrucktru3pos44pos12cit1": 3212,
      "drivetrucktru3pos44pos12cit2": 3213,
      "drivetrucktru3pos44pos12cit3": 3214,
      "drivetrucktru3pos44pos11cit4": 3215,
      "drivetrucktru3pos44pos11cit6": 3216,
      "drivetrucktru3pos44pos11cit5": 3217,
      "drivetrucktru3pos44pos11cit1": 3218,
      "drivetrucktru3pos44pos11cit2": 3219,
      "drivetrucktru3pos44pos11cit3": 3220,
      "drivetrucktru3pos44pos22cit4": 3221,
      "drivetrucktru3pos44pos22cit6": 3222,
      "drivetrucktru3pos44pos22cit5": 3223,
      "drivetrucktru3pos44pos22cit1": 3224,
      "drivetrucktru3pos44pos22cit2": 3225,
      "drivetrucktru3pos44pos22cit3": 3226,
      "drivetrucktru3pos44pos21cit4": 3227,
      "drivetrucktru3pos44pos21cit6": 3228,
      "drivetrucktru3pos44pos21cit5": 3229,
      "drivetrucktru3pos44pos21cit1": 3230,
      "drivetrucktru3pos44pos21cit2": 3231,
      "drivetrucktru3pos44pos21cit3": 3232,
      "drivetrucktru3pos44pos66cit1": 3233,
      "drivetrucktru3pos44pos66cit4": 3234,
      "drivetrucktru3pos44pos66cit6": 3235,
      "drivetrucktru3pos44pos66cit5": 3236,
      "drivetrucktru3pos44pos66cit2": 3237,
      "drivetrucktru3pos44pos66cit3": 3238,
      "drivetrucktru3pos44pos55cit1": 3239,
      "drivetrucktru3pos44pos55cit4": 3240,
      "drivetrucktru3pos44pos55cit6": 3241,
      "drivetrucktru3pos44pos55cit5": 3242,
      "drivetrucktru3pos44pos55cit2": 3243,
      "drivetrucktru3pos44pos55cit3": 3244,
      "drivetrucktru3pos44pos77cit1": 3245,
      "drivetrucktru3pos44pos77cit4": 3246,
      "drivetrucktru3pos44pos77cit6": 3247,
      "drivetrucktru3pos44pos77cit5": 3248,
      "drivetrucktru3pos44pos77cit2": 3249,
      "drivetrucktru3pos44pos77cit3": 3250,
      "drivetrucktru3pos66pos13cit4": 3251,
      "drivetrucktru3pos66pos13cit6": 3252,
      "drivetrucktru3pos66pos13cit5": 3253,
      "drivetrucktru3pos66pos13cit1": 3254,
      "drivetrucktru3pos66pos13cit2": 3255,
      "drivetrucktru3pos66pos13cit3": 3256,
      "drivetrucktru3pos66pos23cit4": 3257,
      "drivetrucktru3pos66pos23cit6": 3258,
      "drivetrucktru3pos66pos23cit5": 3259,
      "drivetrucktru3pos66pos23cit1": 3260,
      "drivetrucktru3pos66pos23cit2": 3261,
      "drivetrucktru3pos66pos23cit3": 3262,
      "drivetrucktru3pos66pos33cit4": 3263,
      "drivetrucktru3pos66pos33cit6": 3264,
      "drivetrucktru3pos66pos33cit5": 3265,
      "drivetrucktru3pos66pos33cit1": 3266,
      "drivetrucktru3pos66pos33cit2": 3267,
      "drivetrucktru3pos66pos33cit3": 3268,
      "drivetrucktru3pos66pos12cit4": 3269,
      "drivetrucktru3pos66pos12cit6": 3270,
      "drivetrucktru3pos66pos12cit5": 3271,
      "drivetrucktru3pos66pos12cit1": 3272,
      "drivetrucktru3pos66pos12cit2": 3273,
      "drivetrucktru3pos66pos12cit3": 3274,
      "drivetrucktru3pos66pos11cit4": 3275,
      "drivetrucktru3pos66pos11cit6": 3276,
      "drivetrucktru3pos66pos11cit5": 3277,
      "drivetrucktru3pos66pos11cit1": 3278,
      "drivetrucktru3pos66pos11cit2": 3279,
      "drivetrucktru3pos66pos11cit3": 3280,
      "drivetrucktru3pos66pos22cit4": 3281,
      "drivetrucktru3pos66pos22cit6": 3282,
      "drivetrucktru3pos66pos22cit5": 3283,
      "drivetrucktru3pos66pos22cit1": 3284,
      "drivetrucktru3pos66pos22cit2": 3285,
      "drivetrucktru3pos66pos22cit3": 3286,
      "drivetrucktru3pos66pos21cit4": 3287,
      "drivetrucktru3pos66pos21cit6": 3288,
      "drivetrucktru3pos66pos21cit5": 3289,
      "drivetrucktru3pos66pos21cit1": 3290,
      "drivetrucktru3pos66pos21cit2": 3291,
      "drivetrucktru3pos66pos21cit3": 3292,
      "drivetrucktru3pos66pos44cit1": 3293,
      "drivetrucktru3pos66pos44cit4": 3294,
      "drivetrucktru3pos66pos44cit6": 3295,
      "drivetrucktru3pos66pos44cit5": 3296,
      "drivetrucktru3pos66pos44cit2": 3297,
      "drivetrucktru3pos66pos44cit3": 3298,
      "drivetrucktru3pos66pos55cit1": 3299,
      "drivetrucktru3pos66pos55cit4": 3300,
      "drivetrucktru3pos66pos55cit6": 3301,
      "drivetrucktru3pos66pos55cit5": 3302,
      "drivetrucktru3pos66pos55cit2": 3303,
      "drivetrucktru3pos66pos55cit3": 3304,
      "drivetrucktru3pos66pos77cit1": 3305,
      "drivetrucktru3pos66pos77cit4": 3306,
      "drivetrucktru3pos66pos77cit6": 3307,
      "drivetrucktru3pos66pos77cit5": 3308,
      "drivetrucktru3pos66pos77cit2": 3309,
      "drivetrucktru3pos66pos77cit3": 3310,
      "drivetrucktru3pos55pos13cit4": 3311,
      "drivetrucktru3pos55pos13cit6": 3312,
      "drivetrucktru3pos55pos13cit5": 3313,
      "drivetrucktru3pos55pos13cit1": 3314,
      "drivetrucktru3pos55pos13cit2": 3315,
      "drivetrucktru3pos55pos13cit3": 3316,
      "drivetrucktru3pos55pos23cit4": 3317,
      "drivetrucktru3pos55pos23cit6": 3318,
      "drivetrucktru3pos55pos23cit5": 3319,
      "drivetrucktru3pos55pos23cit1": 3320,
      "drivetrucktru3pos55pos23cit2": 3321,
      "drivetrucktru3pos55pos23cit3": 3322,
      "drivetrucktru3pos55pos33cit4": 3323,
      "drivetrucktru3pos55pos33cit6": 3324,
      "drivetrucktru3pos55pos33cit5": 3325,
      "drivetrucktru3pos55pos33cit1": 3326,
      "drivetrucktru3pos55pos33cit2": 3327,
      "drivetrucktru3pos55pos33cit3": 3328,
      "drivetrucktru3pos55pos12cit4": 3329,
      "drivetrucktru3pos55pos12cit6": 3330,
      "drivetrucktru3pos55pos12cit5": 3331,
      "drivetrucktru3pos55pos12cit1": 3332,
      "drivetrucktru3pos55pos12cit2": 3333,
      "drivetrucktru3pos55pos12cit3": 3334,
      "drivetrucktru3pos55pos11cit4": 3335,
      "drivetrucktru3pos55pos11cit6": 3336,
      "drivetrucktru3pos55pos11cit5": 3337,
      "drivetrucktru3pos55pos11cit1": 3338,
      "drivetrucktru3pos55pos11cit2": 3339,
      "drivetrucktru3pos55pos11cit3": 3340,
      "drivetrucktru3pos55pos22cit4": 3341,
      "drivetrucktru3pos55pos22cit6": 3342,
      "drivetrucktru3pos55pos22cit5": 3343,
      "drivetrucktru3pos55pos22cit1": 3344,
      "drivetrucktru3pos55pos22cit2": 3345,
      "drivetrucktru3pos55pos22cit3": 3346,
      "drivetrucktru3pos55pos21cit4": 3347,
      "drivetrucktru3pos55pos21cit6": 3348,
      "drivetrucktru3pos55pos21cit5": 3349,
      "drivetrucktru3pos55pos21cit1": 3350,
      "drivetrucktru3pos55pos21cit2": 3351,
      "drivetrucktru3pos55pos21cit3": 3352,
      "drivetrucktru3pos55pos44cit1": 3353,
      "drivetrucktru3pos55pos44cit4": 3354,
      "drivetrucktru3pos55pos44cit6": 3355,
      "drivetrucktru3pos55pos44cit5": 3356,
      "drivetrucktru3pos55pos44cit2": 3357,
      "drivetrucktru3pos55pos44cit3": 3358,
      "drivetrucktru3pos55pos66cit1": 3359,
      "drivetrucktru3pos55pos66cit4": 3360,
      "drivetrucktru3pos55pos66cit6": 3361,
      "drivetrucktru3pos55pos66cit5": 3362,
      "drivetrucktru3pos55pos66cit2": 3363,
      "drivetrucktru3pos55pos66cit3": 3364,
      "drivetrucktru3pos55pos77cit1": 3365,
      "drivetrucktru3pos55pos77cit4": 3366,
      "drivetrucktru3pos55pos77cit6": 3367,
      "drivetrucktru3pos55pos77cit5": 3368,
      "drivetrucktru3pos55pos77cit2": 3369,
      "drivetrucktru3pos55pos77cit3": 3370,
      "drivetrucktru3pos77pos13cit4": 3371,
      "drivetrucktru3pos77pos13cit6": 3372,
      "drivetrucktru3pos77pos13cit5": 3373,
      "drivetrucktru3pos77pos13cit1": 3374,
      "drivetrucktru3pos77pos13cit2": 3375,
      "drivetrucktru3pos77pos13cit3": 3376,
      "drivetrucktru3pos77pos23cit4": 3377,
      "drivetrucktru3pos77pos23cit6": 3378,
      "drivetrucktru3pos77pos23cit5": 3379,
      "drivetrucktru3pos77pos23cit1": 3380,
      "drivetrucktru3pos77pos23cit2": 3381,
      "drivetrucktru3pos77pos23cit3": 3382,
      "drivetrucktru3pos77pos33cit4": 3383,
      "drivetrucktru3pos77pos33cit6": 3384,
      "drivetrucktru3pos77pos33cit5": 3385,
      "drivetrucktru3pos77pos33cit1": 3386,
      "drivetrucktru3pos77pos33cit2": 3387,
      "drivetrucktru3pos77pos33cit3": 3388,
      "drivetrucktru3pos77pos12cit4": 3389,
      "drivetrucktru3pos77pos12cit6": 3390,
      "drivetrucktru3pos77pos12cit5": 3391,
      "drivetrucktru3pos77pos12cit1": 3392,
      "drivetrucktru3pos77pos12cit2": 3393,
      "drivetrucktru3pos77pos12cit3": 3394,
      "drivetrucktru3pos77pos11cit4": 3395,
      "drivetrucktru3pos77pos11cit6": 3396,
      "drivetrucktru3pos77pos11cit5": 3397,
      "drivetrucktru3pos77pos11cit1": 3398,
      "drivetrucktru3pos77pos11cit2": 3399,
      "drivetrucktru3pos77pos11cit3": 3400,
      "drivetrucktru3pos77pos22cit4": 3401,
      "drivetrucktru3pos77pos22cit6": 3402,
      "drivetrucktru3pos77pos22cit5": 3403,
      "drivetrucktru3pos77pos22cit1": 3404,
      "drivetrucktru3pos77pos22cit2": 3405,
      "drivetrucktru3pos77pos22cit3": 3406,
      "drivetrucktru3pos77pos21cit4": 3407,
      "drivetrucktru3pos77pos21cit6": 3408,
      "drivetrucktru3pos77pos21cit5": 3409,
      "drivetrucktru3pos77pos21cit1": 3410,
      "drivetrucktru3pos77pos21cit2": 3411,
      "drivetrucktru3pos77pos21cit3": 3412,
      "drivetrucktru3pos77pos44cit1": 3413,
      "drivetrucktru3pos77pos44cit4": 3414,
      "drivetrucktru3pos77pos44cit6": 3415,
      "drivetrucktru3pos77pos44cit5": 3416,
      "drivetrucktru3pos77pos44cit2": 3417,
      "drivetrucktru3pos77pos44cit3": 3418,
      "drivetrucktru3pos77pos66cit1": 3419,
      "drivetrucktru3pos77pos66cit4": 3420,
      "drivetrucktru3pos77pos66cit6": 3421,
      "drivetrucktru3pos77pos66cit5": 3422,
      "drivetrucktru3pos77pos66cit2": 3423,
      "drivetrucktru3pos77pos66cit3": 3424,
      "drivetrucktru3pos77pos55cit1": 3425,
      "drivetrucktru3pos77pos55cit4": 3426,
      "drivetrucktru3pos77pos55cit6": 3427,
      "drivetrucktru3pos77pos55cit5": 3428,
      "drivetrucktru3pos77pos55cit2": 3429,
      "drivetrucktru3pos77pos55cit3": 3430,
      "loadtruckobj33tru3apt8": 3431,
      "loadtruckobj33tru3apt6": 3432,
      "loadtruckobj33tru3apt5": 3433,
      "loadtruckobj33tru3apt7": 3434,
      "loadtruckobj33tru3apt4": 3435,
      "loadtruckobj33tru2apt4": 3436,
      "loadtruckobj33tru2apt8": 3437,
      "loadtruckobj33tru2apt6": 3438,
      "loadtruckobj33tru2apt5": 3439,
      "loadtruckobj33tru2apt7": 3440,
      "loadtruckobj33tru1apt8": 3441,
      "loadtruckobj33tru1apt6": 3442,
      "loadtruckobj33tru1apt5": 3443,
      "loadtruckobj33tru1apt7": 3444,
      "loadtruckobj33tru1apt4": 3445,
      "loadtruckobj33tru3pos44": 3446,
      "loadtruckobj33tru3pos66": 3447,
      "loadtruckobj33tru3pos55": 3448,
      "loadtruckobj33tru3pos77": 3449,
      "loadtruckobj33tru4apt8": 3450,
      "loadtruckobj33tru4apt6": 3451,
      "loadtruckobj33tru4apt5": 3452,
      "loadtruckobj33tru4apt7": 3453,
      "loadtruckobj33tru5apt8": 3454,
      "loadtruckobj33tru5apt6": 3455,
      "loadtruckobj33tru5apt7": 3456,
      "loadtruckobj33tru5apt4": 3457,
      "loadtruckobj33tru1pos44": 3458,
      "loadtruckobj33tru1pos66": 3459,
      "loadtruckobj33tru1pos55": 3460,
      "loadtruckobj33tru1pos77": 3461,
      "loadtruckobj33tru2pos44": 3462,
      "loadtruckobj33tru2pos66": 3463,
      "loadtruckobj33tru2pos55": 3464,
      "loadtruckobj33tru2pos77": 3465,
      "loadtruckobj33tru3apt1": 3466,
      "loadtruckobj33tru3apt2": 3467,
      "loadtruckobj33tru2apt1": 3468,
      "loadtruckobj33tru2apt3": 3469,
      "loadtruckobj33tru1apt2": 3470,
      "loadtruckobj33tru1apt3": 3471,
      "loadtruckobj33tru4apt1": 3472,
      "loadtruckobj33tru4apt2": 3473,
      "loadtruckobj33tru4apt3": 3474,
      "loadtruckobj33tru5apt1": 3475,
      "loadtruckobj33tru5apt2": 3476,
      "loadtruckobj33tru5apt3": 3477,
      "loadtruckobj33tru3apt3": 3478,
      "loadtruckobj33tru2apt2": 3479,
      "loadtruckobj33tru1apt1": 3480,
      "loadtruckobj33tru4apt4": 3481,
      "loadtruckobj33tru5apt5": 3482,
      "loadtruckobj33tru3pos11": 3483,
      "loadtruckobj33tru3pos12": 3484,
      "loadtruckobj33tru3pos13": 3485,
      "loadtruckobj33tru3pos21": 3486,
      "loadtruckobj33tru3pos22": 3487,
      "loadtruckobj33tru3pos23": 3488,
      "loadtruckobj33tru3pos33": 3489,
      "loadtruckobj33tru1pos11": 3490,
      "loadtruckobj33tru1pos12": 3491,
      "loadtruckobj33tru1pos21": 3492,
      "loadtruckobj33tru1pos22": 3493,
      "loadtruckobj33tru1pos13": 3494,
      "loadtruckobj33tru1pos23": 3495,
      "loadtruckobj33tru1pos33": 3496,
      "loadtruckobj33tru2pos11": 3497,
      "loadtruckobj33tru2pos12": 3498,
      "loadtruckobj33tru2pos21": 3499,
      "loadtruckobj33tru2pos22": 3500,
      "loadtruckobj33tru2pos13": 3501,
      "loadtruckobj33tru2pos23": 3502,
      "loadtruckobj33tru2pos33": 3503,
      "loadtruckobj33tru4pos44": 3504,
      "loadtruckobj33tru4pos66": 3505,
      "loadtruckobj33tru4pos55": 3506,
      "loadtruckobj33tru4pos77": 3507,
      "loadtruckobj33tru4pos11": 3508,
      "loadtruckobj33tru4pos12": 3509,
      "loadtruckobj33tru4pos21": 3510,
      "loadtruckobj33tru4pos22": 3511,
      "loadtruckobj33tru4pos13": 3512,
      "loadtruckobj33tru4pos23": 3513,
      "loadtruckobj33tru4pos33": 3514,
      "loadtruckobj33tru5pos44": 3515,
      "loadtruckobj33tru5pos66": 3516,
      "loadtruckobj33tru5pos55": 3517,
      "loadtruckobj33tru5pos77": 3518,
      "loadtruckobj33tru5pos11": 3519,
      "loadtruckobj33tru5pos12": 3520,
      "loadtruckobj33tru5pos21": 3521,
      "loadtruckobj33tru5pos22": 3522,
      "loadtruckobj33tru5pos13": 3523,
      "loadtruckobj33tru5pos23": 3524,
      "loadtruckobj33tru5pos33": 3525,
      "loadtruckobj44tru3apt8": 3526,
      "loadtruckobj44tru3apt6": 3527,
      "loadtruckobj44tru3apt5": 3528,
      "loadtruckobj44tru3apt7": 3529,
      "loadtruckobj44tru3apt4": 3530,
      "loadtruckobj44tru2apt4": 3531,
      "loadtruckobj44tru2apt8": 3532,
      "loadtruckobj44tru2apt6": 3533,
      "loadtruckobj44tru2apt5": 3534,
      "loadtruckobj44tru2apt7": 3535,
      "loadtruckobj44tru1apt8": 3536,
      "loadtruckobj44tru1apt6": 3537,
      "loadtruckobj44tru1apt5": 3538,
      "loadtruckobj44tru1apt7": 3539,
      "loadtruckobj44tru1apt4": 3540,
      "loadtruckobj44tru3pos44": 3541,
      "loadtruckobj44tru3pos66": 3542,
      "loadtruckobj44tru3pos55": 3543,
      "loadtruckobj44tru3pos77": 3544,
      "loadtruckobj44tru4apt8": 3545,
      "loadtruckobj44tru4apt6": 3546,
      "loadtruckobj44tru4apt5": 3547,
      "loadtruckobj44tru4apt7": 3548,
      "loadtruckobj44tru5apt8": 3549,
      "loadtruckobj44tru5apt6": 3550,
      "loadtruckobj44tru5apt7": 3551,
      "loadtruckobj44tru5apt4": 3552,
      "loadtruckobj44tru1pos44": 3553,
      "loadtruckobj44tru1pos66": 3554,
      "loadtruckobj44tru1pos55": 3555,
      "loadtruckobj44tru1pos77": 3556,
      "loadtruckobj44tru2pos44": 3557,
      "loadtruckobj44tru2pos66": 3558,
      "loadtruckobj44tru2pos55": 3559,
      "loadtruckobj44tru2pos77": 3560,
      "loadtruckobj44tru3apt1": 3561,
      "loadtruckobj44tru3apt2": 3562,
      "loadtruckobj44tru2apt1": 3563,
      "loadtruckobj44tru2apt3": 3564,
      "loadtruckobj44tru1apt2": 3565,
      "loadtruckobj44tru1apt3": 3566,
      "loadtruckobj44tru4apt1": 3567,
      "loadtruckobj44tru4apt2": 3568,
      "loadtruckobj44tru4apt3": 3569,
      "loadtruckobj44tru5apt1": 3570,
      "loadtruckobj44tru5apt2": 3571,
      "loadtruckobj44tru5apt3": 3572,
      "loadtruckobj44tru3apt3": 3573,
      "loadtruckobj44tru2apt2": 3574,
      "loadtruckobj44tru1apt1": 3575,
      "loadtruckobj44tru4apt4": 3576,
      "loadtruckobj44tru5apt5": 3577,
      "loadtruckobj44tru3pos11": 3578,
      "loadtruckobj44tru3pos12": 3579,
      "loadtruckobj44tru3pos13": 3580,
      "loadtruckobj44tru3pos21": 3581,
      "loadtruckobj44tru3pos22": 3582,
      "loadtruckobj44tru3pos23": 3583,
      "loadtruckobj44tru3pos33": 3584,
      "loadtruckobj44tru1pos11": 3585,
      "loadtruckobj44tru1pos12": 3586,
      "loadtruckobj44tru1pos21": 3587,
      "loadtruckobj44tru1pos22": 3588,
      "loadtruckobj44tru1pos13": 3589,
      "loadtruckobj44tru1pos23": 3590,
      "loadtruckobj44tru1pos33": 3591,
      "loadtruckobj44tru2pos11": 3592,
      "loadtruckobj44tru2pos12": 3593,
      "loadtruckobj44tru2pos21": 3594,
      "loadtruckobj44tru2pos22": 3595,
      "loadtruckobj44tru2pos13": 3596,
      "loadtruckobj44tru2pos23": 3597,
      "loadtruckobj44tru2pos33": 3598,
      "loadtruckobj44tru4pos44": 3599,
      "loadtruckobj44tru4pos66": 3600,
      "loadtruckobj44tru4pos55": 3601,
      "loadtruckobj44tru4pos77": 3602,
      "loadtruckobj44tru4pos11": 3603,
      "loadtruckobj44tru4pos12": 3604,
      "loadtruckobj44tru4pos21": 3605,
      "loadtruckobj44tru4pos22": 3606,
      "loadtruckobj44tru4pos13": 3607,
      "loadtruckobj44tru4pos23": 3608,
      "loadtruckobj44tru4pos33": 3609,
      "loadtruckobj44tru5pos44": 3610,
      "loadtruckobj44tru5pos66": 3611,
      "loadtruckobj44tru5pos55": 3612,
      "loadtruckobj44tru5pos77": 3613,
      "loadtruckobj44tru5pos11": 3614,
      "loadtruckobj44tru5pos12": 3615,
      "loadtruckobj44tru5pos21": 3616,
      "loadtruckobj44tru5pos22": 3617,
      "loadtruckobj44tru5pos13": 3618,
      "loadtruckobj44tru5pos23": 3619,
      "loadtruckobj44tru5pos33": 3620,
      "loadtruckobj66tru3apt8": 3621,
      "loadtruckobj66tru3apt6": 3622,
      "loadtruckobj66tru3apt5": 3623,
      "loadtruckobj66tru3apt7": 3624,
      "loadtruckobj66tru3apt4": 3625,
      "loadtruckobj66tru2apt4": 3626,
      "loadtruckobj66tru2apt8": 3627,
      "loadtruckobj66tru2apt6": 3628,
      "loadtruckobj66tru2apt5": 3629,
      "loadtruckobj66tru2apt7": 3630,
      "loadtruckobj66tru1apt8": 3631,
      "loadtruckobj66tru1apt6": 3632,
      "loadtruckobj66tru1apt5": 3633,
      "loadtruckobj66tru1apt7": 3634,
      "loadtruckobj66tru1apt4": 3635,
      "loadtruckobj66tru3pos44": 3636,
      "loadtruckobj66tru3pos66": 3637,
      "loadtruckobj66tru3pos55": 3638,
      "loadtruckobj66tru3pos77": 3639,
      "loadtruckobj66tru4apt8": 3640,
      "loadtruckobj66tru4apt6": 3641,
      "loadtruckobj66tru4apt5": 3642,
      "loadtruckobj66tru4apt7": 3643,
      "loadtruckobj66tru5apt8": 3644,
      "loadtruckobj66tru5apt6": 3645,
      "loadtruckobj66tru5apt7": 3646,
      "loadtruckobj66tru5apt4": 3647,
      "loadtruckobj66tru1pos44": 3648,
      "loadtruckobj66tru1pos66": 3649,
      "loadtruckobj66tru1pos55": 3650,
      "loadtruckobj66tru1pos77": 3651,
      "loadtruckobj66tru2pos44": 3652,
      "loadtruckobj66tru2pos66": 3653,
      "loadtruckobj66tru2pos55": 3654,
      "loadtruckobj66tru2pos77": 3655,
      "loadtruckobj66tru3apt1": 3656,
      "loadtruckobj66tru3apt2": 3657,
      "loadtruckobj66tru2apt1": 3658,
      "loadtruckobj66tru2apt3": 3659,
      "loadtruckobj66tru1apt2": 3660,
      "loadtruckobj66tru1apt3": 3661,
      "loadtruckobj66tru4apt1": 3662,
      "loadtruckobj66tru4apt2": 3663,
      "loadtruckobj66tru4apt3": 3664,
      "loadtruckobj66tru5apt1": 3665,
      "loadtruckobj66tru5apt2": 3666,
      "loadtruckobj66tru5apt3": 3667,
      "loadtruckobj66tru3apt3": 3668,
      "loadtruckobj66tru2apt2": 3669,
      "loadtruckobj66tru1apt1": 3670,
      "loadtruckobj66tru4apt4": 3671,
      "loadtruckobj66tru5apt5": 3672,
      "loadtruckobj66tru3pos11": 3673,
      "loadtruckobj66tru3pos12": 3674,
      "loadtruckobj66tru3pos13": 3675,
      "loadtruckobj66tru3pos21": 3676,
      "loadtruckobj66tru3pos22": 3677,
      "loadtruckobj66tru3pos23": 3678,
      "loadtruckobj66tru3pos33": 3679,
      "loadtruckobj66tru1pos11": 3680,
      "loadtruckobj66tru1pos12": 3681,
      "loadtruckobj66tru1pos21": 3682,
      "loadtruckobj66tru1pos22": 3683,
      "loadtruckobj66tru1pos13": 3684,
      "loadtruckobj66tru1pos23": 3685,
      "loadtruckobj66tru1pos33": 3686,
      "loadtruckobj66tru2pos11": 3687,
      "loadtruckobj66tru2pos12": 3688,
      "loadtruckobj66tru2pos21": 3689,
      "loadtruckobj66tru2pos22": 3690,
      "loadtruckobj66tru2pos13": 3691,
      "loadtruckobj66tru2pos23": 3692,
      "loadtruckobj66tru2pos33": 3693,
      "loadtruckobj66tru4pos44": 3694,
      "loadtruckobj66tru4pos66": 3695,
      "loadtruckobj66tru4pos55": 3696,
      "loadtruckobj66tru4pos77": 3697,
      "loadtruckobj66tru4pos11": 3698,
      "loadtruckobj66tru4pos12": 3699,
      "loadtruckobj66tru4pos21": 3700,
      "loadtruckobj66tru4pos22": 3701,
      "loadtruckobj66tru4pos13": 3702,
      "loadtruckobj66tru4pos23": 3703,
      "loadtruckobj66tru4pos33": 3704,
      "loadtruckobj66tru5pos44": 3705,
      "loadtruckobj66tru5pos66": 3706,
      "loadtruckobj66tru5pos55": 3707,
      "loadtruckobj66tru5pos77": 3708,
      "loadtruckobj66tru5pos11": 3709,
      "loadtruckobj66tru5pos12": 3710,
      "loadtruckobj66tru5pos21": 3711,
      "loadtruckobj66tru5pos22": 3712,
      "loadtruckobj66tru5pos13": 3713,
      "loadtruckobj66tru5pos23": 3714,
      "loadtruckobj66tru5pos33": 3715,
      "loadtruckobj55tru3apt8": 3716,
      "loadtruckobj55tru3apt6": 3717,
      "loadtruckobj55tru3apt5": 3718,
      "loadtruckobj55tru3apt7": 3719,
      "loadtruckobj55tru3apt4": 3720,
      "loadtruckobj55tru2apt4": 3721,
      "loadtruckobj55tru2apt8": 3722,
      "loadtruckobj55tru2apt6": 3723,
      "loadtruckobj55tru2apt5": 3724,
      "loadtruckobj55tru2apt7": 3725,
      "loadtruckobj55tru1apt8": 3726,
      "loadtruckobj55tru1apt6": 3727,
      "loadtruckobj55tru1apt5": 3728,
      "loadtruckobj55tru1apt7": 3729,
      "loadtruckobj55tru1apt4": 3730,
      "loadtruckobj55tru3pos44": 3731,
      "loadtruckobj55tru3pos66": 3732,
      "loadtruckobj55tru3pos55": 3733,
      "loadtruckobj55tru3pos77": 3734,
      "loadtruckobj55tru4apt8": 3735,
      "loadtruckobj55tru4apt6": 3736,
      "loadtruckobj55tru4apt5": 3737,
      "loadtruckobj55tru4apt7": 3738,
      "loadtruckobj55tru5apt8": 3739,
      "loadtruckobj55tru5apt6": 3740,
      "loadtruckobj55tru5apt7": 3741,
      "loadtruckobj55tru5apt4": 3742,
      "loadtruckobj55tru1pos44": 3743,
      "loadtruckobj55tru1pos66": 3744,
      "loadtruckobj55tru1pos55": 3745,
      "loadtruckobj55tru1pos77": 3746,
      "loadtruckobj55tru2pos44": 3747,
      "loadtruckobj55tru2pos66": 3748,
      "loadtruckobj55tru2pos55": 3749,
      "loadtruckobj55tru2pos77": 3750,
      "loadtruckobj55tru3apt1": 3751,
      "loadtruckobj55tru3apt2": 3752,
      "loadtruckobj55tru2apt1": 3753,
      "loadtruckobj55tru2apt3": 3754,
      "loadtruckobj55tru1apt2": 3755,
      "loadtruckobj55tru1apt3": 3756,
      "loadtruckobj55tru4apt1": 3757,
      "loadtruckobj55tru4apt2": 3758,
      "loadtruckobj55tru4apt3": 3759,
      "loadtruckobj55tru5apt1": 3760,
      "loadtruckobj55tru5apt2": 3761,
      "loadtruckobj55tru5apt3": 3762,
      "loadtruckobj55tru3apt3": 3763,
      "loadtruckobj55tru2apt2": 3764,
      "loadtruckobj55tru1apt1": 3765,
      "loadtruckobj55tru4apt4": 3766,
      "loadtruckobj55tru5apt5": 3767,
      "loadtruckobj55tru3pos11": 3768,
      "loadtruckobj55tru3pos12": 3769,
      "loadtruckobj55tru3pos13": 3770,
      "loadtruckobj55tru3pos21": 3771,
      "loadtruckobj55tru3pos22": 3772,
      "loadtruckobj55tru3pos23": 3773,
      "loadtruckobj55tru3pos33": 3774,
      "loadtruckobj55tru1pos11": 3775,
      "loadtruckobj55tru1pos12": 3776,
      "loadtruckobj55tru1pos21": 3777,
      "loadtruckobj55tru1pos22": 3778,
      "loadtruckobj55tru1pos13": 3779,
      "loadtruckobj55tru1pos23": 3780,
      "loadtruckobj55tru1pos33": 3781,
      "loadtruckobj55tru2pos11": 3782,
      "loadtruckobj55tru2pos12": 3783,
      "loadtruckobj55tru2pos21": 3784,
      "loadtruckobj55tru2pos22": 3785,
      "loadtruckobj55tru2pos13": 3786,
      "loadtruckobj55tru2pos23": 3787,
      "loadtruckobj55tru2pos33": 3788,
      "loadtruckobj55tru4pos44": 3789,
      "loadtruckobj55tru4pos66": 3790,
      "loadtruckobj55tru4pos55": 3791,
      "loadtruckobj55tru4pos77": 3792,
      "loadtruckobj55tru4pos11": 3793,
      "loadtruckobj55tru4pos12": 3794,
      "loadtruckobj55tru4pos21": 3795,
      "loadtruckobj55tru4pos22": 3796,
      "loadtruckobj55tru4pos13": 3797,
      "loadtruckobj55tru4pos23": 3798,
      "loadtruckobj55tru4pos33": 3799,
      "loadtruckobj55tru5pos44": 3800,
      "loadtruckobj55tru5pos66": 3801,
      "loadtruckobj55tru5pos55": 3802,
      "loadtruckobj55tru5pos77": 3803,
      "loadtruckobj55tru5pos11": 3804,
      "loadtruckobj55tru5pos12": 3805,
      "loadtruckobj55tru5pos21": 3806,
      "loadtruckobj55tru5pos22": 3807,
      "loadtruckobj55tru5pos13": 3808,
      "loadtruckobj55tru5pos23": 3809,
      "loadtruckobj55tru5pos33": 3810,
      "loadtruckobj77tru3apt8": 3811,
      "loadtruckobj77tru3apt6": 3812,
      "loadtruckobj77tru3apt5": 3813,
      "loadtruckobj77tru3apt7": 3814,
      "loadtruckobj77tru3apt4": 3815,
      "loadtruckobj77tru2apt4": 3816,
      "loadtruckobj77tru2apt8": 3817,
      "loadtruckobj77tru2apt6": 3818,
      "loadtruckobj77tru2apt5": 3819,
      "loadtruckobj77tru2apt7": 3820,
      "loadtruckobj77tru1apt8": 3821,
      "loadtruckobj77tru1apt6": 3822,
      "loadtruckobj77tru1apt5": 3823,
      "loadtruckobj77tru1apt7": 3824,
      "loadtruckobj77tru1apt4": 3825,
      "loadtruckobj77tru3pos44": 3826,
      "loadtruckobj77tru3pos66": 3827,
      "loadtruckobj77tru3pos55": 3828,
      "loadtruckobj77tru3pos77": 3829,
      "loadtruckobj77tru4apt8": 3830,
      "loadtruckobj77tru4apt6": 3831,
      "loadtruckobj77tru4apt5": 3832,
      "loadtruckobj77tru4apt7": 3833,
      "loadtruckobj77tru5apt8": 3834,
      "loadtruckobj77tru5apt6": 3835,
      "loadtruckobj77tru5apt7": 3836,
      "loadtruckobj77tru5apt4": 3837,
      "loadtruckobj77tru1pos44": 3838,
      "loadtruckobj77tru1pos66": 3839,
      "loadtruckobj77tru1pos55": 3840,
      "loadtruckobj77tru1pos77": 3841,
      "loadtruckobj77tru2pos44": 3842,
      "loadtruckobj77tru2pos66": 3843,
      "loadtruckobj77tru2pos55": 3844,
      "loadtruckobj77tru2pos77": 3845,
      "loadtruckobj77tru3apt1": 3846,
      "loadtruckobj77tru3apt2": 3847,
      "loadtruckobj77tru2apt1": 3848,
      "loadtruckobj77tru2apt3": 3849,
      "loadtruckobj77tru1apt2": 3850,
      "loadtruckobj77tru1apt3": 3851,
      "loadtruckobj77tru4apt1": 3852,
      "loadtruckobj77tru4apt2": 3853,
      "loadtruckobj77tru4apt3": 3854,
      "loadtruckobj77tru5apt1": 3855,
      "loadtruckobj77tru5apt2": 3856,
      "loadtruckobj77tru5apt3": 3857,
      "loadtruckobj77tru3apt3": 3858,
      "loadtruckobj77tru2apt2": 3859,
      "loadtruckobj77tru1apt1": 3860,
      "loadtruckobj77tru4apt4": 3861,
      "loadtruckobj77tru5apt5": 3862,
      "loadtruckobj77tru3pos11": 3863,
      "loadtruckobj77tru3pos12": 3864,
      "loadtruckobj77tru3pos13": 3865,
      "loadtruckobj77tru3pos21": 3866,
      "loadtruckobj77tru3pos22": 3867,
      "loadtruckobj77tru3pos23": 3868,
      "loadtruckobj77tru3pos33": 3869,
      "loadtruckobj77tru1pos11": 3870,
      "loadtruckobj77tru1pos12": 3871,
      "loadtruckobj77tru1pos21": 3872,
      "loadtruckobj77tru1pos22": 3873,
      "loadtruckobj77tru1pos13": 3874,
      "loadtruckobj77tru1pos23": 3875,
      "loadtruckobj77tru1pos33": 3876,
      "loadtruckobj77tru2pos11": 3877,
      "loadtruckobj77tru2pos12": 3878,
      "loadtruckobj77tru2pos21": 3879,
      "loadtruckobj77tru2pos22": 3880,
      "loadtruckobj77tru2pos13": 3881,
      "loadtruckobj77tru2pos23": 3882,
      "loadtruckobj77tru2pos33": 3883,
      "loadtruckobj77tru4pos44": 3884,
      "loadtruckobj77tru4pos66": 3885,
      "loadtruckobj77tru4pos55": 3886,
      "loadtruckobj77tru4pos77": 3887,
      "loadtruckobj77tru4pos11": 3888,
      "loadtruckobj77tru4pos12": 3889,
      "loadtruckobj77tru4pos21": 3890,
      "loadtruckobj77tru4pos22": 3891,
      "loadtruckobj77tru4pos13": 3892,
      "loadtruckobj77tru4pos23": 3893,
      "loadtruckobj77tru4pos33": 3894,
      "loadtruckobj77tru5pos44": 3895,
      "loadtruckobj77tru5pos66": 3896,
      "loadtruckobj77tru5pos55": 3897,
      "loadtruckobj77tru5pos77": 3898,
      "loadtruckobj77tru5pos11": 3899,
      "loadtruckobj77tru5pos12": 3900,
      "loadtruckobj77tru5pos21": 3901,
      "loadtruckobj77tru5pos22": 3902,
      "loadtruckobj77tru5pos13": 3903,
      "loadtruckobj77tru5pos23": 3904,
      "loadtruckobj77tru5pos33": 3905,
      "loadtruckobj88tru3apt8": 3906,
      "loadtruckobj88tru3apt6": 3907,
      "loadtruckobj88tru3apt5": 3908,
      "loadtruckobj88tru3apt7": 3909,
      "loadtruckobj88tru3apt4": 3910,
      "loadtruckobj88tru2apt4": 3911,
      "loadtruckobj88tru2apt8": 3912,
      "loadtruckobj88tru2apt6": 3913,
      "loadtruckobj88tru2apt5": 3914,
      "loadtruckobj88tru2apt7": 3915,
      "loadtruckobj88tru1apt8": 3916,
      "loadtruckobj88tru1apt6": 3917,
      "loadtruckobj88tru1apt5": 3918,
      "loadtruckobj88tru1apt7": 3919,
      "loadtruckobj88tru1apt4": 3920,
      "loadtruckobj88tru3pos44": 3921,
      "loadtruckobj88tru3pos66": 3922,
      "loadtruckobj88tru3pos55": 3923,
      "loadtruckobj88tru3pos77": 3924,
      "loadtruckobj88tru4apt8": 3925,
      "loadtruckobj88tru4apt6": 3926,
      "loadtruckobj88tru4apt5": 3927,
      "loadtruckobj88tru4apt7": 3928,
      "loadtruckobj88tru5apt8": 3929,
      "loadtruckobj88tru5apt6": 3930,
      "loadtruckobj88tru5apt7": 3931,
      "loadtruckobj88tru5apt4": 3932,
      "loadtruckobj88tru1pos44": 3933,
      "loadtruckobj88tru1pos66": 3934,
      "loadtruckobj88tru1pos55": 3935,
      "loadtruckobj88tru1pos77": 3936,
      "loadtruckobj88tru2pos44": 3937,
      "loadtruckobj88tru2pos66": 3938,
      "loadtruckobj88tru2pos55": 3939,
      "loadtruckobj88tru2pos77": 3940,
      "loadtruckobj88tru3apt1": 3941,
      "loadtruckobj88tru3apt2": 3942,
      "loadtruckobj88tru2apt1": 3943,
      "loadtruckobj88tru2apt3": 3944,
      "loadtruckobj88tru1apt2": 3945,
      "loadtruckobj88tru1apt3": 3946,
      "loadtruckobj88tru4apt1": 3947,
      "loadtruckobj88tru4apt2": 3948,
      "loadtruckobj88tru4apt3": 3949,
      "loadtruckobj88tru5apt1": 3950,
      "loadtruckobj88tru5apt2": 3951,
      "loadtruckobj88tru5apt3": 3952,
      "loadtruckobj88tru3apt3": 3953,
      "loadtruckobj88tru2apt2": 3954,
      "loadtruckobj88tru1apt1": 3955,
      "loadtruckobj88tru4apt4": 3956,
      "loadtruckobj88tru5apt5": 3957,
      "loadtruckobj88tru3pos11": 3958,
      "loadtruckobj88tru3pos12": 3959,
      "loadtruckobj88tru3pos13": 3960,
      "loadtruckobj88tru3pos21": 3961,
      "loadtruckobj88tru3pos22": 3962,
      "loadtruckobj88tru3pos23": 3963,
      "loadtruckobj88tru3pos33": 3964,
      "loadtruckobj88tru1pos11": 3965,
      "loadtruckobj88tru1pos12": 3966,
      "loadtruckobj88tru1pos21": 3967,
      "loadtruckobj88tru1pos22": 3968,
      "loadtruckobj88tru1pos13": 3969,
      "loadtruckobj88tru1pos23": 3970,
      "loadtruckobj88tru1pos33": 3971,
      "loadtruckobj88tru2pos11": 3972,
      "loadtruckobj88tru2pos12": 3973,
      "loadtruckobj88tru2pos21": 3974,
      "loadtruckobj88tru2pos22": 3975,
      "loadtruckobj88tru2pos13": 3976,
      "loadtruckobj88tru2pos23": 3977,
      "loadtruckobj88tru2pos33": 3978,
      "loadtruckobj88tru4pos44": 3979,
      "loadtruckobj88tru4pos66": 3980,
      "loadtruckobj88tru4pos55": 3981,
      "loadtruckobj88tru4pos77": 3982,
      "loadtruckobj88tru4pos11": 3983,
      "loadtruckobj88tru4pos12": 3984,
      "loadtruckobj88tru4pos21": 3985,
      "loadtruckobj88tru4pos22": 3986,
      "loadtruckobj88tru4pos13": 3987,
      "loadtruckobj88tru4pos23": 3988,
      "loadtruckobj88tru4pos33": 3989,
      "loadtruckobj88tru5pos44": 3990,
      "loadtruckobj88tru5pos66": 3991,
      "loadtruckobj88tru5pos55": 3992,
      "loadtruckobj88tru5pos77": 3993,
      "loadtruckobj88tru5pos11": 3994,
      "loadtruckobj88tru5pos12": 3995,
      "loadtruckobj88tru5pos21": 3996,
      "loadtruckobj88tru5pos22": 3997,
      "loadtruckobj88tru5pos13": 3998,
      "loadtruckobj88tru5pos23": 3999,
      "loadtruckobj88tru5pos33": 4000,
      "loadtruckobj00tru3apt8": 4001,
      "loadtruckobj00tru3apt6": 4002,
      "loadtruckobj00tru3apt5": 4003,
      "loadtruckobj00tru3apt7": 4004,
      "loadtruckobj00tru3apt4": 4005,
      "loadtruckobj00tru2apt4": 4006,
      "loadtruckobj00tru2apt8": 4007,
      "loadtruckobj00tru2apt6": 4008,
      "loadtruckobj00tru2apt5": 4009,
      "loadtruckobj00tru2apt7": 4010,
      "loadtruckobj00tru1apt8": 4011,
      "loadtruckobj00tru1apt6": 4012,
      "loadtruckobj00tru1apt5": 4013,
      "loadtruckobj00tru1apt7": 4014,
      "loadtruckobj00tru1apt4": 4015,
      "loadtruckobj00tru3pos44": 4016,
      "loadtruckobj00tru3pos66": 4017,
      "loadtruckobj00tru3pos55": 4018,
      "loadtruckobj00tru3pos77": 4019,
      "loadtruckobj00tru4apt8": 4020,
      "loadtruckobj00tru4apt6": 4021,
      "loadtruckobj00tru4apt5": 4022,
      "loadtruckobj00tru4apt7": 4023,
      "loadtruckobj00tru5apt8": 4024,
      "loadtruckobj00tru5apt6": 4025,
      "loadtruckobj00tru5apt7": 4026,
      "loadtruckobj00tru5apt4": 4027,
      "loadtruckobj00tru1pos44": 4028,
      "loadtruckobj00tru1pos66": 4029,
      "loadtruckobj00tru1pos55": 4030,
      "loadtruckobj00tru1pos77": 4031,
      "loadtruckobj00tru2pos44": 4032,
      "loadtruckobj00tru2pos66": 4033,
      "loadtruckobj00tru2pos55": 4034,
      "loadtruckobj00tru2pos77": 4035,
      "loadtruckobj00tru3apt1": 4036,
      "loadtruckobj00tru3apt2": 4037,
      "loadtruckobj00tru2apt1": 4038,
      "loadtruckobj00tru2apt3": 4039,
      "loadtruckobj00tru1apt2": 4040,
      "loadtruckobj00tru1apt3": 4041,
      "loadtruckobj00tru4apt1": 4042,
      "loadtruckobj00tru4apt2": 4043,
      "loadtruckobj00tru4apt3": 4044,
      "loadtruckobj00tru5apt1": 4045,
      "loadtruckobj00tru5apt2": 4046,
      "loadtruckobj00tru5apt3": 4047,
      "loadtruckobj00tru3apt3": 4048,
      "loadtruckobj00tru2apt2": 4049,
      "loadtruckobj00tru1apt1": 4050,
      "loadtruckobj00tru4apt4": 4051,
      "loadtruckobj00tru5apt5": 4052,
      "loadtruckobj00tru3pos11": 4053,
      "loadtruckobj00tru3pos12": 4054,
      "loadtruckobj00tru3pos13": 4055,
      "loadtruckobj00tru3pos21": 4056,
      "loadtruckobj00tru3pos22": 4057,
      "loadtruckobj00tru3pos23": 4058,
      "loadtruckobj00tru3pos33": 4059,
      "loadtruckobj00tru1pos11": 4060,
      "loadtruckobj00tru1pos12": 4061,
      "loadtruckobj00tru1pos21": 4062,
      "loadtruckobj00tru1pos22": 4063,
      "loadtruckobj00tru1pos13": 4064,
      "loadtruckobj00tru1pos23": 4065,
      "loadtruckobj00tru1pos33": 4066,
      "loadtruckobj00tru2pos11": 4067,
      "loadtruckobj00tru2pos12": 4068,
      "loadtruckobj00tru2pos21": 4069,
      "loadtruckobj00tru2pos22": 4070,
      "loadtruckobj00tru2pos13": 4071,
      "loadtruckobj00tru2pos23": 4072,
      "loadtruckobj00tru2pos33": 4073,
      "loadtruckobj00tru4pos44": 4074,
      "loadtruckobj00tru4pos66": 4075,
      "loadtruckobj00tru4pos55": 4076,
      "loadtruckobj00tru4pos77": 4077,
      "loadtruckobj00tru4pos11": 4078,
      "loadtruckobj00tru4pos12": 4079,
      "loadtruckobj00tru4pos21": 4080,
      "loadtruckobj00tru4pos22": 4081,
      "loadtruckobj00tru4pos13": 4082,
      "loadtruckobj00tru4pos23": 4083,
      "loadtruckobj00tru4pos33": 4084,
      "loadtruckobj00tru5pos44": 4085,
      "loadtruckobj00tru5pos66": 4086,
      "loadtruckobj00tru5pos55": 4087,
      "loadtruckobj00tru5pos77": 4088,
      "loadtruckobj00tru5pos11": 4089,
      "loadtruckobj00tru5pos12": 4090,
      "loadtruckobj00tru5pos21": 4091,
      "loadtruckobj00tru5pos22": 4092,
      "loadtruckobj00tru5pos13": 4093,
      "loadtruckobj00tru5pos23": 4094,
      "loadtruckobj00tru5pos33": 4095,
      "loadtruckobj99tru3apt8": 4096,
      "loadtruckobj99tru3apt6": 4097,
      "loadtruckobj99tru3apt5": 4098,
      "loadtruckobj99tru3apt7": 4099,
      "loadtruckobj99tru3apt4": 4100,
      "loadtruckobj99tru2apt4": 4101,
      "loadtruckobj99tru2apt8": 4102,
      "loadtruckobj99tru2apt6": 4103,
      "loadtruckobj99tru2apt5": 4104,
      "loadtruckobj99tru2apt7": 4105,
      "loadtruckobj99tru1apt8": 4106,
      "loadtruckobj99tru1apt6": 4107,
      "loadtruckobj99tru1apt5": 4108,
      "loadtruckobj99tru1apt7": 4109,
      "loadtruckobj99tru1apt4": 4110,
      "loadtruckobj99tru3pos44": 4111,
      "loadtruckobj99tru3pos66": 4112,
      "loadtruckobj99tru3pos55": 4113,
      "loadtruckobj99tru3pos77": 4114,
      "loadtruckobj99tru4apt8": 4115,
      "loadtruckobj99tru4apt6": 4116,
      "loadtruckobj99tru4apt5": 4117,
      "loadtruckobj99tru4apt7": 4118,
      "loadtruckobj99tru5apt8": 4119,
      "loadtruckobj99tru5apt6": 4120,
      "loadtruckobj99tru5apt7": 4121,
      "loadtruckobj99tru5apt4": 4122,
      "loadtruckobj99tru1pos44": 4123,
      "loadtruckobj99tru1pos66": 4124,
      "loadtruckobj99tru1pos55": 4125,
      "loadtruckobj99tru1pos77": 4126,
      "loadtruckobj99tru2pos44": 4127,
      "loadtruckobj99tru2pos66": 4128,
      "loadtruckobj99tru2pos55": 4129,
      "loadtruckobj99tru2pos77": 4130,
      "loadtruckobj99tru3apt1": 4131,
      "loadtruckobj99tru3apt2": 4132,
      "loadtruckobj99tru2apt1": 4133,
      "loadtruckobj99tru2apt3": 4134,
      "loadtruckobj99tru1apt2": 4135,
      "loadtruckobj99tru1apt3": 4136,
      "loadtruckobj99tru4apt1": 4137,
      "loadtruckobj99tru4apt2": 4138,
      "loadtruckobj99tru4apt3": 4139,
      "loadtruckobj99tru5apt1": 4140,
      "loadtruckobj99tru5apt2": 4141,
      "loadtruckobj99tru5apt3": 4142,
      "loadtruckobj99tru3apt3": 4143,
      "loadtruckobj99tru2apt2": 4144,
      "loadtruckobj99tru1apt1": 4145,
      "loadtruckobj99tru4apt4": 4146,
      "loadtruckobj99tru5apt5": 4147,
      "loadtruckobj99tru3pos11": 4148,
      "loadtruckobj99tru3pos12": 4149,
      "loadtruckobj99tru3pos13": 4150,
      "loadtruckobj99tru3pos21": 4151,
      "loadtruckobj99tru3pos22": 4152,
      "loadtruckobj99tru3pos23": 4153,
      "loadtruckobj99tru3pos33": 4154,
      "loadtruckobj99tru1pos11": 4155,
      "loadtruckobj99tru1pos12": 4156,
      "loadtruckobj99tru1pos21": 4157,
      "loadtruckobj99tru1pos22": 4158,
      "loadtruckobj99tru1pos13": 4159,
      "loadtruckobj99tru1pos23": 4160,
      "loadtruckobj99tru1pos33": 4161,
      "loadtruckobj99tru2pos11": 4162,
      "loadtruckobj99tru2pos12": 4163,
      "loadtruckobj99tru2pos21": 4164,
      "loadtruckobj99tru2pos22": 4165,
      "loadtruckobj99tru2pos13": 4166,
      "loadtruckobj99tru2pos23": 4167,
      "loadtruckobj99tru2pos33": 4168,
      "loadtruckobj99tru4pos44": 4169,
      "loadtruckobj99tru4pos66": 4170,
      "loadtruckobj99tru4pos55": 4171,
      "loadtruckobj99tru4pos77": 4172,
      "loadtruckobj99tru4pos11": 4173,
      "loadtruckobj99tru4pos12": 4174,
      "loadtruckobj99tru4pos21": 4175,
      "loadtruckobj99tru4pos22": 4176,
      "loadtruckobj99tru4pos13": 4177,
      "loadtruckobj99tru4pos23": 4178,
      "loadtruckobj99tru4pos33": 4179,
      "loadtruckobj99tru5pos44": 4180,
      "loadtruckobj99tru5pos66": 4181,
      "loadtruckobj99tru5pos55": 4182,
      "loadtruckobj99tru5pos77": 4183,
      "loadtruckobj99tru5pos11": 4184,
      "loadtruckobj99tru5pos12": 4185,
      "loadtruckobj99tru5pos21": 4186,
      "loadtruckobj99tru5pos22": 4187,
      "loadtruckobj99tru5pos13": 4188,
      "loadtruckobj99tru5pos23": 4189,
      "loadtruckobj99tru5pos33": 4190,
      "unloadtruckobj33tru3apt8": 4191,
      "unloadtruckobj33tru3apt6": 4192,
      "unloadtruckobj33tru3apt5": 4193,
      "unloadtruckobj33tru3apt7": 4194,
      "unloadtruckobj33tru3apt4": 4195,
      "unloadtruckobj33tru2apt4": 4196,
      "unloadtruckobj33tru2apt8": 4197,
      "unloadtruckobj33tru2apt6": 4198,
      "unloadtruckobj33tru2apt5": 4199,
      "unloadtruckobj33tru2apt7": 4200,
      "unloadtruckobj33tru1apt8": 4201,
      "unloadtruckobj33tru1apt6": 4202,
      "unloadtruckobj33tru1apt5": 4203,
      "unloadtruckobj33tru1apt7": 4204,
      "unloadtruckobj33tru1apt4": 4205,
      "unloadtruckobj33tru3pos44": 4206,
      "unloadtruckobj33tru3pos66": 4207,
      "unloadtruckobj33tru3pos55": 4208,
      "unloadtruckobj33tru3pos77": 4209,
      "unloadtruckobj33tru4apt8": 4210,
      "unloadtruckobj33tru4apt6": 4211,
      "unloadtruckobj33tru4apt5": 4212,
      "unloadtruckobj33tru4apt7": 4213,
      "unloadtruckobj33tru5apt8": 4214,
      "unloadtruckobj33tru5apt6": 4215,
      "unloadtruckobj33tru5apt7": 4216,
      "unloadtruckobj33tru5apt4": 4217,
      "unloadtruckobj33tru1pos44": 4218,
      "unloadtruckobj33tru1pos66": 4219,
      "unloadtruckobj33tru1pos55": 4220,
      "unloadtruckobj33tru1pos77": 4221,
      "unloadtruckobj33tru2pos44": 4222,
      "unloadtruckobj33tru2pos66": 4223,
      "unloadtruckobj33tru2pos55": 4224,
      "unloadtruckobj33tru2pos77": 4225,
      "unloadtruckobj33tru3apt1": 4226,
      "unloadtruckobj33tru3apt2": 4227,
      "unloadtruckobj33tru2apt1": 4228,
      "unloadtruckobj33tru2apt3": 4229,
      "unloadtruckobj33tru1apt2": 4230,
      "unloadtruckobj33tru1apt3": 4231,
      "unloadtruckobj33tru4apt1": 4232,
      "unloadtruckobj33tru4apt2": 4233,
      "unloadtruckobj33tru4apt3": 4234,
      "unloadtruckobj33tru5apt1": 4235,
      "unloadtruckobj33tru5apt2": 4236,
      "unloadtruckobj33tru5apt3": 4237,
      "unloadtruckobj33tru3apt3": 4238,
      "unloadtruckobj33tru2apt2": 4239,
      "unloadtruckobj33tru1apt1": 4240,
      "unloadtruckobj33tru4apt4": 4241,
      "unloadtruckobj33tru5apt5": 4242,
      "unloadtruckobj33tru3pos11": 4243,
      "unloadtruckobj33tru3pos12": 4244,
      "unloadtruckobj33tru3pos13": 4245,
      "unloadtruckobj33tru3pos21": 4246,
      "unloadtruckobj33tru3pos22": 4247,
      "unloadtruckobj33tru3pos23": 4248,
      "unloadtruckobj33tru3pos33": 4249,
      "unloadtruckobj33tru1pos11": 4250,
      "unloadtruckobj33tru1pos12": 4251,
      "unloadtruckobj33tru1pos21": 4252,
      "unloadtruckobj33tru1pos22": 4253,
      "unloadtruckobj33tru1pos13": 4254,
      "unloadtruckobj33tru1pos23": 4255,
      "unloadtruckobj33tru1pos33": 4256,
      "unloadtruckobj33tru2pos11": 4257,
      "unloadtruckobj33tru2pos12": 4258,
      "unloadtruckobj33tru2pos21": 4259,
      "unloadtruckobj33tru2pos22": 4260,
      "unloadtruckobj33tru2pos13": 4261,
      "unloadtruckobj33tru2pos23": 4262,
      "unloadtruckobj33tru2pos33": 4263,
      "unloadtruckobj33tru4pos44": 4264,
      "unloadtruckobj33tru4pos66": 4265,
      "unloadtruckobj33tru4pos55": 4266,
      "unloadtruckobj33tru4pos77": 4267,
      "unloadtruckobj33tru4pos11": 4268,
      "unloadtruckobj33tru4pos12": 4269,
      "unloadtruckobj33tru4pos21": 4270,
      "unloadtruckobj33tru4pos22": 4271,
      "unloadtruckobj33tru4pos13": 4272,
      "unloadtruckobj33tru4pos23": 4273,
      "unloadtruckobj33tru4pos33": 4274,
      "unloadtruckobj33tru5pos44": 4275,
      "unloadtruckobj33tru5pos66": 4276,
      "unloadtruckobj33tru5pos55": 4277,
      "unloadtruckobj33tru5pos77": 4278,
      "unloadtruckobj33tru5pos11": 4279,
      "unloadtruckobj33tru5pos12": 4280,
      "unloadtruckobj33tru5pos21": 4281,
      "unloadtruckobj33tru5pos22": 4282,
      "unloadtruckobj33tru5pos13": 4283,
      "unloadtruckobj33tru5pos23": 4284,
      "unloadtruckobj33tru5pos33": 4285,
      "unloadtruckobj44tru3apt8": 4286,
      "unloadtruckobj44tru3apt6": 4287,
      "unloadtruckobj44tru3apt5": 4288,
      "unloadtruckobj44tru3apt7": 4289,
      "unloadtruckobj44tru3apt4": 4290,
      "unloadtruckobj44tru2apt4": 4291,
      "unloadtruckobj44tru2apt8": 4292,
      "unloadtruckobj44tru2apt6": 4293,
      "unloadtruckobj44tru2apt5": 4294,
      "unloadtruckobj44tru2apt7": 4295,
      "unloadtruckobj44tru1apt8": 4296,
      "unloadtruckobj44tru1apt6": 4297,
      "unloadtruckobj44tru1apt5": 4298,
      "unloadtruckobj44tru1apt7": 4299,
      "unloadtruckobj44tru1apt4": 4300,
      "unloadtruckobj44tru3pos44": 4301,
      "unloadtruckobj44tru3pos66": 4302,
      "unloadtruckobj44tru3pos55": 4303,
      "unloadtruckobj44tru3pos77": 4304,
      "unloadtruckobj44tru4apt8": 4305,
      "unloadtruckobj44tru4apt6": 4306,
      "unloadtruckobj44tru4apt5": 4307,
      "unloadtruckobj44tru4apt7": 4308,
      "unloadtruckobj44tru5apt8": 4309,
      "unloadtruckobj44tru5apt6": 4310,
      "unloadtruckobj44tru5apt7": 4311,
      "unloadtruckobj44tru5apt4": 4312,
      "unloadtruckobj44tru1pos44": 4313,
      "unloadtruckobj44tru1pos66": 4314,
      "unloadtruckobj44tru1pos55": 4315,
      "unloadtruckobj44tru1pos77": 4316,
      "unloadtruckobj44tru2pos44": 4317,
      "unloadtruckobj44tru2pos66": 4318,
      "unloadtruckobj44tru2pos55": 4319,
      "unloadtruckobj44tru2pos77": 4320,
      "unloadtruckobj44tru3apt1": 4321,
      "unloadtruckobj44tru3apt2": 4322,
      "unloadtruckobj44tru2apt1": 4323,
      "unloadtruckobj44tru2apt3": 4324,
      "unloadtruckobj44tru1apt2": 4325,
      "unloadtruckobj44tru1apt3": 4326,
      "unloadtruckobj44tru4apt1": 4327,
      "unloadtruckobj44tru4apt2": 4328,
      "unloadtruckobj44tru4apt3": 4329,
      "unloadtruckobj44tru5apt1": 4330,
      "unloadtruckobj44tru5apt2": 4331,
      "unloadtruckobj44tru5apt3": 4332,
      "unloadtruckobj44tru3apt3": 4333,
      "unloadtruckobj44tru2apt2": 4334,
      "unloadtruckobj44tru1apt1": 4335,
      "unloadtruckobj44tru4apt4": 4336,
      "unloadtruckobj44tru5apt5": 4337,
      "unloadtruckobj44tru3pos11": 4338,
      "unloadtruckobj44tru3pos12": 4339,
      "unloadtruckobj44tru3pos13": 4340,
      "unloadtruckobj44tru3pos21": 4341,
      "unloadtruckobj44tru3pos22": 4342,
      "unloadtruckobj44tru3pos23": 4343,
      "unloadtruckobj44tru3pos33": 4344,
      "unloadtruckobj44tru1pos11": 4345,
      "unloadtruckobj44tru1pos12": 4346,
      "unloadtruckobj44tru1pos21": 4347,
      "unloadtruckobj44tru1pos22": 4348,
      "unloadtruckobj44tru1pos13": 4349,
      "unloadtruckobj44tru1pos23": 4350,
      "unloadtruckobj44tru1pos33": 4351,
      "unloadtruckobj44tru2pos11": 4352,
      "unloadtruckobj44tru2pos12": 4353,
      "unloadtruckobj44tru2pos21": 4354,
      "unloadtruckobj44tru2pos22": 4355,
      "unloadtruckobj44tru2pos13": 4356,
      "unloadtruckobj44tru2pos23": 4357,
      "unloadtruckobj44tru2pos33": 4358,
      "unloadtruckobj44tru4pos44": 4359,
      "unloadtruckobj44tru4pos66": 4360,
      "unloadtruckobj44tru4pos55": 4361,
      "unloadtruckobj44tru4pos77": 4362,
      "unloadtruckobj44tru4pos11": 4363,
      "unloadtruckobj44tru4pos12": 4364,
      "unloadtruckobj44tru4pos21": 4365,
      "unloadtruckobj44tru4pos22": 4366,
      "unloadtruckobj44tru4pos13": 4367,
      "unloadtruckobj44tru4pos23": 4368,
      "unloadtruckobj44tru4pos33": 4369,
      "unloadtruckobj44tru5pos44": 4370,
      "unloadtruckobj44tru5pos66": 4371,
      "unloadtruckobj44tru5pos55": 4372,
      "unloadtruckobj44tru5pos77": 4373,
      "unloadtruckobj44tru5pos11": 4374,
      "unloadtruckobj44tru5pos12": 4375,
      "unloadtruckobj44tru5pos21": 4376,
      "unloadtruckobj44tru5pos22": 4377,
      "unloadtruckobj44tru5pos13": 4378,
      "unloadtruckobj44tru5pos23": 4379,
      "unloadtruckobj44tru5pos33": 4380,
      "unloadtruckobj66tru3apt8": 4381,
      "unloadtruckobj66tru3apt6": 4382,
      "unloadtruckobj66tru3apt5": 4383,
      "unloadtruckobj66tru3apt7": 4384,
      "unloadtruckobj66tru3apt4": 4385,
      "unloadtruckobj66tru2apt4": 4386,
      "unloadtruckobj66tru2apt8": 4387,
      "unloadtruckobj66tru2apt6": 4388,
      "unloadtruckobj66tru2apt5": 4389,
      "unloadtruckobj66tru2apt7": 4390,
      "unloadtruckobj66tru1apt8": 4391,
      "unloadtruckobj66tru1apt6": 4392,
      "unloadtruckobj66tru1apt5": 4393,
      "unloadtruckobj66tru1apt7": 4394,
      "unloadtruckobj66tru1apt4": 4395,
      "unloadtruckobj66tru3pos44": 4396,
      "unloadtruckobj66tru3pos66": 4397,
      "unloadtruckobj66tru3pos55": 4398,
      "unloadtruckobj66tru3pos77": 4399,
      "unloadtruckobj66tru4apt8": 4400,
      "unloadtruckobj66tru4apt6": 4401,
      "unloadtruckobj66tru4apt5": 4402,
      "unloadtruckobj66tru4apt7": 4403,
      "unloadtruckobj66tru5apt8": 4404,
      "unloadtruckobj66tru5apt6": 4405,
      "unloadtruckobj66tru5apt7": 4406,
      "unloadtruckobj66tru5apt4": 4407,
      "unloadtruckobj66tru1pos44": 4408,
      "unloadtruckobj66tru1pos66": 4409,
      "unloadtruckobj66tru1pos55": 4410,
      "unloadtruckobj66tru1pos77": 4411,
      "unloadtruckobj66tru2pos44": 4412,
      "unloadtruckobj66tru2pos66": 4413,
      "unloadtruckobj66tru2pos55": 4414,
      "unloadtruckobj66tru2pos77": 4415,
      "unloadtruckobj66tru3apt1": 4416,
      "unloadtruckobj66tru3apt2": 4417,
      "unloadtruckobj66tru2apt1": 4418,
      "unloadtruckobj66tru2apt3": 4419,
      "unloadtruckobj66tru1apt2": 4420,
      "unloadtruckobj66tru1apt3": 4421,
      "unloadtruckobj66tru4apt1": 4422,
      "unloadtruckobj66tru4apt2": 4423,
      "unloadtruckobj66tru4apt3": 4424,
      "unloadtruckobj66tru5apt1": 4425,
      "unloadtruckobj66tru5apt2": 4426,
      "unloadtruckobj66tru5apt3": 4427,
      "unloadtruckobj66tru3apt3": 4428,
      "unloadtruckobj66tru2apt2": 4429,
      "unloadtruckobj66tru1apt1": 4430,
      "unloadtruckobj66tru4apt4": 4431,
      "unloadtruckobj66tru5apt5": 4432,
      "unloadtruckobj66tru3pos11": 4433,
      "unloadtruckobj66tru3pos12": 4434,
      "unloadtruckobj66tru3pos13": 4435,
      "unloadtruckobj66tru3pos21": 4436,
      "unloadtruckobj66tru3pos22": 4437,
      "unloadtruckobj66tru3pos23": 4438,
      "unloadtruckobj66tru3pos33": 4439,
      "unloadtruckobj66tru1pos11": 4440,
      "unloadtruckobj66tru1pos12": 4441,
      "unloadtruckobj66tru1pos21": 4442,
      "unloadtruckobj66tru1pos22": 4443,
      "unloadtruckobj66tru1pos13": 4444,
      "unloadtruckobj66tru1pos23": 4445,
      "unloadtruckobj66tru1pos33": 4446,
      "unloadtruckobj66tru2pos11": 4447,
      "unloadtruckobj66tru2pos12": 4448,
      "unloadtruckobj66tru2pos21": 4449,
      "unloadtruckobj66tru2pos22": 4450,
      "unloadtruckobj66tru2pos13": 4451,
      "unloadtruckobj66tru2pos23": 4452,
      "unloadtruckobj66tru2pos33": 4453,
      "unloadtruckobj66tru4pos44": 4454,
      "unloadtruckobj66tru4pos66": 4455,
      "unloadtruckobj66tru4pos55": 4456,
      "unloadtruckobj66tru4pos77": 4457,
      "unloadtruckobj66tru4pos11": 4458,
      "unloadtruckobj66tru4pos12": 4459,
      "unloadtruckobj66tru4pos21": 4460,
      "unloadtruckobj66tru4pos22": 4461,
      "unloadtruckobj66tru4pos13": 4462,
      "unloadtruckobj66tru4pos23": 4463,
      "unloadtruckobj66tru4pos33": 4464,
      "unloadtruckobj66tru5pos44": 4465,
      "unloadtruckobj66tru5pos66": 4466,
      "unloadtruckobj66tru5pos55": 4467,
      "unloadtruckobj66tru5pos77": 4468,
      "unloadtruckobj66tru5pos11": 4469,
      "unloadtruckobj66tru5pos12": 4470,
      "unloadtruckobj66tru5pos21": 4471,
      "unloadtruckobj66tru5pos22": 4472,
      "unloadtruckobj66tru5pos13": 4473,
      "unloadtruckobj66tru5pos23": 4474,
      "unloadtruckobj66tru5pos33": 4475,
      "unloadtruckobj55tru3apt8": 4476,
      "unloadtruckobj55tru3apt6": 4477,
      "unloadtruckobj55tru3apt5": 4478,
      "unloadtruckobj55tru3apt7": 4479,
      "unloadtruckobj55tru3apt4": 4480,
      "unloadtruckobj55tru2apt4": 4481,
      "unloadtruckobj55tru2apt8": 4482,
      "unloadtruckobj55tru2apt6": 4483,
      "unloadtruckobj55tru2apt5": 4484,
      "unloadtruckobj55tru2apt7": 4485,
      "unloadtruckobj55tru1apt8": 4486,
      "unloadtruckobj55tru1apt6": 4487,
      "unloadtruckobj55tru1apt5": 4488,
      "unloadtruckobj55tru1apt7": 4489,
      "unloadtruckobj55tru1apt4": 4490,
      "unloadtruckobj55tru3pos44": 4491,
      "unloadtruckobj55tru3pos66": 4492,
      "unloadtruckobj55tru3pos55": 4493,
      "unloadtruckobj55tru3pos77": 4494,
      "unloadtruckobj55tru4apt8": 4495,
      "unloadtruckobj55tru4apt6": 4496,
      "unloadtruckobj55tru4apt5": 4497,
      "unloadtruckobj55tru4apt7": 4498,
      "unloadtruckobj55tru5apt8": 4499,
      "unloadtruckobj55tru5apt6": 4500,
      "unloadtruckobj55tru5apt7": 4501,
      "unloadtruckobj55tru5apt4": 4502,
      "unloadtruckobj55tru1pos44": 4503,
      "unloadtruckobj55tru1pos66": 4504,
      "unloadtruckobj55tru1pos55": 4505,
      "unloadtruckobj55tru1pos77": 4506,
      "unloadtruckobj55tru2pos44": 4507,
      "unloadtruckobj55tru2pos66": 4508,
      "unloadtruckobj55tru2pos55": 4509,
      "unloadtruckobj55tru2pos77": 4510,
      "unloadtruckobj55tru3apt1": 4511,
      "unloadtruckobj55tru3apt2": 4512,
      "unloadtruckobj55tru2apt1": 4513,
      "unloadtruckobj55tru2apt3": 4514,
      "unloadtruckobj55tru1apt2": 4515,
      "unloadtruckobj55tru1apt3": 4516,
      "unloadtruckobj55tru4apt1": 4517,
      "unloadtruckobj55tru4apt2": 4518,
      "unloadtruckobj55tru4apt3": 4519,
      "unloadtruckobj55tru5apt1": 4520,
      "unloadtruckobj55tru5apt2": 4521,
      "unloadtruckobj55tru5apt3": 4522,
      "unloadtruckobj55tru3apt3": 4523,
      "unloadtruckobj55tru2apt2": 4524,
      "unloadtruckobj55tru1apt1": 4525,
      "unloadtruckobj55tru4apt4": 4526,
      "unloadtruckobj55tru5apt5": 4527,
      "unloadtruckobj55tru3pos11": 4528,
      "unloadtruckobj55tru3pos12": 4529,
      "unloadtruckobj55tru3pos13": 4530,
      "unloadtruckobj55tru3pos21": 4531,
      "unloadtruckobj55tru3pos22": 4532,
      "unloadtruckobj55tru3pos23": 4533,
      "unloadtruckobj55tru3pos33": 4534,
      "unloadtruckobj55tru1pos11": 4535,
      "unloadtruckobj55tru1pos12": 4536,
      "unloadtruckobj55tru1pos21": 4537,
      "unloadtruckobj55tru1pos22": 4538,
      "unloadtruckobj55tru1pos13": 4539,
      "unloadtruckobj55tru1pos23": 4540,
      "unloadtruckobj55tru1pos33": 4541,
      "unloadtruckobj55tru2pos11": 4542,
      "unloadtruckobj55tru2pos12": 4543,
      "unloadtruckobj55tru2pos21": 4544,
      "unloadtruckobj55tru2pos22": 4545,
      "unloadtruckobj55tru2pos13": 4546,
      "unloadtruckobj55tru2pos23": 4547,
      "unloadtruckobj55tru2pos33": 4548,
      "unloadtruckobj55tru4pos44": 4549,
      "unloadtruckobj55tru4pos66": 4550,
      "unloadtruckobj55tru4pos55": 4551,
      "unloadtruckobj55tru4pos77": 4552,
      "unloadtruckobj55tru4pos11": 4553,
      "unloadtruckobj55tru4pos12": 4554,
      "unloadtruckobj55tru4pos21": 4555,
      "unloadtruckobj55tru4pos22": 4556,
      "unloadtruckobj55tru4pos13": 4557,
      "unloadtruckobj55tru4pos23": 4558,
      "unloadtruckobj55tru4pos33": 4559,
      "unloadtruckobj55tru5pos44": 4560,
      "unloadtruckobj55tru5pos66": 4561,
      "unloadtruckobj55tru5pos55": 4562,
      "unloadtruckobj55tru5pos77": 4563,
      "unloadtruckobj55tru5pos11": 4564,
      "unloadtruckobj55tru5pos12": 4565,
      "unloadtruckobj55tru5pos21": 4566,
      "unloadtruckobj55tru5pos22": 4567,
      "unloadtruckobj55tru5pos13": 4568,
      "unloadtruckobj55tru5pos23": 4569,
      "unloadtruckobj55tru5pos33": 4570,
      "unloadtruckobj77tru3apt8": 4571,
      "unloadtruckobj77tru3apt6": 4572,
      "unloadtruckobj77tru3apt5": 4573,
      "unloadtruckobj77tru3apt7": 4574,
      "unloadtruckobj77tru3apt4": 4575,
      "unloadtruckobj77tru2apt4": 4576,
      "unloadtruckobj77tru2apt8": 4577,
      "unloadtruckobj77tru2apt6": 4578,
      "unloadtruckobj77tru2apt5": 4579,
      "unloadtruckobj77tru2apt7": 4580,
      "unloadtruckobj77tru1apt8": 4581,
      "unloadtruckobj77tru1apt6": 4582,
      "unloadtruckobj77tru1apt5": 4583,
      "unloadtruckobj77tru1apt7": 4584,
      "unloadtruckobj77tru1apt4": 4585,
      "unloadtruckobj77tru3pos44": 4586,
      "unloadtruckobj77tru3pos66": 4587,
      "unloadtruckobj77tru3pos55": 4588,
      "unloadtruckobj77tru3pos77": 4589,
      "unloadtruckobj77tru4apt8": 4590,
      "unloadtruckobj77tru4apt6": 4591,
      "unloadtruckobj77tru4apt5": 4592,
      "unloadtruckobj77tru4apt7": 4593,
      "unloadtruckobj77tru5apt8": 4594,
      "unloadtruckobj77tru5apt6": 4595,
      "unloadtruckobj77tru5apt7": 4596,
      "unloadtruckobj77tru5apt4": 4597,
      "unloadtruckobj77tru1pos44": 4598,
      "unloadtruckobj77tru1pos66": 4599,
      "unloadtruckobj77tru1pos55": 4600,
      "unloadtruckobj77tru1pos77": 4601,
      "unloadtruckobj77tru2pos44": 4602,
      "unloadtruckobj77tru2pos66": 4603,
      "unloadtruckobj77tru2pos55": 4604,
      "unloadtruckobj77tru2pos77": 4605,
      "unloadtruckobj77tru3apt1": 4606,
      "unloadtruckobj77tru3apt2": 4607,
      "unloadtruckobj77tru2apt1": 4608,
      "unloadtruckobj77tru2apt3": 4609,
      "unloadtruckobj77tru1apt2": 4610,
      "unloadtruckobj77tru1apt3": 4611,
      "unloadtruckobj77tru4apt1": 4612,
      "unloadtruckobj77tru4apt2": 4613,
      "unloadtruckobj77tru4apt3": 4614,
      "unloadtruckobj77tru5apt1": 4615,
      "unloadtruckobj77tru5apt2": 4616,
      "unloadtruckobj77tru5apt3": 4617,
      "unloadtruckobj77tru3apt3": 4618,
      "unloadtruckobj77tru2apt2": 4619,
      "unloadtruckobj77tru1apt1": 4620,
      "unloadtruckobj77tru4apt4": 4621,
      "unloadtruckobj77tru5apt5": 4622,
      "unloadtruckobj77tru3pos11": 4623,
      "unloadtruckobj77tru3pos12": 4624,
      "unloadtruckobj77tru3pos13": 4625,
      "unloadtruckobj77tru3pos21": 4626,
      "unloadtruckobj77tru3pos22": 4627,
      "unloadtruckobj77tru3pos23": 4628,
      "unloadtruckobj77tru3pos33": 4629,
      "unloadtruckobj77tru1pos11": 4630,
      "unloadtruckobj77tru1pos12": 4631,
      "unloadtruckobj77tru1pos21": 4632,
      "unloadtruckobj77tru1pos22": 4633,
      "unloadtruckobj77tru1pos13": 4634,
      "unloadtruckobj77tru1pos23": 4635,
      "unloadtruckobj77tru1pos33": 4636,
      "unloadtruckobj77tru2pos11": 4637,
      "unloadtruckobj77tru2pos12": 4638,
      "unloadtruckobj77tru2pos21": 4639,
      "unloadtruckobj77tru2pos22": 4640,
      "unloadtruckobj77tru2pos13": 4641,
      "unloadtruckobj77tru2pos23": 4642,
      "unloadtruckobj77tru2pos33": 4643,
      "unloadtruckobj77tru4pos44": 4644,
      "unloadtruckobj77tru4pos66": 4645,
      "unloadtruckobj77tru4pos55": 4646,
      "unloadtruckobj77tru4pos77": 4647,
      "unloadtruckobj77tru4pos11": 4648,
      "unloadtruckobj77tru4pos12": 4649,
      "unloadtruckobj77tru4pos21": 4650,
      "unloadtruckobj77tru4pos22": 4651,
      "unloadtruckobj77tru4pos13": 4652,
      "unloadtruckobj77tru4pos23": 4653,
      "unloadtruckobj77tru4pos33": 4654,
      "unloadtruckobj77tru5pos44": 4655,
      "unloadtruckobj77tru5pos66": 4656,
      "unloadtruckobj77tru5pos55": 4657,
      "unloadtruckobj77tru5pos77": 4658,
      "unloadtruckobj77tru5pos11": 4659,
      "unloadtruckobj77tru5pos12": 4660,
      "unloadtruckobj77tru5pos21": 4661,
      "unloadtruckobj77tru5pos22": 4662,
      "unloadtruckobj77tru5pos13": 4663,
      "unloadtruckobj77tru5pos23": 4664,
      "unloadtruckobj77tru5pos33": 4665,
      "unloadtruckobj88tru3apt8": 4666,
      "unloadtruckobj88tru3apt6": 4667,
      "unloadtruckobj88tru3apt5": 4668,
      "unloadtruckobj88tru3apt7": 4669,
      "unloadtruckobj88tru3apt4": 4670,
      "unloadtruckobj88tru2apt4": 4671,
      "unloadtruckobj88tru2apt8": 4672,
      "unloadtruckobj88tru2apt6": 4673,
      "unloadtruckobj88tru2apt5": 4674,
      "unloadtruckobj88tru2apt7": 4675,
      "unloadtruckobj88tru1apt8": 4676,
      "unloadtruckobj88tru1apt6": 4677,
      "unloadtruckobj88tru1apt5": 4678,
      "unloadtruckobj88tru1apt7": 4679,
      "unloadtruckobj88tru1apt4": 4680,
      "unloadtruckobj88tru3pos44": 4681,
      "unloadtruckobj88tru3pos66": 4682,
      "unloadtruckobj88tru3pos55": 4683,
      "unloadtruckobj88tru3pos77": 4684,
      "unloadtruckobj88tru4apt8": 4685,
      "unloadtruckobj88tru4apt6": 4686,
      "unloadtruckobj88tru4apt5": 4687,
      "unloadtruckobj88tru4apt7": 4688,
      "unloadtruckobj88tru5apt8": 4689,
      "unloadtruckobj88tru5apt6": 4690,
      "unloadtruckobj88tru5apt7": 4691,
      "unloadtruckobj88tru5apt4": 4692,
      "unloadtruckobj88tru1pos44": 4693,
      "unloadtruckobj88tru1pos66": 4694,
      "unloadtruckobj88tru1pos55": 4695,
      "unloadtruckobj88tru1pos77": 4696,
      "unloadtruckobj88tru2pos44": 4697,
      "unloadtruckobj88tru2pos66": 4698,
      "unloadtruckobj88tru2pos55": 4699,
      "unloadtruckobj88tru2pos77": 4700,
      "unloadtruckobj88tru3apt1": 4701,
      "unloadtruckobj88tru3apt2": 4702,
      "unloadtruckobj88tru2apt1": 4703,
      "unloadtruckobj88tru2apt3": 4704,
      "unloadtruckobj88tru1apt2": 4705,
      "unloadtruckobj88tru1apt3": 4706,
      "unloadtruckobj88tru4apt1": 4707,
      "unloadtruckobj88tru4apt2": 4708,
      "unloadtruckobj88tru4apt3": 4709,
      "unloadtruckobj88tru5apt1": 4710,
      "unloadtruckobj88tru5apt2": 4711,
      "unloadtruckobj88tru5apt3": 4712,
      "unloadtruckobj88tru3apt3": 4713,
      "unloadtruckobj88tru2apt2": 4714,
      "unloadtruckobj88tru1apt1": 4715,
      "unloadtruckobj88tru4apt4": 4716,
      "unloadtruckobj88tru5apt5": 4717,
      "unloadtruckobj88tru3pos11": 4718,
      "unloadtruckobj88tru3pos12": 4719,
      "unloadtruckobj88tru3pos13": 4720,
      "unloadtruckobj88tru3pos21": 4721,
      "unloadtruckobj88tru3pos22": 4722,
      "unloadtruckobj88tru3pos23": 4723,
      "unloadtruckobj88tru3pos33": 4724,
      "unloadtruckobj88tru1pos11": 4725,
      "unloadtruckobj88tru1pos12": 4726,
      "unloadtruckobj88tru1pos21": 4727,
      "unloadtruckobj88tru1pos22": 4728,
      "unloadtruckobj88tru1pos13": 4729,
      "unloadtruckobj88tru1pos23": 4730,
      "unloadtruckobj88tru1pos33": 4731,
      "unloadtruckobj88tru2pos11": 4732,
      "unloadtruckobj88tru2pos12": 4733,
      "unloadtruckobj88tru2pos21": 4734,
      "unloadtruckobj88tru2pos22": 4735,
      "unloadtruckobj88tru2pos13": 4736,
      "unloadtruckobj88tru2pos23": 4737,
      "unloadtruckobj88tru2pos33": 4738,
      "unloadtruckobj88tru4pos44": 4739,
      "unloadtruckobj88tru4pos66": 4740,
      "unloadtruckobj88tru4pos55": 4741,
      "unloadtruckobj88tru4pos77": 4742,
      "unloadtruckobj88tru4pos11": 4743,
      "unloadtruckobj88tru4pos12": 4744,
      "unloadtruckobj88tru4pos21": 4745,
      "unloadtruckobj88tru4pos22": 4746,
      "unloadtruckobj88tru4pos13": 4747,
      "unloadtruckobj88tru4pos23": 4748,
      "unloadtruckobj88tru4pos33": 4749,
      "unloadtruckobj88tru5pos44": 4750,
      "unloadtruckobj88tru5pos66": 4751,
      "unloadtruckobj88tru5pos55": 4752,
      "unloadtruckobj88tru5pos77": 4753,
      "unloadtruckobj88tru5pos11": 4754,
      "unloadtruckobj88tru5pos12": 4755,
      "unloadtruckobj88tru5pos21": 4756,
      "unloadtruckobj88tru5pos22": 4757,
      "unloadtruckobj88tru5pos13": 4758,
      "unloadtruckobj88tru5pos23": 4759,
      "unloadtruckobj88tru5pos33": 4760,
      "unloadtruckobj00tru3apt8": 4761,
      "unloadtruckobj00tru3apt6": 4762,
      "unloadtruckobj00tru3apt5": 4763,
      "unloadtruckobj00tru3apt7": 4764,
      "unloadtruckobj00tru3apt4": 4765,
      "unloadtruckobj00tru2apt4": 4766,
      "unloadtruckobj00tru2apt8": 4767,
      "unloadtruckobj00tru2apt6": 4768,
      "unloadtruckobj00tru2apt5": 4769,
      "unloadtruckobj00tru2apt7": 4770,
      "unloadtruckobj00tru1apt8": 4771,
      "unloadtruckobj00tru1apt6": 4772,
      "unloadtruckobj00tru1apt5": 4773,
      "unloadtruckobj00tru1apt7": 4774,
      "unloadtruckobj00tru1apt4": 4775,
      "unloadtruckobj00tru3pos44": 4776,
      "unloadtruckobj00tru3pos66": 4777,
      "unloadtruckobj00tru3pos55": 4778,
      "unloadtruckobj00tru3pos77": 4779,
      "unloadtruckobj00tru4apt8": 4780,
      "unloadtruckobj00tru4apt6": 4781,
      "unloadtruckobj00tru4apt5": 4782,
      "unloadtruckobj00tru4apt7": 4783,
      "unloadtruckobj00tru5apt8": 4784,
      "unloadtruckobj00tru5apt6": 4785,
      "unloadtruckobj00tru5apt7": 4786,
      "unloadtruckobj00tru5apt4": 4787,
      "unloadtruckobj00tru1pos44": 4788,
      "unloadtruckobj00tru1pos66": 4789,
      "unloadtruckobj00tru1pos55": 4790,
      "unloadtruckobj00tru1pos77": 4791,
      "unloadtruckobj00tru2pos44": 4792,
      "unloadtruckobj00tru2pos66": 4793,
      "unloadtruckobj00tru2pos55": 4794,
      "unloadtruckobj00tru2pos77": 4795,
      "unloadtruckobj00tru3apt1": 4796,
      "unloadtruckobj00tru3apt2": 4797,
      "unloadtruckobj00tru2apt1": 4798,
      "unloadtruckobj00tru2apt3": 4799,
      "unloadtruckobj00tru1apt2": 4800,
      "unloadtruckobj00tru1apt3": 4801,
      "unloadtruckobj00tru4apt1": 4802,
      "unloadtruckobj00tru4apt2": 4803,
      "unloadtruckobj00tru4apt3": 4804,
      "unloadtruckobj00tru5apt1": 4805,
      "unloadtruckobj00tru5apt2": 4806,
      "unloadtruckobj00tru5apt3": 4807,
      "unloadtruckobj00tru3apt3": 4808,
      "unloadtruckobj00tru2apt2": 4809,
      "unloadtruckobj00tru1apt1": 4810,
      "unloadtruckobj00tru4apt4": 4811,
      "unloadtruckobj00tru5apt5": 4812,
      "unloadtruckobj00tru3pos11": 4813,
      "unloadtruckobj00tru3pos12": 4814,
      "unloadtruckobj00tru3pos13": 4815,
      "unloadtruckobj00tru3pos21": 4816,
      "unloadtruckobj00tru3pos22": 4817,
      "unloadtruckobj00tru3pos23": 4818,
      "unloadtruckobj00tru3pos33": 4819,
      "unloadtruckobj00tru1pos11": 4820,
      "unloadtruckobj00tru1pos12": 4821,
      "unloadtruckobj00tru1pos21": 4822,
      "unloadtruckobj00tru1pos22": 4823,
      "unloadtruckobj00tru1pos13": 4824,
      "unloadtruckobj00tru1pos23": 4825,
      "unloadtruckobj00tru1pos33": 4826,
      "unloadtruckobj00tru2pos11": 4827,
      "unloadtruckobj00tru2pos12": 4828,
      "unloadtruckobj00tru2pos21": 4829,
      "unloadtruckobj00tru2pos22": 4830,
      "unloadtruckobj00tru2pos13": 4831,
      "unloadtruckobj00tru2pos23": 4832,
      "unloadtruckobj00tru2pos33": 4833,
      "unloadtruckobj00tru4pos44": 4834,
      "unloadtruckobj00tru4pos66": 4835,
      "unloadtruckobj00tru4pos55": 4836,
      "unloadtruckobj00tru4pos77": 4837,
      "unloadtruckobj00tru4pos11": 4838,
      "unloadtruckobj00tru4pos12": 4839,
      "unloadtruckobj00tru4pos21": 4840,
      "unloadtruckobj00tru4pos22": 4841,
      "unloadtruckobj00tru4pos13": 4842,
      "unloadtruckobj00tru4pos23": 4843,
      "unloadtruckobj00tru4pos33": 4844,
      "unloadtruckobj00tru5pos44": 4845,
      "unloadtruckobj00tru5pos66": 4846,
      "unloadtruckobj00tru5pos55": 4847,
      "unloadtruckobj00tru5pos77": 4848,
      "unloadtruckobj00tru5pos11": 4849,
      "unloadtruckobj00tru5pos12": 4850,
      "unloadtruckobj00tru5pos21": 4851,
      "unloadtruckobj00tru5pos22": 4852,
      "unloadtruckobj00tru5pos13": 4853,
      "unloadtruckobj00tru5pos23": 4854,
      "unloadtruckobj00tru5pos33": 4855,
      "unloadtruckobj99tru3apt8": 4856,
      "unloadtruckobj99tru3apt6": 4857,
      "unloadtruckobj99tru3apt5": 4858,
      "unloadtruckobj99tru3apt7": 4859,
      "unloadtruckobj99tru3apt4": 4860,
      "unloadtruckobj99tru2apt4": 4861,
      "unloadtruckobj99tru2apt8": 4862,
      "unloadtruckobj99tru2apt6": 4863,
      "unloadtruckobj99tru2apt5": 4864,
      "unloadtruckobj99tru2apt7": 4865,
      "unloadtruckobj99tru1apt8": 4866,
      "unloadtruckobj99tru1apt6": 4867,
      "unloadtruckobj99tru1apt5": 4868,
      "unloadtruckobj99tru1apt7": 4869,
      "unloadtruckobj99tru1apt4": 4870,
      "unloadtruckobj99tru3pos44": 4871,
      "unloadtruckobj99tru3pos66": 4872,
      "unloadtruckobj99tru3pos55": 4873,
      "unloadtruckobj99tru3pos77": 4874,
      "unloadtruckobj99tru4apt8": 4875,
      "unloadtruckobj99tru4apt6": 4876,
      "unloadtruckobj99tru4apt5": 4877,
      "unloadtruckobj99tru4apt7": 4878,
      "unloadtruckobj99tru5apt8": 4879,
      "unloadtruckobj99tru5apt6": 4880,
      "unloadtruckobj99tru5apt7": 4881,
      "unloadtruckobj99tru5apt4": 4882,
      "unloadtruckobj99tru1pos44": 4883,
      "unloadtruckobj99tru1pos66": 4884,
      "unloadtruckobj99tru1pos55": 4885,
      "unloadtruckobj99tru1pos77": 4886,
      "unloadtruckobj99tru2pos44": 4887,
      "unloadtruckobj99tru2pos66": 4888,
      "unloadtruckobj99tru2pos55": 4889,
      "unloadtruckobj99tru2pos77": 4890,
      "unloadtruckobj99tru3apt1": 4891,
      "unloadtruckobj99tru3apt2": 4892,
      "unloadtruckobj99tru2apt1": 4893,
      "unloadtruckobj99tru2apt3": 4894,
      "unloadtruckobj99tru1apt2": 4895,
      "unloadtruckobj99tru1apt3": 4896,
      "unloadtruckobj99tru4apt1": 4897,
      "unloadtruckobj99tru4apt2": 4898,
      "unloadtruckobj99tru4apt3": 4899,
      "unloadtruckobj99tru5apt1": 4900,
      "unloadtruckobj99tru5apt2": 4901,
      "unloadtruckobj99tru5apt3": 4902,
      "unloadtruckobj99tru3apt3": 4903,
      "unloadtruckobj99tru2apt2": 4904,
      "unloadtruckobj99tru1apt1": 4905,
      "unloadtruckobj99tru4apt4": 4906,
      "unloadtruckobj99tru5apt5": 4907,
      "unloadtruckobj99tru3pos11": 4908,
      "unloadtruckobj99tru3pos12": 4909,
      "unloadtruckobj99tru3pos13": 4910,
      "unloadtruckobj99tru3pos21": 4911,
      "unloadtruckobj99tru3pos22": 4912,
      "unloadtruckobj99tru3pos23": 4913,
      "unloadtruckobj99tru3pos33": 4914,
      "unloadtruckobj99tru1pos11": 4915,
      "unloadtruckobj99tru1pos12": 4916,
      "unloadtruckobj99tru1pos21": 4917,
      "unloadtruckobj99tru1pos22": 4918,
      "unloadtruckobj99tru1pos13": 4919,
      "unloadtruckobj99tru1pos23": 4920,
      "unloadtruckobj99tru1pos33": 4921,
      "unloadtruckobj99tru2pos11": 4922,
      "unloadtruckobj99tru2pos12": 4923,
      "unloadtruckobj99tru2pos21": 4924,
      "unloadtruckobj99tru2pos22": 4925,
      "unloadtruckobj99tru2pos13": 4926,
      "unloadtruckobj99tru2pos23": 4927,
      "unloadtruckobj99tru2pos33": 4928,
      "unloadtruckobj99tru4pos44": 4929,
      "unloadtruckobj99tru4pos66": 4930,
      "unloadtruckobj99tru4pos55": 4931,
      "unloadtruckobj99tru4pos77": 4932,
      "unloadtruckobj99tru4pos11": 4933,
      "unloadtruckobj99tru4pos12": 4934,
      "unloadtruckobj99tru4pos21": 4935,
      "unloadtruckobj99tru4pos22": 4936,
      "unloadtruckobj99tru4pos13": 4937,
      "unloadtruckobj99tru4pos23": 4938,
      "unloadtruckobj99tru4pos33": 4939,
      "unloadtruckobj99tru5pos44": 4940,
      "unloadtruckobj99tru5pos66": 4941,
      "unloadtruckobj99tru5pos55": 4942,
      "unloadtruckobj99tru5pos77": 4943,
      "unloadtruckobj99tru5pos11": 4944,
      "unloadtruckobj99tru5pos12": 4945,
      "unloadtruckobj99tru5pos21": 4946,
      "unloadtruckobj99tru5pos22": 4947,
      "unloadtruckobj99tru5pos13": 4948,
      "unloadtruckobj99tru5pos23": 4949,
      "unloadtruckobj99tru5pos33": 4950,
      "loadtruckobj13tru3apt8": 4951,
      "loadtruckobj13tru3apt6": 4952,
      "loadtruckobj13tru3apt5": 4953,
      "loadtruckobj13tru3apt7": 4954,
      "loadtruckobj13tru3apt4": 4955,
      "loadtruckobj13tru2apt4": 4956,
      "loadtruckobj13tru2apt8": 4957,
      "loadtruckobj13tru2apt6": 4958,
      "loadtruckobj13tru2apt5": 4959,
      "loadtruckobj13tru2apt7": 4960,
      "loadtruckobj13tru1apt8": 4961,
      "loadtruckobj13tru1apt6": 4962,
      "loadtruckobj13tru1apt5": 4963,
      "loadtruckobj13tru1apt7": 4964,
      "loadtruckobj13tru1apt4": 4965,
      "loadtruckobj13tru3pos44": 4966,
      "loadtruckobj13tru3pos66": 4967,
      "loadtruckobj13tru3pos55": 4968,
      "loadtruckobj13tru3pos77": 4969,
      "loadtruckobj13tru4apt8": 4970,
      "loadtruckobj13tru4apt6": 4971,
      "loadtruckobj13tru4apt5": 4972,
      "loadtruckobj13tru4apt7": 4973,
      "loadtruckobj13tru5apt8": 4974,
      "loadtruckobj13tru5apt6": 4975,
      "loadtruckobj13tru5apt7": 4976,
      "loadtruckobj13tru5apt4": 4977,
      "loadtruckobj13tru1pos44": 4978,
      "loadtruckobj13tru1pos66": 4979,
      "loadtruckobj13tru1pos55": 4980,
      "loadtruckobj13tru1pos77": 4981,
      "loadtruckobj13tru2pos44": 4982,
      "loadtruckobj13tru2pos66": 4983,
      "loadtruckobj13tru2pos55": 4984,
      "loadtruckobj13tru2pos77": 4985,
      "loadtruckobj13tru3apt1": 4986,
      "loadtruckobj13tru3apt2": 4987,
      "loadtruckobj13tru2apt1": 4988,
      "loadtruckobj13tru2apt3": 4989,
      "loadtruckobj13tru1apt2": 4990,
      "loadtruckobj13tru1apt3": 4991,
      "loadtruckobj13tru4apt1": 4992,
      "loadtruckobj13tru4apt2": 4993,
      "loadtruckobj13tru4apt3": 4994,
      "loadtruckobj13tru5apt1": 4995,
      "loadtruckobj13tru5apt2": 4996,
      "loadtruckobj13tru5apt3": 4997,
      "loadtruckobj13tru3apt3": 4998,
      "loadtruckobj13tru2apt2": 4999,
      "loadtruckobj13tru1apt1": 5000,
      "loadtruckobj13tru4apt4": 5001,
      "loadtruckobj13tru5apt5": 5002,
      "loadtruckobj13tru3pos11": 5003,
      "loadtruckobj13tru3pos12": 5004,
      "loadtruckobj13tru3pos13": 5005,
      "loadtruckobj13tru3pos21": 5006,
      "loadtruckobj13tru3pos22": 5007,
      "loadtruckobj13tru3pos23": 5008,
      "loadtruckobj13tru3pos33": 5009,
      "loadtruckobj13tru1pos11": 5010,
      "loadtruckobj13tru1pos12": 5011,
      "loadtruckobj13tru1pos21": 5012,
      "loadtruckobj13tru1pos22": 5013,
      "loadtruckobj13tru1pos13": 5014,
      "loadtruckobj13tru1pos23": 5015,
      "loadtruckobj13tru1pos33": 5016,
      "loadtruckobj13tru2pos11": 5017,
      "loadtruckobj13tru2pos12": 5018,
      "loadtruckobj13tru2pos21": 5019,
      "loadtruckobj13tru2pos22": 5020,
      "loadtruckobj13tru2pos13": 5021,
      "loadtruckobj13tru2pos23": 5022,
      "loadtruckobj13tru2pos33": 5023,
      "loadtruckobj13tru4pos44": 5024,
      "loadtruckobj13tru4pos66": 5025,
      "loadtruckobj13tru4pos55": 5026,
      "loadtruckobj13tru4pos77": 5027,
      "loadtruckobj13tru4pos11": 5028,
      "loadtruckobj13tru4pos12": 5029,
      "loadtruckobj13tru4pos21": 5030,
      "loadtruckobj13tru4pos22": 5031,
      "loadtruckobj13tru4pos13": 5032,
      "loadtruckobj13tru4pos23": 5033,
      "loadtruckobj13tru4pos33": 5034,
      "loadtruckobj13tru5pos44": 5035,
      "loadtruckobj13tru5pos66": 5036,
      "loadtruckobj13tru5pos55": 5037,
      "loadtruckobj13tru5pos77": 5038,
      "loadtruckobj13tru5pos11": 5039,
      "loadtruckobj13tru5pos12": 5040,
      "loadtruckobj13tru5pos21": 5041,
      "loadtruckobj13tru5pos22": 5042,
      "loadtruckobj13tru5pos13": 5043,
      "loadtruckobj13tru5pos23": 5044,
      "loadtruckobj13tru5pos33": 5045,
      "loadtruckobj11tru3apt8": 5046,
      "loadtruckobj11tru3apt6": 5047,
      "loadtruckobj11tru3apt5": 5048,
      "loadtruckobj11tru3apt7": 5049,
      "loadtruckobj11tru3apt4": 5050,
      "loadtruckobj11tru2apt4": 5051,
      "loadtruckobj11tru2apt8": 5052,
      "loadtruckobj11tru2apt6": 5053,
      "loadtruckobj11tru2apt5": 5054,
      "loadtruckobj11tru2apt7": 5055,
      "loadtruckobj11tru1apt8": 5056,
      "loadtruckobj11tru1apt6": 5057,
      "loadtruckobj11tru1apt5": 5058,
      "loadtruckobj11tru1apt7": 5059,
      "loadtruckobj11tru1apt4": 5060,
      "loadtruckobj11tru3pos44": 5061,
      "loadtruckobj11tru3pos66": 5062,
      "loadtruckobj11tru3pos55": 5063,
      "loadtruckobj11tru3pos77": 5064,
      "loadtruckobj11tru4apt8": 5065,
      "loadtruckobj11tru4apt6": 5066,
      "loadtruckobj11tru4apt5": 5067,
      "loadtruckobj11tru4apt7": 5068,
      "loadtruckobj11tru5apt8": 5069,
      "loadtruckobj11tru5apt6": 5070,
      "loadtruckobj11tru5apt7": 5071,
      "loadtruckobj11tru5apt4": 5072,
      "loadtruckobj11tru1pos44": 5073,
      "loadtruckobj11tru1pos66": 5074,
      "loadtruckobj11tru1pos55": 5075,
      "loadtruckobj11tru1pos77": 5076,
      "loadtruckobj11tru2pos44": 5077,
      "loadtruckobj11tru2pos66": 5078,
      "loadtruckobj11tru2pos55": 5079,
      "loadtruckobj11tru2pos77": 5080,
      "loadtruckobj11tru3apt1": 5081,
      "loadtruckobj11tru3apt2": 5082,
      "loadtruckobj11tru2apt1": 5083,
      "loadtruckobj11tru2apt3": 5084,
      "loadtruckobj11tru1apt2": 5085,
      "loadtruckobj11tru1apt3": 5086,
      "loadtruckobj11tru4apt1": 5087,
      "loadtruckobj11tru4apt2": 5088,
      "loadtruckobj11tru4apt3": 5089,
      "loadtruckobj11tru5apt1": 5090,
      "loadtruckobj11tru5apt2": 5091,
      "loadtruckobj11tru5apt3": 5092,
      "loadtruckobj11tru3apt3": 5093,
      "loadtruckobj11tru2apt2": 5094,
[...]
