{
  "version": "1.0",
  "truncation": null,
  "padding": null,
  "added_tokens": [
    {
      "id": 0,
      "special": true,
      "content": "<|unknown|>",
      "single_word": false,
      "lstrip": false,
      "rstrip": false,
      "normalized": false
    },
    {
      "id": 1,
      "special": true,
      "content": "<|pad|>",
      "single_word": false,
      "lstrip": false,
      "rstrip": false,
      "normalized": false
    },
    {
      "id": 2,
      "special": true,
      "content": "<|startofplan|>",
      "single_word": false,
      "lstrip": false,
      "rstrip": false,
      "normalized": false
    },
    {
      "id": 3,
      "special": true,
      "content": "<|endofplan|>",
      "single_word": false,
      "lstrip": false,
      "rstrip": false,
      "normalized": false
    },
    {
      "id": 4,
      "special": true,
      "content": "<|goals|>",
      "single_word": false,
      "lstrip": false,
      "rstrip": false,
      "normalized": false
    },
    {
      "id": 5,
      "special": true,
      "content": "<|actions|>",
      "single_word": false,
      "lstrip": false,
      "rstrip": false,
      "normalized": false
    },
    {
      "id": 6,
      "special": true,
      "content": "<|mask|>",
      "single_word": false,
      "lstrip": false,
      "rstrip": false,
      "normalized": false
    }
  ],
  "normalizer": {
    "type": "BertNormalizer",
    "clean_text": true,
    "handle_chinese_chars": true,
    "strip_accents": null,
    "lowercase": true
  },
  "pre_tokenizer": {
    "type": "Split",
    "pattern": {
      "String": " "
    },
    "behavior": "Removed",
    "invert": false
  },
  "post_processor": {
    "type": "TemplateProcessing",
    "single": [
      {
        "SpecialToken": {
          "id": "<|startofplan|>",
          "type_id": 0
        }
      },
      {
        "Sequence": {
          "id": "A",
          "type_id": 1
        }
      }
    ],
    "pair": [
      {
        "SpecialToken": {
          "id": "<|startofplan|>",
          "type_id": 0
        }
      },
      {
        "Sequence": {
          "id": "A",
          "type_id": 0
        }
      },
      {
        "SpecialToken": {
          "id": "<|actions|>",
          "type_id": 0
        }
      },
      {
        "Sequence": {
          "id": "B",
          "type_id": 0
        }
      },
      {
        "SpecialToken": {
          "id": "<|endofplan|>",
          "type_id": 0
        }
      }
    ],
    "special_tokens": {
      "<|actions|>": {
        "id": "<|actions|>",
        "ids": [
          5
        ],
        "tokens": [
          "<|actions|>"
        ]
      },
      "<|endofplan|>": {
        "id": "<|endofplan|>",
        "ids": [
          3
        ],
        "tokens": [
          "<|endofplan|>"
        ]
      },
      "<|startofplan|>": {
        "id": "<|startofplan|>",
        "ids": [
          2
        ],
        "tokens": [
          "<|startofplan|>"
        ]
      }
    }
  },
  "decoder": null,
  "model": {
    "type": "WordPiece",
    "unk_token": "<|unknown|>",
    "continuing_subword_prefix": "##",
    "max_input_chars_per_word": 100,
    "vocab": {
      "<|unknown|>": 0,
      "<|pad|>": 1,
      "<|startofplan|>": 2,
      "<|endofplan|>": 3,
      "<|goals|>": 4,
      "<|actions|>": 5,
      "<|mask|>": 6,
      "0": 7,
      "1": 8,
      "2": 9,
      "3": 10,
      "4": 11,
      "5": 12,
      "6": 13,
      "7": 14,
      "8": 15,
      "9": 16,
      "a": 17,
      "b": 18,
      "c": 19,
      "d": 20,
      "e": 21,
      "f": 22,
      "i": 23,
      "j": 24,
      "k": 25,
      "l": 26,
      "n": 27,
      "o": 28,
      "p": 29,
      "r": 30,
      "s": 31,
      "t": 32,
      "u": 33,
      "v": 34,
      "y": 35,
      "##o": 36,
      "##a": 37,
      "##d": 38,
      "##t": 39,
      "##r": 40,
      "##u": 41,
      "##c": 42,
      "##k": 43,
      "##b": 44,
      "##j": 45,
      "##3": 46,
      "##p": 47,
      "##2": 48,
      "##n": 49,
      "##l": 50,
      "##9": 51,
      "##4": 52,
      "##i": 53,
      "##e": 54,
      "##7": 55,
      "##v": 56,
      "##5": 57,
      "##s": 58,
      "##8": 59,
      "##1": 60,
      "##6": 61,
      "##0": 62,
      "##y": 63,
      "##tr": 64,
      "##tru": 65,
      "##ap": 66,
      "##os": 67,
      "##pos": 68,
      "##ck": 69,
      "##truck": 70,
      "##apt": 71,
      "dr": 72,
      "##ci": 73,
      "##iv": 74,
      "##etruck": 75,
      "driv": 76,
      "##cit": 77,
      "##etrucktru": 78,
      "drivetrucktru": 79,
      "##ob": 80,
      "##obj": 81,
      "##oa": 82,
      "##oad": 83,
      "##pos2": 84,
      "##pos1": 85,
      "##truckobj": 86,
      "##oadtruckobj": 87,
      "##3apt": 88,
      "##apn": 89,
      "##an": 90,
      "##ai": 91,
      "##rp": 92,
      "##lan": 93,
      "##airp": 94,
      "##lane": 95,
      "##airplane": 96,
      "un": 97,
      "unl": 98,
      "##3cit": 99,
      "##2apt": 100,
      "##1apt": 101,
      "drivetrucktru5": 102,
      "drivetrucktru4": 103,
      "##oadairplane": 104,
      "##oadairplaneobj": 105,
      "##2cit": 106,
      "##1cit": 107,
      "##44": 108,
      "##77": 109,
      "##55": 110,
      "##66": 111,
      "loadtruckobj": 112,
      "unloadtruckobj": 113,
      "##3pos": 114,
      "drivetrucktru2": 115,
      "drivetrucktru1": 116,
      "##pos3": 117,
      "##pos44": 118,
      "##pos77": 119,
      "##pos55": 120,
      "##pos66": 121,
      "loadairplaneobj": 122,
      "unloadairplaneobj": 123,
      "drivetrucktru2apt": 124,
      "drivetrucktru5apt": 125,
      "drivetrucktru1apt": 126,
      "drivetrucktru4apt": 127,
      "drivetrucktru3apt": 128,
      "##cit1": 129,
      "##cit3": 130,
      "##cit2": 131,
      "##cit4": 132,
      "##cit5": 133,
      "##cit6": 134,
      "##4apt": 135,
      "##5apt": 136,
      "##3pos2": 137,
      "##3pos1": 138,
      "##3tru": 139,
      "##7apt": 140,
      "##8apt": 141,
      "##6apt": 142,
      "drivetrucktru3pos": 143,
      "##pos23cit": 144,
      "##pos13cit": 145,
      "##pos33cit": 146,
      "fl": 147,
      "##yairplane": 148,
      "flyairplane": 149,
      "flyairplaneapn": 150,
      "##pos22cit": 151,
      "##pos21cit": 152,
      "##pos12cit": 153,
      "##pos11cit": 154,
      "##3apn": 155,
      "##2tru": 156,
      "##1tru": 157,
      "##pos22": 158,
      "##pos21": 159,
      "##pos12": 160,
      "##pos11": 161,
      "##99": 162,
      "##88": 163,
      "##00": 164,
      "drivetrucktru3pos2": 165,
      "drivetrucktru3pos1": 166,
      "loadtruckobj2": 167,
      "loadtruckobj1": 168,
      "unloadtruckobj2": 169,
      "unloadtruckobj1": 170,
      "at": 171,
      "##2apn": 172,
      "##1apn": 173,
      "drivetrucktru5pos2": 174,
      "drivetrucktru5pos1": 175,
      "drivetrucktru4pos2": 176,
      "drivetrucktru4pos1": 177,
      "drivetrucktru2pos2": 178,
      "drivetrucktru2pos1": 179,
      "drivetrucktru1pos2": 180,
      "drivetrucktru1pos1": 181,
      "##pos33apt": 182,
      "##pos44apt": 183,
      "##pos77apt": 184,
      "##pos55apt": 185,
      "##pos66apt": 186,
      "loadairplaneobj2": 187,
      "loadairplaneobj1": 188,
      "unloadairplaneobj2": 189,
      "unloadairplaneobj1": 190,
      "##33tru": 191,
      "##44tru": 192,
      "##77tru": 193,
      "##55tru": 194,
      "##66tru": 195,
      "##99tru": 196,
      "##88tru": 197,
      "##00tru": 198,
      "##3apt7": 199,
      "##3apt5": 200,
      "##3apt8": 201,
      "##3apt6": 202,
      "##3apt4": 203,
      "##2apt4": 204,
      "##2apt7": 205,
      "##2apt5": 206,
      "##2apt8": 207,
      "##2apt6": 208,
      "##1apt7": 209,
      "##1apt5": 210,
      "##1apt8": 211,
      "##1apt6": 212,
      "##1apt4": 213,
      "atobj": 214,
      "##3pos44": 215,
      "##3pos77": 216,
      "##3pos55": 217,
      "##3pos66": 218,
      "##3cit3": 219,
      "##3cit2": 220,
      "##3cit4": 221,
      "##3cit5": 222,
      "##3cit1": 223,
      "##3cit6": 224,
      "##2cit3": 225,
      "##2cit2": 226,
      "##2cit4": 227,
      "##2cit5": 228,
      "##2cit1": 229,
      "##2cit6": 230,
      "##1cit3": 231,
      "##1cit2": 232,
      "##1cit4": 233,
      "##1cit5": 234,
      "##1cit6": 235,
      "##1cit1": 236,
      "##33apn": 237,
      "##44apn": 238,
      "##77apn": 239,
      "##55apn": 240,
      "##66apn": 241,
      "##99apn": 242,
      "##88apn": 243,
      "##00apn": 244,
      "##pos23": 245,
      "##pos13": 246,
      "##pos33": 247,
      "##3pos3": 248,
      "drivetrucktru3pos3": 249,
      "drivetrucktru3pos44": 250,
      "drivetrucktru3pos77": 251,
      "drivetrucktru3pos55": 252,
      "drivetrucktru3pos66": 253,
      "loadtruckobj33tru": 254,
      "loadtruckobj44tru": 255,
      "loadtruckobj77tru": 256,
      "loadtruckobj55tru": 257,
      "loadtruckobj66tru": 258,
      "loadtruckobj99tru": 259,
      "loadtruckobj88tru": 260,
      "loadtruckobj00tru": 261,
      "unloadtruckobj33tru": 262,
      "unloadtruckobj44tru": 263,
      "unloadtruckobj77tru": 264,
      "unloadtruckobj55tru": 265,
      "unloadtruckobj66tru": 266,
      "unloadtruckobj99tru": 267,
      "unloadtruckobj88tru": 268,
      "unloadtruckobj00tru": 269,
      "##4apt7": 270,
      "##4apt5": 271,
      "##4apt8": 272,
      "##4apt6": 273,
      "##5apt7": 274,
      "##5apt8": 275,
      "##5apt6": 276,
      "loadtruckobj23tru": 277,
      "loadtruckobj22tru": 278,
      "loadtruckobj21tru": 279,
      "loadtruckobj13tru": 280,
      "loadtruckobj12tru": 281,
      "loadtruckobj11tru": 282,
      "unloadtruckobj23tru": 283,
      "unloadtruckobj22tru": 284,
      "unloadtruckobj21tru": 285,
      "unloadtruckobj13tru": 286,
      "unloadtruckobj12tru": 287,
      "unloadtruckobj11tru": 288,
      "##5apt4": 289,
      "##pos23cit3": 290,
      "##pos23cit2": 291,
      "##pos23cit4": 292,
      "##pos23cit5": 293,
      "##pos23cit1": 294,
      "##pos23cit6": 295,
      "##pos13cit3": 296,
      "##pos13cit2": 297,
      "##pos13cit4": 298,
      "##pos13cit5": 299,
      "##pos13cit1": 300,
      "##pos13cit6": 301,
      "##pos33cit3": 302,
      "##pos33cit2": 303,
      "##pos33cit4": 304,
      "##pos33cit5": 305,
      "##pos33cit1": 306,
      "##pos33cit6": 307,
      "##2pos44": 308,
      "##2pos77": 309,
      "##2pos55": 310,
      "##2pos66": 311,
      "##1pos44": 312,
      "##1pos77": 313,
      "##1pos55": 314,
      "##1pos66": 315,
      "##pos33pos2": 316,
      "##pos33pos1": 317,
      "##pos22cit3": 318,
      "##pos22cit2": 319,
      "##pos22cit4": 320,
      "##pos22cit5": 321,
      "##pos22cit1": 322,
      "##pos22cit6": 323,
      "##pos21cit3": 324,
      "##pos21cit2": 325,
      "##pos21cit4": 326,
      "##pos21cit5": 327,
      "##pos21cit1": 328,
      "##pos21cit6": 329,
      "##pos12cit3": 330,
      "##pos12cit2": 331,
      "##pos12cit4": 332,
      "##pos12cit5": 333,
      "##pos12cit1": 334,
      "##pos12cit6": 335,
      "##pos11cit3": 336,
      "##pos11cit2": 337,
      "##pos11cit4": 338,
      "##pos11cit5": 339,
      "##pos11cit1": 340,
      "##pos11cit6": 341,
      "##7apt4": 342,
      "##7apt5": 343,
      "##7apt8": 344,
      "##7apt6": 345,
      "##8apt4": 346,
      "##8apt7": 347,
      "##8apt6": 348,
      "##6apt4": 349,
      "##6apt7": 350,
      "##6apt5": 351,
      "##6apt8": 352,
      "drivetrucktru2apt4": 353,
      "drivetrucktru2apt7": 354,
      "drivetrucktru2apt5": 355,
      "drivetrucktru2apt8": 356,
      "drivetrucktru2apt6": 357,
      "drivetrucktru5apt4": 358,
      "drivetrucktru5apt7": 359,
      "drivetrucktru5apt5": 360,
      "drivetrucktru5apt8": 361,
      "drivetrucktru5apt6": 362,
      "drivetrucktru1apt4": 363,
      "drivetrucktru1apt7": 364,
      "drivetrucktru1apt5": 365,
      "drivetrucktru1apt8": 366,
      "drivetrucktru1apt6": 367,
      "drivetrucktru4apt4": 368,
      "drivetrucktru4apt7": 369,
      "drivetrucktru4apt5": 370,
      "drivetrucktru4apt8": 371,
      "drivetrucktru4apt6": 372,
      "drivetrucktru3apt4": 373,
      "drivetrucktru3apt7": 374,
      "drivetrucktru3apt5": 375,
      "drivetrucktru3apt8": 376,
      "drivetrucktru3apt6": 377,
      "##8apt5": 378,
      "##3apt2": 379,
      "##3apt1": 380,
      "##2apt3": 381,
      "##2apt1": 382,
      "##1apt3": 383,
      "##1apt2": 384,
      "##4apt3": 385,
      "##4apt2": 386,
      "##4apt1": 387,
      "##5apt3": 388,
      "##5apt2": 389,
      "##5apt1": 390,
      "loadairplaneobj33apn": 391,
      "loadairplaneobj44apn": 392,
      "loadairplaneobj77apn": 393,
      "loadairplaneobj55apn": 394,
      "loadairplaneobj66apn": 395,
      "loadairplaneobj99apn": 396,
      "loadairplaneobj88apn": 397,
      "loadairplaneobj00apn": 398,
      "unloadairplaneobj33apn": 399,
      "unloadairplaneobj44apn": 400,
      "unloadairplaneobj77apn": 401,
      "unloadairplaneobj55apn": 402,
      "unloadairplaneobj66apn": 403,
      "unloadairplaneobj99apn": 404,
      "unloadairplaneobj88apn": 405,
      "unloadairplaneobj00apn": 406,
      "atapn": 407,
      "loadairplaneobj23apn": 408,
      "loadairplaneobj22apn": 409,
      "loadairplaneobj21apn": 410,
      "loadairplaneobj13apn": 411,
      "loadairplaneobj12apn": 412,
      "loadairplaneobj11apn": 413,
      "unloadairplaneobj23apn": 414,
      "unloadairplaneobj22apn": 415,
      "unloadairplaneobj21apn": 416,
      "unloadairplaneobj13apn": 417,
      "unloadairplaneobj12apn": 418,
      "unloadairplaneobj11apn": 419,
      "drivetrucktru5pos44": 420,
      "drivetrucktru5pos77": 421,
      "drivetrucktru5pos55": 422,
      "drivetrucktru5pos66": 423,
      "drivetrucktru5pos22": 424,
      "drivetrucktru5pos21": 425,
      "drivetrucktru5pos12": 426,
      "drivetrucktru5pos11": 427,
      "drivetrucktru4pos44": 428,
      "drivetrucktru4pos77": 429,
      "drivetrucktru4pos55": 430,
      "drivetrucktru4pos66": 431,
      "drivetrucktru4pos22": 432,
      "drivetrucktru4pos21": 433,
      "drivetrucktru4pos12": 434,
      "drivetrucktru4pos11": 435,
      "drivetrucktru2pos44": 436,
      "drivetrucktru2pos77": 437,
      "drivetrucktru2pos55": 438,
      "drivetrucktru2pos66": 439,
      "drivetrucktru2pos22": 440,
      "drivetrucktru2pos21": 441,
      "drivetrucktru2pos12": 442,
      "drivetrucktru2pos11": 443,
      "drivetrucktru1pos44": 444,
      "drivetrucktru1pos77": 445,
      "drivetrucktru1pos55": 446,
      "drivetrucktru1pos66": 447,
      "drivetrucktru1pos22": 448,
      "drivetrucktru1pos21": 449,
      "drivetrucktru1pos12": 450,
      "drivetrucktru1pos11": 451,
      "##3apt3": 452,
      "##2apt2": 453,
      "##1apt1": 454,
      "##4apt4": 455,
      "##5apt5": 456,
      "##pos44cit1": 457,
      "##pos44cit3": 458,
      "##pos44cit2": 459,
      "##pos44cit4": 460,
      "##pos44cit5": 461,
      "##pos44cit6": 462,
      "##pos77cit1": 463,
      "##pos77cit3": 464,
      "##pos77cit2": 465,
      "##pos77cit4": 466,
      "##pos77cit5": 467,
      "##pos77cit6": 468,
      "##pos55cit1": 469,
      "##pos55cit3": 470,
      "##pos55cit2": 471,
      "##pos55cit4": 472,
      "##pos55cit5": 473,
      "##pos55cit6": 474,
      "##pos66cit1": 475,
      "##pos66cit3": 476,
      "##pos66cit2": 477,
      "##pos66cit4": 478,
      "##pos66cit5": 479,
      "##pos66cit6": 480,
      "flyairplaneapn3apt": 481,
      "flyairplaneapn2apt": 482,
      "flyairplaneapn1apt": 483,
      "flyairplaneapn4apt": 484,
      "flyairplaneapn5apt": 485,
      "flyairplaneapn7apt": 486,
      "flyairplaneapn8apt": 487,
      "flyairplaneapn6apt": 488,
      "attru": 489,
      "drivetrucktru5pos33apt": 490,
      "drivetrucktru5pos44apt": 491,
      "drivetrucktru5pos77apt": 492,
      "drivetrucktru5pos55apt": 493,
      "drivetrucktru5pos66apt": 494,
      "drivetrucktru4pos33apt": 495,
      "drivetrucktru4pos44apt": 496,
      "drivetrucktru4pos77apt": 497,
      "drivetrucktru4pos55apt": 498,
      "drivetrucktru4pos66apt": 499,
      "drivetrucktru2pos33apt": 500,
      "drivetrucktru2pos44apt": 501,
      "drivetrucktru2pos77apt": 502,
      "drivetrucktru2pos55apt": 503,
      "drivetrucktru2pos66apt": 504,
      "drivetrucktru1pos33apt": 505,
      "drivetrucktru1pos44apt": 506,
      "drivetrucktru1pos77apt": 507,
      "drivetrucktru1pos55apt": 508,
      "drivetrucktru1pos66apt": 509,
      "drivetrucktru3pos44apt": 510,
      "drivetrucktru3pos77apt": 511,
      "drivetrucktru3pos55apt": 512,
      "drivetrucktru3pos66apt": 513,
      "drivetrucktru2apt2": 514,
      "drivetrucktru2apt1": 515,
      "drivetrucktru5apt2": 516,
      "drivetrucktru5apt1": 517,
      "drivetrucktru1apt2": 518,
      "drivetrucktru1apt1": 519,
      "drivetrucktru4apt2": 520,
      "drivetrucktru4apt1": 521,
      "drivetrucktru3apt2": 522,
      "drivetrucktru3apt1": 523,
      "##7apt3": 524,
      "##7apt2": 525,
      "##7apt1": 526,
      "##8apt3": 527,
      "##8apt2": 528,
      "##8apt1": 529,
      "##6apt3": 530,
      "##6apt2": 531,
      "##6apt1": 532,
      "drivetrucktru3pos22": 533,
      "drivetrucktru3pos21": 534,
      "drivetrucktru3pos12": 535,
      "drivetrucktru3pos11": 536,
      "atobj2": 537,
      "atobj1": 538,
      "##3pos23": 539,
      "##3pos22": 540,
      "##3pos21": 541,
      "##3pos13": 542,
      "##3pos12": 543,
      "##3pos11": 544,
      "##3pos33": 545,
      "##2pos22": 546,
      "##2pos21": 547,
      "##2pos12": 548,
      "##2pos11": 549,
      "##2pos23": 550,
      "##2pos13": 551,
      "##2pos33": 552,
      "##1pos22": 553,
      "##1pos21": 554,
      "##1pos12": 555,
      "##1pos11": 556,
      "##1pos23": 557,
      "##1pos13": 558,
      "##1pos33": 559,
      "##4pos44": 560,
      "##4pos77": 561,
      "##4pos55": 562,
      "##4pos66": 563,
      "##4pos22": 564,
      "##4pos21": 565,
      "##4pos12": 566,
      "##4pos11": 567,
      "##4pos23": 568,
      "##4pos13": 569,
      "##4pos33": 570,
      "##5pos44": 571,
      "##5pos77": 572,
      "##5pos55": 573,
      "##5pos66": 574,
      "##5pos22": 575,
      "##5pos21": 576,
      "##5pos12": 577,
      "##5pos11": 578,
      "##5pos23": 579,
      "##5pos13": 580,
      "##5pos33": 581,
      "##7apt7": 582,
      "##8apt8": 583,
      "##6apt6": 584,
      "##4cit1": 585,
      "##4cit3": 586,
      "##4cit2": 587,
      "##4cit4": 588,
      "##4cit5": 589,
      "##4cit6": 590,
      "##7cit1": 591,
      "##7cit3": 592,
      "##7cit2": 593,
      "##7cit4": 594,
      "##7cit5": 595,
      "##7cit6": 596,
      "##5cit1": 597,
      "##5cit3": 598,
      "##5cit2": 599,
      "##5cit4": 600,
      "##5cit5": 601,
      "##5cit6": 602,
      "##8cit1": 603,
      "##8cit3": 604,
      "##8cit2": 605,
      "##8cit4": 606,
      "##8cit5": 607,
      "##8cit6": 608,
      "##6cit1": 609,
      "##6cit3": 610,
      "##6cit2": 611,
      "##6cit4": 612,
      "##6cit5": 613,
      "##6cit6": 614,
      "drivetrucktru5pos3": 615,
      "drivetrucktru4pos3": 616,
      "drivetrucktru2pos3": 617,
      "drivetrucktru1pos3": 618,
      "##3pos44cit1": 619,
      "##3pos44cit3": 620,
      "##3pos44cit2": 621,
      "##3pos44cit4": 622,
      "##3pos44cit5": 623,
      "##3pos44cit6": 624,
      "##3pos77cit1": 625,
      "##3pos77cit3": 626,
      "##3pos77cit2": 627,
      "##3pos77cit4": 628,
      "##3pos77cit5": 629,
      "##3pos77cit6": 630,
      "##3pos55cit1": 631,
      "##3pos55cit3": 632,
      "##3pos55cit2": 633,
      "##3pos55cit4": 634,
      "##3pos55cit5": 635,
      "##3pos55cit6": 636,
      "##3pos66cit1": 637,
      "##3pos66cit3": 638,
      "##3pos66cit2": 639,
      "##3pos66cit4": 640,
      "##3pos66cit5": 641,
      "##3pos66cit6": 642,
      "drivetrucktru5pos33pos2": 643,
      "drivetrucktru5pos33pos1": 644,
      "drivetrucktru4pos33pos2": 645,
      "drivetrucktru4pos33pos1": 646,
      "drivetrucktru2pos33pos2": 647,
      "drivetrucktru2pos33pos1": 648,
      "drivetrucktru1pos33pos2": 649,
      "drivetrucktru1pos33pos1": 650,
      "drivetrucktru2apt4apt": 651,
      "drivetrucktru2apt5apt": 652,
      "drivetrucktru2apt3pos2": 653,
      "drivetrucktru2apt3pos1": 654,
      "drivetrucktru2apt7apt": 655,
      "drivetrucktru2apt8apt": 656,
      "drivetrucktru2apt6apt": 657,
      "drivetrucktru5apt4apt": 658,
      "drivetrucktru5apt5apt": 659,
      "drivetrucktru5apt3pos2": 660,
      "drivetrucktru5apt3pos1": 661,
      "drivetrucktru5apt7apt": 662,
      "drivetrucktru5apt8apt": 663,
      "drivetrucktru5apt6apt": 664,
      "drivetrucktru1apt4apt": 665,
      "drivetrucktru1apt5apt": 666,
      "drivetrucktru1apt3pos2": 667,
      "drivetrucktru1apt3pos1": 668,
      "drivetrucktru1apt7apt": 669,
      "drivetrucktru1apt8apt": 670,
      "drivetrucktru1apt6apt": 671,
      "drivetrucktru4apt4apt": 672,
      "drivetrucktru4apt5apt": 673,
      "drivetrucktru4apt3pos2": 674,
      "drivetrucktru4apt3pos1": 675,
      "drivetrucktru4apt7apt": 676,
      "drivetrucktru4apt8apt": 677,
      "drivetrucktru4apt6apt": 678,
      "drivetrucktru3apt4apt": 679,
      "drivetrucktru3apt5apt": 680,
      "drivetrucktru3apt3pos2": 681,
      "drivetrucktru3apt3pos1": 682,
      "drivetrucktru3apt7apt": 683,
      "drivetrucktru3apt8apt": 684,
      "drivetrucktru3pos23apt": 685,
      "drivetrucktru3pos22apt": 686,
      "drivetrucktru3pos21apt": 687,
      "drivetrucktru3pos23pos1": 688,
      "drivetrucktru3pos13apt": 689,
      "drivetrucktru3pos12apt": 690,
      "drivetrucktru3pos11apt": 691,
      "drivetrucktru3pos13pos2": 692,
      "drivetrucktru5pos23apt": 693,
      "drivetrucktru5pos22apt": 694,
      "drivetrucktru5pos21apt": 695,
      "drivetrucktru5pos23pos1": 696,
      "drivetrucktru5pos13apt": 697,
      "drivetrucktru5pos12apt": 698,
      "drivetrucktru5pos11apt": 699,
      "drivetrucktru5pos13pos2": 700,
      "drivetrucktru4pos23apt": 701,
      "drivetrucktru4pos22apt": 702,
      "drivetrucktru4pos21apt": 703,
      "drivetrucktru4pos23pos1": 704,
      "drivetrucktru4pos13apt": 705,
      "drivetrucktru4pos12apt": 706,
      "drivetrucktru4pos11apt": 707,
      "drivetrucktru4pos13pos2": 708,
      "drivetrucktru2pos23apt": 709,
      "drivetrucktru2pos22apt": 710,
      "drivetrucktru2pos21apt": 711,
      "drivetrucktru2pos23pos1": 712,
      "drivetrucktru2pos13apt": 713,
      "drivetrucktru2pos12apt": 714,
      "drivetrucktru2pos11apt": 715,
      "drivetrucktru2pos13pos2": 716,
      "drivetrucktru1pos23apt": 717,
      "drivetrucktru1pos22apt": 718,
      "drivetrucktru1pos21apt": 719,
      "drivetrucktru1pos23pos1": 720,
      "drivetrucktru1pos13apt": 721,
      "drivetrucktru1pos12apt": 722,
      "drivetrucktru1pos11apt": 723,
      "drivetrucktru1pos13pos2": 724,
      "drivetrucktru3pos33apt": 725,
      "drivetrucktru3pos33pos2": 726,
      "drivetrucktru3pos33pos1": 727,
      "drivetrucktru3apt6apt": 728,
      "##3apt7cit1": 729,
      "##3apt7cit3": 730,
      "##3apt7cit2": 731,
      "##3apt7cit4": 732,
      "##3apt7cit5": 733,
      "##3apt7cit6": 734,
      "##3apt5cit1": 735,
      "##3apt5cit3": 736,
      "##3apt5cit2": 737,
      "##3apt5cit4": 738,
      "##3apt5cit5": 739,
      "##3apt5cit6": 740,
      "##3apt8cit1": 741,
      "##3apt8cit3": 742,
      "##3apt8cit2": 743,
      "##3apt8cit4": 744,
      "##3apt8cit5": 745,
      "##3apt8cit6": 746,
      "##3apt6cit1": 747,
      "##3apt6cit3": 748,
      "##3apt6cit2": 749,
      "##3apt6cit4": 750,
      "##3apt6cit5": 751,
      "##3apt6cit6": 752,
      "##3apt4cit1": 753,
      "##3apt4cit3": 754,
      "##3apt4cit4": 755,
      "##3apt4cit6": 756,
      "##3apt4cit2": 757,
      "##3apt4cit5": 758,
      "##2apt4cit1": 759,
      "##2apt4cit3": 760,
      "##2apt4cit2": 761,
      "##2apt4cit4": 762,
      "##2apt4cit5": 763,
      "##2apt4cit6": 764,
      "##2apt7cit1": 765,
      "##2apt7cit3": 766,
      "##2apt7cit2": 767,
      "##2apt7cit4": 768,
      "##2apt7cit5": 769,
      "##2apt7cit6": 770,
      "##2apt5cit1": 771,
      "##2apt5cit3": 772,
      "##2apt5cit2": 773,
      "##2apt5cit4": 774,
      "##2apt5cit5": 775,
      "##2apt5cit6": 776,
      "##2apt8cit1": 777,
      "##2apt8cit3": 778,
      "##2apt8cit2": 779,
      "##2apt8cit4": 780,
      "##2apt8cit5": 781,
      "##2apt8cit6": 782,
      "##2apt6cit1": 783,
      "##2apt6cit3": 784,
      "##2apt6cit2": 785,
      "##2apt6cit4": 786,
      "##2apt6cit5": 787,
      "##2apt6cit6": 788,
      "##1apt7cit1": 789,
      "##1apt7cit3": 790,
      "##1apt7cit2": 791,
      "##1apt7cit4": 792,
      "##1apt7cit5": 793,
      "##1apt7cit6": 794,
      "##1apt5cit1": 795,
      "##1apt5cit3": 796,
      "##1apt5cit2": 797,
      "##1apt5cit4": 798,
      "##1apt5cit5": 799,
      "##1apt5cit6": 800,
      "##1apt8cit1": 801,
      "##1apt8cit3": 802,
      "##1apt8cit2": 803,
      "##1apt8cit4": 804,
      "##1apt8cit5": 805,
      "##1apt8cit6": 806,
      "##1apt6cit1": 807,
      "##1apt6cit3": 808,
      "##1apt6cit2": 809,
      "##1apt6cit4": 810,
      "##1apt6cit5": 811,
      "##1apt6cit6": 812,
      "##1apt4cit1": 813,
      "##1apt4cit2": 814,
      "##1apt4cit4": 815,
      "##1apt4cit5": 816,
      "##1apt4cit6": 817,
      "##3pos33cit3": 818,
      "##3pos33cit2": 819,
      "##3pos33cit4": 820,
      "##3pos33cit5": 821,
      "##3pos33cit1": 822,
      "##3pos33cit6": 823,
      "##1apt4cit3": 824,
      "drivetrucktru2apt3apt": 825,
      "drivetrucktru2apt2apt": 826,
      "drivetrucktru2apt1apt": 827,
      "drivetrucktru5apt3apt": 828,
      "drivetrucktru5apt2apt": 829,
      "drivetrucktru5apt1apt": 830,
      "drivetrucktru1apt3apt": 831,
      "drivetrucktru1apt2apt": 832,
      "drivetrucktru1apt1apt": 833,
      "drivetrucktru4apt3apt": 834,
      "drivetrucktru4apt2apt": 835,
      "drivetrucktru4apt1apt": 836,
      "drivetrucktru3apt3apt": 837,
      "drivetrucktru3apt2apt": 838,
      "drivetrucktru3apt1apt": 839,
      "drivetrucktru3pos23pos2": 840,
      "drivetrucktru3pos13pos1": 841,
      "drivetrucktru5pos23pos2": 842,
      "drivetrucktru5pos13pos1": 843,
      "drivetrucktru4pos23pos2": 844,
      "drivetrucktru4pos13pos1": 845,
      "drivetrucktru2pos23pos2": 846,
      "drivetrucktru2pos13pos1": 847,
      "drivetrucktru1pos23pos2": 848,
      "drivetrucktru1pos13pos1": 849,
      "atobj3": 850,
      "atobj44": 851,
      "atobj77": 852,
      "atobj55": 853,
      "atobj66": 854,
      "atobj99": 855,
      "atobj88": 856,
      "atobj00": 857,
      "##2pos44cit1": 858,
      "##2pos44cit3": 859,
      "##2pos44cit2": 860,
      "##2pos44cit4": 861,
      "##2pos44cit5": 862,
      "##2pos44cit6": 863,
      "##2pos77cit1": 864,
      "##2pos77cit3": 865,
      "##2pos77cit2": 866,
      "##2pos77cit4": 867,
      "##2pos77cit5": 868,
      "##2pos77cit6": 869,
      "##2pos55cit1": 870,
      "##2pos55cit3": 871,
      "##2pos55cit2": 872,
      "##2pos55cit4": 873,
      "##2pos55cit5": 874,
      "##2pos55cit6": 875,
      "##2pos66cit1": 876,
      "##2pos66cit3": 877,
      "##2pos66cit2": 878,
      "##2pos66cit4": 879,
      "##2pos66cit5": 880,
      "##2pos66cit6": 881,
      "##1pos44cit1": 882,
      "##1pos44cit3": 883,
      "##1pos44cit2": 884,
      "##1pos44cit4": 885,
      "##1pos44cit5": 886,
      "##1pos44cit6": 887,
      "##1pos77cit1": 888,
      "##1pos77cit3": 889,
      "##1pos77cit2": 890,
      "##1pos77cit4": 891,
      "##1pos77cit5": 892,
      "##1pos77cit6": 893,
      "##1pos55cit1": 894,
      "##1pos55cit3": 895,
      "##1pos55cit2": 896,
      "##1pos55cit4": 897,
      "##1pos55cit5": 898,
      "##1pos55cit6": 899,
      "##1pos66cit1": 900,
      "##1pos66cit3": 901,
      "##1pos66cit2": 902,
      "##1pos66cit4": 903,
      "##1pos66cit5": 904,
      "##1pos66cit6": 905,
      "drivetrucktru2apt4apt7": 906,
      "drivetrucktru2apt4apt5": 907,
      "drivetrucktru2apt4apt8": 908,
      "drivetrucktru2apt4apt6": 909,
      "drivetrucktru2apt5apt7": 910,
      "drivetrucktru2apt5apt8": 911,
      "drivetrucktru2apt5apt6": 912,
      "drivetrucktru2apt5apt4": 913,
      "drivetrucktru2apt7apt4": 914,
      "drivetrucktru2apt7apt5": 915,
      "drivetrucktru2apt7apt8": 916,
      "drivetrucktru2apt7apt6": 917,
      "drivetrucktru2apt8apt4": 918,
      "drivetrucktru2apt8apt7": 919,
      "drivetrucktru2apt8apt6": 920,
      "drivetrucktru2apt6apt4": 921,
      "drivetrucktru2apt6apt7": 922,
      "drivetrucktru2apt6apt5": 923,
      "drivetrucktru2apt6apt8": 924,
      "drivetrucktru2apt8apt5": 925,
      "drivetrucktru5apt4apt7": 926,
      "drivetrucktru5apt4apt5": 927,
      "drivetrucktru5apt4apt8": 928,
      "drivetrucktru5apt4apt6": 929,
      "drivetrucktru5apt5apt7": 930,
      "drivetrucktru5apt5apt8": 931,
      "drivetrucktru5apt5apt6": 932,
      "drivetrucktru5apt5apt4": 933,
      "drivetrucktru5apt7apt4": 934,
      "drivetrucktru5apt7apt5": 935,
      "drivetrucktru5apt7apt8": 936,
      "drivetrucktru5apt7apt6": 937,
      "drivetrucktru5apt8apt4": 938,
      "drivetrucktru5apt8apt7": 939,
      "drivetrucktru5apt8apt6": 940,
      "drivetrucktru5apt6apt4": 941,
      "drivetrucktru5apt6apt7": 942,
      "drivetrucktru5apt6apt5": 943,
      "drivetrucktru5apt6apt8": 944,
      "drivetrucktru5apt8apt5": 945,
      "drivetrucktru1apt4apt7": 946,
      "drivetrucktru1apt4apt5": 947,
      "drivetrucktru1apt4apt8": 948,
      "drivetrucktru1apt4apt6": 949,
      "drivetrucktru1apt5apt7": 950,
      "drivetrucktru1apt5apt8": 951,
      "drivetrucktru1apt5apt6": 952,
      "drivetrucktru1apt5apt4": 953,
      "drivetrucktru1apt7apt4": 954,
      "drivetrucktru1apt7apt5": 955,
      "drivetrucktru1apt7apt8": 956,
      "drivetrucktru1apt7apt6": 957,
      "drivetrucktru1apt8apt4": 958,
      "drivetrucktru1apt8apt7": 959,
      "drivetrucktru1apt8apt6": 960,
      "drivetrucktru1apt6apt4": 961,
      "drivetrucktru1apt6apt7": 962,
      "drivetrucktru1apt6apt5": 963,
      "drivetrucktru1apt6apt8": 964,
      "drivetrucktru1apt8apt5": 965,
      "drivetrucktru4apt4apt7": 966,
      "drivetrucktru4apt4apt5": 967,
      "drivetrucktru4apt4apt8": 968,
      "drivetrucktru4apt4apt6": 969,
      "drivetrucktru4apt5apt7": 970,
      "drivetrucktru4apt5apt8": 971,
      "drivetrucktru4apt5apt6": 972,
      "drivetrucktru4apt7apt4": 973,
      "drivetrucktru4apt7apt5": 974,
      "drivetrucktru4apt7apt8": 975,
      "drivetrucktru4apt7apt6": 976,
      "drivetrucktru4apt8apt4": 977,
      "drivetrucktru4apt8apt7": 978,
      "drivetrucktru4apt8apt6": 979,
      "drivetrucktru4apt6apt4": 980,
      "drivetrucktru4apt6apt7": 981,
      "drivetrucktru4apt6apt5": 982,
      "drivetrucktru4apt6apt8": 983,
      "drivetrucktru4apt8apt5": 984,
      "drivetrucktru3apt4apt7": 985,
      "drivetrucktru3apt4apt5": 986,
      "drivetrucktru3apt4apt8": 987,
      "drivetrucktru3apt4apt6": 988,
      "drivetrucktru3apt5apt7": 989,
      "drivetrucktru3apt5apt8": 990,
      "drivetrucktru3apt5apt6": 991,
      "drivetrucktru3apt5apt4": 992,
      "drivetrucktru3apt7apt4": 993,
      "drivetrucktru3apt7apt5": 994,
      "drivetrucktru3apt7apt8": 995,
      "drivetrucktru3apt7apt6": 996,
      "drivetrucktru3apt8apt4": 997,
      "drivetrucktru3apt8apt7": 998,
      "drivetrucktru3apt8apt6": 999,
      "drivetrucktru3apt6apt4": 1000,
      "drivetrucktru3apt6apt7": 1001,
      "drivetrucktru3apt6apt5": 1002,
      "drivetrucktru3apt6apt8": 1003,
      "drivetrucktru4apt5apt4": 1004,
      "drivetrucktru3apt8apt5": 1005,
      "drivetrucktru2apt3pos44cit1": 1006,
      "drivetrucktru2apt3pos44cit3": 1007,
      "drivetrucktru2apt3pos44cit2": 1008,
      "drivetrucktru2apt3pos44cit4": 1009,
      "drivetrucktru2apt3pos44cit5": 1010,
      "drivetrucktru2apt3pos44cit6": 1011,
      "drivetrucktru2apt3pos77cit1": 1012,
      "drivetrucktru2apt3pos77cit3": 1013,
      "drivetrucktru2apt3pos77cit2": 1014,
      "drivetrucktru2apt3pos77cit4": 1015,
      "drivetrucktru2apt3pos77cit5": 1016,
      "drivetrucktru2apt3pos77cit6": 1017,
      "drivetrucktru2apt3pos55cit1": 1018,
      "drivetrucktru2apt3pos55cit3": 1019,
      "drivetrucktru2apt3pos55cit2": 1020,
      "drivetrucktru2apt3pos55cit4": 1021,
      "drivetrucktru2apt3pos55cit5": 1022,
      "drivetrucktru2apt3pos55cit6": 1023,
      "drivetrucktru2apt3pos66cit1": 1024,
      "drivetrucktru2apt3pos66cit3": 1025,
      "drivetrucktru2apt3pos66cit2": 1026,
      "drivetrucktru2apt3pos66cit4": 1027,
      "drivetrucktru2apt3pos66cit5": 1028,
      "drivetrucktru2apt3pos66cit6": 1029,
      "drivetrucktru2apt3apt7cit1": 1030,
      "drivetrucktru2apt3apt7cit3": 1031,
      "drivetrucktru2apt3apt7cit2": 1032,
      "drivetrucktru2apt3apt7cit4": 1033,
      "drivetrucktru2apt3apt7cit5": 1034,
      "drivetrucktru2apt3apt7cit6": 1035,
      "drivetrucktru2apt3apt5cit1": 1036,
      "drivetrucktru2apt3apt5cit3": 1037,
      "drivetrucktru2apt3apt5cit2": 1038,
      "drivetrucktru2apt3apt5cit4": 1039,
      "drivetrucktru2apt3apt5cit5": 1040,
      "drivetrucktru2apt3apt5cit6": 1041,
      "drivetrucktru2apt3apt8cit1": 1042,
      "drivetrucktru2apt3apt8cit3": 1043,
      "drivetrucktru2apt3apt8cit2": 1044,
      "drivetrucktru2apt3apt8cit4": 1045,
      "drivetrucktru2apt3apt8cit5": 1046,
      "drivetrucktru2apt3apt8cit6": 1047,
      "drivetrucktru2apt3apt6cit1": 1048,
      "drivetrucktru2apt3apt6cit3": 1049,
      "drivetrucktru2apt3apt6cit2": 1050,
      "drivetrucktru2apt3apt6cit4": 1051,
      "drivetrucktru2apt3apt6cit5": 1052,
      "drivetrucktru2apt3apt6cit6": 1053,
      "drivetrucktru2apt3apt4cit1": 1054,
      "drivetrucktru2apt3apt4cit3": 1055,
      "drivetrucktru2apt3apt4cit4": 1056,
      "drivetrucktru2apt3apt4cit6": 1057,
      "drivetrucktru2apt3apt4cit2": 1058,
      "drivetrucktru2apt3apt4cit5": 1059,
      "drivetrucktru2apt2apt4cit1": 1060,
      "drivetrucktru2apt2apt4cit3": 1061,
      "drivetrucktru2apt2apt4cit2": 1062,
      "drivetrucktru2apt2apt4cit4": 1063,
      "drivetrucktru2apt2apt4cit5": 1064,
      "drivetrucktru2apt2apt4cit6": 1065,
      "drivetrucktru2apt2apt7cit1": 1066,
      "drivetrucktru2apt2apt7cit3": 1067,
      "drivetrucktru2apt2apt7cit2": 1068,
      "drivetrucktru2apt2apt7cit4": 1069,
      "drivetrucktru2apt2apt7cit5": 1070,
      "drivetrucktru2apt2apt7cit6": 1071,
      "drivetrucktru2apt2apt5cit1": 1072,
      "drivetrucktru2apt2apt5cit3": 1073,
      "drivetrucktru2apt2apt5cit2": 1074,
      "drivetrucktru2apt2apt5cit4": 1075,
      "drivetrucktru2apt2apt5cit5": 1076,
      "drivetrucktru2apt2apt5cit6": 1077,
      "drivetrucktru2apt2apt8cit1": 1078,
      "drivetrucktru2apt2apt8cit3": 1079,
      "drivetrucktru2apt2apt8cit2": 1080,
      "drivetrucktru2apt2apt8cit4": 1081,
      "drivetrucktru2apt2apt8cit5": 1082,
      "drivetrucktru2apt2apt8cit6": 1083,
      "drivetrucktru2apt2apt6cit1": 1084,
      "drivetrucktru2apt2apt6cit3": 1085,
      "drivetrucktru2apt2apt6cit2": 1086,
      "drivetrucktru2apt2apt6cit4": 1087,
      "drivetrucktru2apt2apt6cit5": 1088,
      "drivetrucktru2apt2apt6cit6": 1089,
      "drivetrucktru2apt1apt7cit1": 1090,
      "drivetrucktru2apt1apt7cit3": 1091,
      "drivetrucktru2apt1apt7cit2": 1092,
      "drivetrucktru2apt1apt7cit4": 1093,
      "drivetrucktru2apt1apt7cit5": 1094,
      "drivetrucktru2apt1apt7cit6": 1095,
      "drivetrucktru2apt1apt5cit1": 1096,
      "drivetrucktru2apt1apt5cit3": 1097,
      "drivetrucktru2apt1apt5cit2": 1098,
      "drivetrucktru2apt1apt5cit4": 1099,
      "drivetrucktru2apt1apt5cit5": 1100,
      "drivetrucktru2apt1apt5cit6": 1101,
      "drivetrucktru2apt1apt8cit1": 1102,
      "drivetrucktru2apt1apt8cit3": 1103,
      "drivetrucktru2apt1apt8cit2": 1104,
      "drivetrucktru2apt1apt8cit4": 1105,
      "drivetrucktru2apt1apt8cit5": 1106,
      "drivetrucktru2apt1apt8cit6": 1107,
      "drivetrucktru2apt1apt6cit1": 1108,
      "drivetrucktru2apt1apt6cit3": 1109,
      "drivetrucktru2apt1apt6cit2": 1110,
      "drivetrucktru2apt1apt6cit4": 1111,
      "drivetrucktru2apt1apt6cit5": 1112,
      "drivetrucktru2apt1apt6cit6": 1113,
      "drivetrucktru2apt1apt4cit1": 1114,
      "drivetrucktru2apt1apt4cit2": 1115,
      "drivetrucktru2apt1apt4cit4": 1116,
      "drivetrucktru2apt1apt4cit5": 1117,
      "drivetrucktru2apt1apt4cit6": 1118,
      "drivetrucktru2apt3pos33cit3": 1119,
      "drivetrucktru2apt3pos33cit2": 1120,
      "drivetrucktru2apt3pos33cit4": 1121,
      "drivetrucktru2apt3pos33cit5": 1122,
      "drivetrucktru2apt3pos33cit1": 1123,
      "drivetrucktru2apt3pos33cit6": 1124,
      "drivetrucktru2apt1apt4cit3": 1125,
      "drivetrucktru2apt2pos44cit1": 1126,
      "drivetrucktru2apt2pos44cit3": 1127,
      "drivetrucktru2apt2pos44cit2": 1128,
      "drivetrucktru2apt2pos44cit4": 1129,
      "drivetrucktru2apt2pos44cit5": 1130,
      "drivetrucktru2apt2pos44cit6": 1131,
      "drivetrucktru2apt2pos77cit1": 1132,
      "drivetrucktru2apt2pos77cit3": 1133,
      "drivetrucktru2apt2pos77cit2": 1134,
      "drivetrucktru2apt2pos77cit4": 1135,
      "drivetrucktru2apt2pos77cit5": 1136,
      "drivetrucktru2apt2pos77cit6": 1137,
      "drivetrucktru2apt2pos55cit1": 1138,
      "drivetrucktru2apt2pos55cit3": 1139,
      "drivetrucktru2apt2pos55cit2": 1140,
      "drivetrucktru2apt2pos55cit4": 1141,
      "drivetrucktru2apt2pos55cit5": 1142,
      "drivetrucktru2apt2pos55cit6": 1143,
      "drivetrucktru2apt2pos66cit1": 1144,
      "drivetrucktru2apt2pos66cit3": 1145,
      "drivetrucktru2apt2pos66cit2": 1146,
      "drivetrucktru2apt2pos66cit4": 1147,
      "drivetrucktru2apt2pos66cit5": 1148,
      "drivetrucktru2apt2pos66cit6": 1149,
      "drivetrucktru2apt1pos44cit1": 1150,
      "drivetrucktru2apt1pos44cit3": 1151,
      "drivetrucktru2apt1pos44cit2": 1152,
      "drivetrucktru2apt1pos44cit4": 1153,
      "drivetrucktru2apt1pos44cit5": 1154,
      "drivetrucktru2apt1pos44cit6": 1155,
      "drivetrucktru2apt1pos77cit1": 1156,
      "drivetrucktru2apt1pos77cit3": 1157,
      "drivetrucktru2apt1pos77cit2": 1158,
      "drivetrucktru2apt1pos77cit4": 1159,
      "drivetrucktru2apt1pos77cit5": 1160,
      "drivetrucktru2apt1pos77cit6": 1161,
      "drivetrucktru2apt1pos55cit1": 1162,
      "drivetrucktru2apt1pos55cit3": 1163,
      "drivetrucktru2apt1pos55cit2": 1164,
      "drivetrucktru2apt1pos55cit4": 1165,
      "drivetrucktru2apt1pos55cit5": 1166,
      "drivetrucktru2apt1pos55cit6": 1167,
      "drivetrucktru2apt1pos66cit1": 1168,
      "drivetrucktru2apt1pos66cit3": 1169,
      "drivetrucktru2apt1pos66cit2": 1170,
      "drivetrucktru2apt1pos66cit4": 1171,
      "drivetrucktru2apt1pos66cit5": 1172,
      "drivetrucktru2apt1pos66cit6": 1173,
      "drivetrucktru5apt3pos44cit1": 1174,
      "drivetrucktru5apt3pos44cit3": 1175,
      "drivetrucktru5apt3pos44cit2": 1176,
      "drivetrucktru5apt3pos44cit4": 1177,
      "drivetrucktru5apt3pos44cit5": 1178,
      "drivetrucktru5apt3pos44cit6": 1179,
      "drivetrucktru5apt3pos77cit1": 1180,
      "drivetrucktru5apt3pos77cit3": 1181,
      "drivetrucktru5apt3pos77cit2": 1182,
      "drivetrucktru5apt3pos77cit4": 1183,
      "drivetrucktru5apt3pos77cit5": 1184,
      "drivetrucktru5apt3pos77cit6": 1185,
      "drivetrucktru5apt3pos55cit1": 1186,
      "drivetrucktru5apt3pos55cit3": 1187,
      "drivetrucktru5apt3pos55cit2": 1188,
      "drivetrucktru5apt3pos55cit4": 1189,
      "drivetrucktru5apt3pos55cit5": 1190,
      "drivetrucktru5apt3pos55cit6": 1191,
      "drivetrucktru5apt3pos66cit1": 1192,
      "drivetrucktru5apt3pos66cit3": 1193,
      "drivetrucktru5apt3pos66cit2": 1194,
      "drivetrucktru5apt3pos66cit4": 1195,
      "drivetrucktru5apt3pos66cit5": 1196,
      "drivetrucktru5apt3pos66cit6": 1197,
      "drivetrucktru5apt3apt7cit1": 1198,
      "drivetrucktru5apt3apt7cit3": 1199,
      "drivetrucktru5apt3apt7cit2": 1200,
      "drivetrucktru5apt3apt7cit4": 1201,
      "drivetrucktru5apt3apt7cit5": 1202,
      "drivetrucktru5apt3apt7cit6": 1203,
      "drivetrucktru5apt3apt5cit1": 1204,
      "drivetrucktru5apt3apt5cit3": 1205,
      "drivetrucktru5apt3apt5cit2": 1206,
      "drivetrucktru5apt3apt5cit4": 1207,
      "drivetrucktru5apt3apt5cit5": 1208,
      "drivetrucktru5apt3apt5cit6": 1209,
      "drivetrucktru5apt3apt8cit1": 1210,
      "drivetrucktru5apt3apt8cit3": 1211,
      "drivetrucktru5apt3apt8cit2": 1212,
      "drivetrucktru5apt3apt8cit4": 1213,
      "drivetrucktru5apt3apt8cit5": 1214,
      "drivetrucktru5apt3apt8cit6": 1215,
      "drivetrucktru5apt3apt6cit1": 1216,
      "drivetrucktru5apt3apt6cit3": 1217,
      "drivetrucktru5apt3apt6cit2": 1218,
      "drivetrucktru5apt3apt6cit4": 1219,
      "drivetrucktru5apt3apt6cit5": 1220,
      "drivetrucktru5apt3apt6cit6": 1221,
      "drivetrucktru5apt3apt4cit1": 1222,
      "drivetrucktru5apt3apt4cit3": 1223,
      "drivetrucktru5apt3apt4cit4": 1224,
      "drivetrucktru5apt3apt4cit6": 1225,
      "drivetrucktru5apt3apt4cit2": 1226,
      "drivetrucktru5apt3apt4cit5": 1227,
      "drivetrucktru5apt2apt4cit1": 1228,
      "drivetrucktru5apt2apt4cit3": 1229,
      "drivetrucktru5apt2apt4cit2": 1230,
      "drivetrucktru5apt2apt4cit4": 1231,
      "drivetrucktru5apt2apt4cit5": 1232,
      "drivetrucktru5apt2apt4cit6": 1233,
      "drivetrucktru5apt2apt7cit1": 1234,
      "drivetrucktru5apt2apt7cit3": 1235,
      "drivetrucktru5apt2apt7cit2": 1236,
      "drivetrucktru5apt2apt7cit4": 1237,
      "drivetrucktru5apt2apt7cit5": 1238,
      "drivetrucktru5apt2apt7cit6": 1239,
      "drivetrucktru5apt2apt5cit1": 1240,
      "drivetrucktru5apt2apt5cit3": 1241,
      "drivetrucktru5apt2apt5cit2": 1242,
      "drivetrucktru5apt2apt5cit4": 1243,
      "drivetrucktru5apt2apt5cit5": 1244,
      "drivetrucktru5apt2apt5cit6": 1245,
      "drivetrucktru5apt2apt8cit1": 1246,
      "drivetrucktru5apt2apt8cit3": 1247,
      "drivetrucktru5apt2apt8cit2": 1248,
      "drivetrucktru5apt2apt8cit4": 1249,
      "drivetrucktru5apt2apt8cit5": 1250,
      "drivetrucktru5apt2apt8cit6": 1251,
      "drivetrucktru5apt2apt6cit1": 1252,
      "drivetrucktru5apt2apt6cit3": 1253,
      "drivetrucktru5apt2apt6cit2": 1254,
      "drivetrucktru5apt2apt6cit4": 1255,
      "drivetrucktru5apt2apt6cit5": 1256,
      "drivetrucktru5apt2apt6cit6": 1257,
      "drivetrucktru5apt1apt7cit1": 1258,
      "drivetrucktru5apt1apt7cit3": 1259,
      "drivetrucktru5apt1apt7cit2": 1260,
      "drivetrucktru5apt1apt7cit4": 1261,
      "drivetrucktru5apt1apt7cit5": 1262,
      "drivetrucktru5apt1apt7cit6": 1263,
      "drivetrucktru5apt1apt5cit1": 1264,
      "drivetrucktru5apt1apt5cit3": 1265,
      "drivetrucktru5apt1apt5cit2": 1266,
      "drivetrucktru5apt1apt5cit4": 1267,
      "drivetrucktru5apt1apt5cit5": 1268,
      "drivetrucktru5apt1apt5cit6": 1269,
      "drivetrucktru5apt1apt8cit1": 1270,
      "drivetrucktru5apt1apt8cit3": 1271,
      "drivetrucktru5apt1apt8cit2": 1272,
      "drivetrucktru5apt1apt8cit4": 1273,
      "drivetrucktru5apt1apt8cit5": 1274,
      "drivetrucktru5apt1apt8cit6": 1275,
      "drivetrucktru5apt1apt6cit1": 1276,
      "drivetrucktru5apt1apt6cit3": 1277,
      "drivetrucktru5apt1apt6cit2": 1278,
      "drivetrucktru5apt1apt6cit4": 1279,
      "drivetrucktru5apt1apt6cit5": 1280,
      "drivetrucktru5apt1apt6cit6": 1281,
      "drivetrucktru5apt1apt4cit1": 1282,
      "drivetrucktru5apt1apt4cit2": 1283,
      "drivetrucktru5apt1apt4cit4": 1284,
      "drivetrucktru5apt1apt4cit5": 1285,
      "drivetrucktru5apt1apt4cit6": 1286,
      "drivetrucktru5apt3pos33cit3": 1287,
      "drivetrucktru5apt3pos33cit2": 1288,
      "drivetrucktru5apt3pos33cit4": 1289,
      "drivetrucktru5apt3pos33cit5": 1290,
      "drivetrucktru5apt3pos33cit1": 1291,
      "drivetrucktru5apt3pos33cit6": 1292,
      "drivetrucktru5apt1apt4cit3": 1293,
      "drivetrucktru5apt2pos44cit1": 1294,
      "drivetrucktru5apt2pos44cit3": 1295,
      "drivetrucktru5apt2pos44cit2": 1296,
      "drivetrucktru5apt2pos44cit4": 1297,
      "drivetrucktru5apt2pos44cit5": 1298,
      "drivetrucktru5apt2pos44cit6": 1299,
      "drivetrucktru5apt2pos77cit1": 1300,
      "drivetrucktru5apt2pos77cit3": 1301,
      "drivetrucktru5apt2pos77cit2": 1302,
      "drivetrucktru5apt2pos77cit4": 1303,
      "drivetrucktru5apt2pos77cit5": 1304,
      "drivetrucktru5apt2pos77cit6": 1305,
      "drivetrucktru5apt2pos55cit1": 1306,
      "drivetrucktru5apt2pos55cit3": 1307,
      "drivetrucktru5apt2pos55cit2": 1308,
      "drivetrucktru5apt2pos55cit4": 1309,
      "drivetrucktru5apt2pos55cit5": 1310,
      "drivetrucktru5apt2pos55cit6": 1311,
      "drivetrucktru5apt2pos66cit1": 1312,
      "drivetrucktru5apt2pos66cit3": 1313,
      "drivetrucktru5apt2pos66cit2": 1314,
      "drivetrucktru5apt2pos66cit4": 1315,
      "drivetrucktru5apt2pos66cit5": 1316,
      "drivetrucktru5apt2pos66cit6": 1317,
      "drivetrucktru5apt1pos44cit1": 1318,
      "drivetrucktru5apt1pos44cit3": 1319,
      "drivetrucktru5apt1pos44cit2": 1320,
      "drivetrucktru5apt1pos44cit4": 1321,
      "drivetrucktru5apt1pos44cit5": 1322,
      "drivetrucktru5apt1pos44cit6": 1323,
      "drivetrucktru5apt1pos77cit1": 1324,
      "drivetrucktru5apt1pos77cit3": 1325,
      "drivetrucktru5apt1pos77cit2": 1326,
      "drivetrucktru5apt1pos77cit4": 1327,
      "drivetrucktru5apt1pos77cit5": 1328,
      "drivetrucktru5apt1pos77cit6": 1329,
      "drivetrucktru5apt1pos55cit1": 1330,
      "drivetrucktru5apt1pos55cit3": 1331,
      "drivetrucktru5apt1pos55cit2": 1332,
      "drivetrucktru5apt1pos55cit4": 1333,
      "drivetrucktru5apt1pos55cit5": 1334,
      "drivetrucktru5apt1pos55cit6": 1335,
      "drivetrucktru5apt1pos66cit1": 1336,
      "drivetrucktru5apt1pos66cit3": 1337,
      "drivetrucktru5apt1pos66cit2": 1338,
      "drivetrucktru5apt1pos66cit4": 1339,
      "drivetrucktru5apt1pos66cit5": 1340,
      "drivetrucktru5apt1pos66cit6": 1341,
      "drivetrucktru1apt3pos44cit1": 1342,
      "drivetrucktru1apt3pos44cit3": 1343,
      "drivetrucktru1apt3pos44cit2": 1344,
      "drivetrucktru1apt3pos44cit4": 1345,
      "drivetrucktru1apt3pos44cit5": 1346,
      "drivetrucktru1apt3pos44cit6": 1347,
      "drivetrucktru1apt3pos77cit1": 1348,
      "drivetrucktru1apt3pos77cit3": 1349,
      "drivetrucktru1apt3pos77cit2": 1350,
      "drivetrucktru1apt3pos77cit4": 1351,
      "drivetrucktru1apt3pos77cit5": 1352,
      "drivetrucktru1apt3pos77cit6": 1353,
      "drivetrucktru1apt3pos55cit1": 1354,
      "drivetrucktru1apt3pos55cit3": 1355,
      "drivetrucktru1apt3pos55cit2": 1356,
      "drivetrucktru1apt3pos55cit4": 1357,
      "drivetrucktru1apt3pos55cit5": 1358,
      "drivetrucktru1apt3pos55cit6": 1359,
      "drivetrucktru1apt3pos66cit1": 1360,
      "drivetrucktru1apt3pos66cit3": 1361,
      "drivetrucktru1apt3pos66cit2": 1362,
      "drivetrucktru1apt3pos66cit4": 1363,
      "drivetrucktru1apt3pos66cit5": 1364,
      "drivetrucktru1apt3pos66cit6": 1365,
      "drivetrucktru1apt3apt7cit1": 1366,
      "drivetrucktru1apt3apt7cit3": 1367,
      "drivetrucktru1apt3apt7cit2": 1368,
      "drivetrucktru1apt3apt7cit4": 1369,
      "drivetrucktru1apt3apt7cit5": 1370,
      "drivetrucktru1apt3apt7cit6": 1371,
      "drivetrucktru1apt3apt5cit1": 1372,
      "drivetrucktru1apt3apt5cit3": 1373,
      "drivetrucktru1apt3apt5cit2": 1374,
      "drivetrucktru1apt3apt5cit4": 1375,
      "drivetrucktru1apt3apt5cit5": 1376,
      "drivetrucktru1apt3apt5cit6": 1377,
      "drivetrucktru1apt3apt8cit1": 1378,
      "drivetrucktru1apt3apt8cit3": 1379,
      "drivetrucktru1apt3apt8cit2": 1380,
      "drivetrucktru1apt3apt8cit4": 1381,
      "drivetrucktru1apt3apt8cit5": 1382,
      "drivetrucktru1apt3apt8cit6": 1383,
      "drivetrucktru1apt3apt6cit1": 1384,
      "drivetrucktru1apt3apt6cit3": 1385,
      "drivetrucktru1apt3apt6cit2": 1386,
      "drivetrucktru1apt3apt6cit4": 1387,
      "drivetrucktru1apt3apt6cit5": 1388,
      "drivetrucktru1apt3apt6cit6": 1389,
      "drivetrucktru1apt3apt4cit1": 1390,
      "drivetrucktru1apt3apt4cit3": 1391,
      "drivetrucktru1apt3apt4cit4": 1392,
      "drivetrucktru1apt3apt4cit6": 1393,
      "drivetrucktru1apt3apt4cit2": 1394,
      "drivetrucktru1apt2apt4cit1": 1395,
      "drivetrucktru1apt2apt4cit3": 1396,
      "drivetrucktru1apt2apt4cit2": 1397,
      "drivetrucktru1apt2apt4cit4": 1398,
      "drivetrucktru1apt2apt4cit5": 1399,
      "drivetrucktru1apt2apt4cit6": 1400,
      "drivetrucktru1apt2apt7cit1": 1401,
      "drivetrucktru1apt2apt7cit3": 1402,
      "drivetrucktru1apt2apt7cit2": 1403,
      "drivetrucktru1apt2apt7cit4": 1404,
      "drivetrucktru1apt2apt7cit5": 1405,
      "drivetrucktru1apt2apt7cit6": 1406,
      "drivetrucktru1apt2apt5cit1": 1407,
      "drivetrucktru1apt2apt5cit3": 1408,
      "drivetrucktru1apt2apt5cit2": 1409,
      "drivetrucktru1apt2apt5cit4": 1410,
      "drivetrucktru1apt2apt5cit5": 1411,
      "drivetrucktru1apt2apt5cit6": 1412,
      "drivetrucktru1apt2apt8cit1": 1413,
      "drivetrucktru1apt2apt8cit3": 1414,
      "drivetrucktru1apt2apt8cit2": 1415,
      "drivetrucktru1apt2apt8cit4": 1416,
      "drivetrucktru1apt2apt8cit5": 1417,
      "drivetrucktru1apt2apt8cit6": 1418,
      "drivetrucktru1apt2apt6cit1": 1419,
      "drivetrucktru1apt2apt6cit3": 1420,
      "drivetrucktru1apt2apt6cit2": 1421,
      "drivetrucktru1apt2apt6cit4": 1422,
      "drivetrucktru1apt2apt6cit5": 1423,
      "drivetrucktru1apt2apt6cit6": 1424,
      "drivetrucktru1apt1apt7cit1": 1425,
      "drivetrucktru1apt1apt7cit3": 1426,
      "drivetrucktru1apt1apt7cit2": 1427,
      "drivetrucktru1apt1apt7cit4": 1428,
      "drivetrucktru1apt1apt7cit5": 1429,
      "drivetrucktru1apt1apt7cit6": 1430,
      "drivetrucktru1apt1apt5cit1": 1431,
      "drivetrucktru1apt1apt5cit3": 1432,
      "drivetrucktru1apt1apt5cit2": 1433,
      "drivetrucktru1apt1apt5cit4": 1434,
      "drivetrucktru1apt1apt5cit5": 1435,
      "drivetrucktru1apt1apt5cit6": 1436,
      "drivetrucktru1apt1apt8cit1": 1437,
      "drivetrucktru1apt1apt8cit3": 1438,
      "drivetrucktru1apt1apt8cit2": 1439,
      "drivetrucktru1apt1apt8cit4": 1440,
      "drivetrucktru1apt1apt8cit5": 1441,
      "drivetrucktru1apt1apt8cit6": 1442,
      "drivetrucktru1apt1apt6cit1": 1443,
      "drivetrucktru1apt1apt6cit3": 1444,
      "drivetrucktru1apt1apt6cit2": 1445,
      "drivetrucktru1apt1apt6cit4": 1446,
      "drivetrucktru1apt1apt6cit5": 1447,
      "drivetrucktru1apt1apt6cit6": 1448,
      "drivetrucktru1apt1apt4cit1": 1449,
      "drivetrucktru1apt1apt4cit2": 1450,
      "drivetrucktru1apt1apt4cit4": 1451,
      "drivetrucktru1apt1apt4cit5": 1452,
      "drivetrucktru1apt1apt4cit6": 1453,
      "drivetrucktru1apt3pos33cit3": 1454,
      "drivetrucktru1apt3pos33cit2": 1455,
      "drivetrucktru1apt3pos33cit4": 1456,
      "drivetrucktru1apt3pos33cit5": 1457,
      "drivetrucktru1apt3pos33cit1": 1458,
      "drivetrucktru1apt3pos33cit6": 1459,
      "drivetrucktru1apt1apt4cit3": 1460,
      "drivetrucktru1apt2pos44cit1": 1461,
      "drivetrucktru1apt2pos44cit3": 1462,
      "drivetrucktru1apt2pos44cit2": 1463,
      "drivetrucktru1apt2pos44cit4": 1464,
      "drivetrucktru1apt2pos44cit5": 1465,
      "drivetrucktru1apt2pos44cit6": 1466,
      "drivetrucktru1apt2pos77cit1": 1467,
      "drivetrucktru1apt2pos77cit3": 1468,
      "drivetrucktru1apt2pos77cit2": 1469,
      "drivetrucktru1apt2pos77cit4": 1470,
      "drivetrucktru1apt2pos77cit5": 1471,
      "drivetrucktru1apt2pos77cit6": 1472,
      "drivetrucktru1apt2pos55cit1": 1473,
      "drivetrucktru1apt2pos55cit3": 1474,
      "drivetrucktru1apt2pos55cit2": 1475,
      "drivetrucktru1apt2pos55cit4": 1476,
      "drivetrucktru1apt2pos55cit5": 1477,
      "drivetrucktru1apt2pos55cit6": 1478,
      "drivetrucktru1apt2pos66cit1": 1479,
      "drivetrucktru1apt2pos66cit3": 1480,
      "drivetrucktru1apt2pos66cit2": 1481,
      "drivetrucktru1apt2pos66cit4": 1482,
      "drivetrucktru1apt2pos66cit5": 1483,
      "drivetrucktru1apt2pos66cit6": 1484,
      "drivetrucktru1apt1pos44cit1": 1485,
      "drivetrucktru1apt1pos44cit3": 1486,
      "drivetrucktru1apt1pos44cit2": 1487,
      "drivetrucktru1apt1pos44cit4": 1488,
      "drivetrucktru1apt1pos44cit5": 1489,
      "drivetrucktru1apt1pos44cit6": 1490,
      "drivetrucktru1apt1pos77cit1": 1491,
      "drivetrucktru1apt1pos77cit3": 1492,
      "drivetrucktru1apt1pos77cit2": 1493,
      "drivetrucktru1apt1pos77cit4": 1494,
      "drivetrucktru1apt1pos77cit5": 1495,
      "drivetrucktru1apt1pos77cit6": 1496,
      "drivetrucktru1apt1pos55cit1": 1497,
      "drivetrucktru1apt1pos55cit3": 1498,
      "drivetrucktru1apt1pos55cit2": 1499,
      "drivetrucktru1apt1pos55cit4": 1500,
      "drivetrucktru1apt1pos55cit5": 1501,
      "drivetrucktru1apt1pos55cit6": 1502,
      "drivetrucktru1apt1pos66cit1": 1503,
      "drivetrucktru1apt1pos66cit3": 1504,
      "drivetrucktru1apt1pos66cit2": 1505,
      "drivetrucktru1apt1pos66cit4": 1506,
      "drivetrucktru1apt1pos66cit5": 1507,
      "drivetrucktru1apt1pos66cit6": 1508,
      "drivetrucktru4apt3pos44cit1": 1509,
      "drivetrucktru4apt3pos44cit3": 1510,
      "drivetrucktru4apt3pos44cit2": 1511,
      "drivetrucktru4apt3pos44cit4": 1512,
      "drivetrucktru4apt3pos44cit5": 1513,
      "drivetrucktru4apt3pos44cit6": 1514,
      "drivetrucktru4apt3pos77cit1": 1515,
      "drivetrucktru4apt3pos77cit3": 1516,
      "drivetrucktru4apt3pos77cit2": 1517,
      "drivetrucktru4apt3pos77cit4": 1518,
      "drivetrucktru4apt3pos77cit5": 1519,
      "drivetrucktru4apt3pos77cit6": 1520,
      "drivetrucktru4apt3pos55cit1": 1521,
      "drivetrucktru4apt3pos55cit3": 1522,
      "drivetrucktru4apt3pos55cit2": 1523,
      "drivetrucktru4apt3pos55cit4": 1524,
      "drivetrucktru4apt3pos55cit5": 1525,
      "drivetrucktru4apt3pos55cit6": 1526,
      "drivetrucktru4apt3pos66cit1": 1527,
      "drivetrucktru4apt3pos66cit3": 1528,
      "drivetrucktru4apt3pos66cit2": 1529,
      "drivetrucktru4apt3pos66cit4": 1530,
      "drivetrucktru4apt3pos66cit5": 1531,
      "drivetrucktru4apt3pos66cit6": 1532,
      "drivetrucktru4apt3apt7cit1": 1533,
      "drivetrucktru4apt3apt7cit3": 1534,
      "drivetrucktru4apt3apt7cit2": 1535,
      "drivetrucktru4apt3apt7cit4": 1536,
      "drivetrucktru4apt3apt7cit5": 1537,
      "drivetrucktru4apt3apt7cit6": 1538,
      "drivetrucktru4apt3apt5cit1": 1539,
      "drivetrucktru4apt3apt5cit3": 1540,
      "drivetrucktru4apt3apt5cit2": 1541,
      "drivetrucktru4apt3apt5cit4": 1542,
      "drivetrucktru4apt3apt5cit5": 1543,
      "drivetrucktru4apt3apt5cit6": 1544,
      "drivetrucktru4apt3apt8cit1": 1545,
      "drivetrucktru4apt3apt8cit3": 1546,
      "drivetrucktru4apt3apt8cit2": 1547,
      "drivetrucktru4apt3apt8cit4": 1548,
      "drivetrucktru4apt3apt8cit5": 1549,
      "drivetrucktru4apt3apt8cit6": 1550,
      "drivetrucktru4apt3apt6cit1": 1551,
      "drivetrucktru4apt3apt6cit3": 1552,
      "drivetrucktru4apt3apt6cit2": 1553,
      "drivetrucktru4apt3apt6cit4": 1554,
      "drivetrucktru4apt3apt6cit5": 1555,
      "drivetrucktru4apt3apt6cit6": 1556,
      "drivetrucktru4apt3apt4cit1": 1557,
      "drivetrucktru4apt3apt4cit3": 1558,
      "drivetrucktru4apt3apt4cit4": 1559,
      "drivetrucktru4apt3apt4cit6": 1560,
      "drivetrucktru4apt3apt4cit5": 1561,
      "drivetrucktru4apt2apt4cit1": 1562,
      "drivetrucktru4apt2apt4cit3": 1563,
      "drivetrucktru4apt2apt4cit2": 1564,
      "drivetrucktru4apt2apt4cit4": 1565,
      "drivetrucktru4apt2apt4cit5": 1566,
      "drivetrucktru4apt2apt4cit6": 1567,
      "drivetrucktru4apt2apt7cit1": 1568,
      "drivetrucktru4apt2apt7cit3": 1569,
      "drivetrucktru4apt2apt7cit2": 1570,
      "drivetrucktru4apt2apt7cit4": 1571,
      "drivetrucktru4apt2apt7cit5": 1572,
      "drivetrucktru4apt2apt7cit6": 1573,
      "drivetrucktru4apt2apt5cit1": 1574,
      "drivetrucktru4apt2apt5cit3": 1575,
      "drivetrucktru4apt2apt5cit2": 1576,
      "drivetrucktru4apt2apt5cit4": 1577,
      "drivetrucktru4apt2apt5cit5": 1578,
      "drivetrucktru4apt2apt5cit6": 1579,
      "drivetrucktru4apt2apt8cit1": 1580,
      "drivetrucktru4apt2apt8cit3": 1581,
      "drivetrucktru4apt2apt8cit2": 1582,
      "drivetrucktru4apt2apt8cit4": 1583,
      "drivetrucktru4apt2apt8cit5": 1584,
      "drivetrucktru4apt2apt8cit6": 1585,
      "drivetrucktru4apt2apt6cit1": 1586,
      "drivetrucktru4apt2apt6cit3": 1587,
      "drivetrucktru4apt2apt6cit2": 1588,
      "drivetrucktru4apt2apt6cit4": 1589,
      "drivetrucktru4apt2apt6cit5": 1590,
      "drivetrucktru4apt2apt6cit6": 1591,
      "drivetrucktru4apt1apt7cit1": 1592,
      "drivetrucktru4apt1apt7cit3": 1593,
      "drivetrucktru4apt1apt7cit2": 1594,
      "drivetrucktru4apt1apt7cit4": 1595,
      "drivetrucktru4apt1apt7cit5": 1596,
      "drivetrucktru4apt1apt7cit6": 1597,
      "drivetrucktru4apt1apt5cit1": 1598,
      "drivetrucktru4apt1apt5cit3": 1599,
      "drivetrucktru4apt1apt5cit2": 1600,
      "drivetrucktru4apt1apt5cit4": 1601,
      "drivetrucktru4apt1apt5cit5": 1602,
      "drivetrucktru4apt1apt5cit6": 1603,
      "drivetrucktru4apt1apt8cit1": 1604,
      "drivetrucktru4apt1apt8cit3": 1605,
      "drivetrucktru4apt1apt8cit2": 1606,
      "drivetrucktru4apt1apt8cit4": 1607,
      "drivetrucktru4apt1apt8cit5": 1608,
      "drivetrucktru4apt1apt8cit6": 1609,
      "drivetrucktru4apt1apt6cit1": 1610,
      "drivetrucktru4apt1apt6cit3": 1611,
      "drivetrucktru4apt1apt6cit2": 1612,
      "drivetrucktru4apt1apt6cit4": 1613,
      "drivetrucktru4apt1apt6cit5": 1614,
      "drivetrucktru4apt1apt6cit6": 1615,
      "drivetrucktru4apt1apt4cit1": 1616,
      "drivetrucktru4apt1apt4cit2": 1617,
      "drivetrucktru4apt1apt4cit4": 1618,
      "drivetrucktru4apt1apt4cit5": 1619,
      "drivetrucktru4apt1apt4cit6": 1620,
      "drivetrucktru4apt3pos33cit3": 1621,
      "drivetrucktru4apt3pos33cit2": 1622,
      "drivetrucktru4apt3pos33cit4": 1623,
      "drivetrucktru4apt3pos33cit5": 1624,
      "drivetrucktru4apt3pos33cit1": 1625,
      "drivetrucktru4apt3pos33cit6": 1626,
      "drivetrucktru4apt1apt4cit3": 1627,
      "drivetrucktru4apt2pos44cit1": 1628,
      "drivetrucktru4apt2pos44cit3": 1629,
      "drivetrucktru4apt2pos44cit2": 1630,
      "drivetrucktru4apt2pos44cit4": 1631,
      "drivetrucktru4apt2pos44cit5": 1632,
      "drivetrucktru4apt2pos44cit6": 1633,
      "drivetrucktru4apt2pos77cit1": 1634,
      "drivetrucktru4apt2pos77cit3": 1635,
      "drivetrucktru4apt2pos77cit2": 1636,
      "drivetrucktru4apt2pos77cit4": 1637,
      "drivetrucktru4apt2pos77cit5": 1638,
      "drivetrucktru4apt2pos77cit6": 1639,
      "drivetrucktru4apt2pos55cit1": 1640,
      "drivetrucktru4apt2pos55cit3": 1641,
      "drivetrucktru4apt2pos55cit2": 1642,
      "drivetrucktru4apt2pos55cit4": 1643,
      "drivetrucktru4apt2pos55cit5": 1644,
      "drivetrucktru4apt2pos55cit6": 1645,
      "drivetrucktru4apt2pos66cit1": 1646,
      "drivetrucktru4apt2pos66cit3": 1647,
      "drivetrucktru4apt2pos66cit2": 1648,
      "drivetrucktru4apt2pos66cit4": 1649,
      "drivetrucktru4apt2pos66cit5": 1650,
      "drivetrucktru4apt2pos66cit6": 1651,
      "drivetrucktru4apt1pos44cit1": 1652,
      "drivetrucktru4apt1pos44cit3": 1653,
      "drivetrucktru4apt1pos44cit2": 1654,
      "drivetrucktru4apt1pos44cit4": 1655,
      "drivetrucktru4apt1pos44cit5": 1656,
      "drivetrucktru4apt1pos44cit6": 1657,
      "drivetrucktru4apt1pos77cit1": 1658,
      "drivetrucktru4apt1pos77cit3": 1659,
      "drivetrucktru4apt1pos77cit2": 1660,
      "drivetrucktru4apt1pos77cit4": 1661,
      "drivetrucktru4apt1pos77cit5": 1662,
      "drivetrucktru4apt1pos77cit6": 1663,
      "drivetrucktru4apt1pos55cit1": 1664,
      "drivetrucktru4apt1pos55cit3": 1665,
      "drivetrucktru4apt1pos55cit2": 1666,
      "drivetrucktru4apt1pos55cit4": 1667,
      "drivetrucktru4apt1pos55cit5": 1668,
      "drivetrucktru4apt1pos55cit6": 1669,
      "drivetrucktru4apt1pos66cit1": 1670,
      "drivetrucktru4apt1pos66cit3": 1671,
      "drivetrucktru4apt1pos66cit2": 1672,
      "drivetrucktru4apt1pos66cit4": 1673,
      "drivetrucktru4apt1pos66cit5": 1674,
      "drivetrucktru4apt1pos66cit6": 1675,
      "drivetrucktru3apt3pos44cit1": 1676,
      "drivetrucktru3apt3pos44cit3": 1677,
      "drivetrucktru3apt3pos44cit2": 1678,
      "drivetrucktru3apt3pos44cit4": 1679,
      "drivetrucktru3apt3pos44cit5": 1680,
      "drivetrucktru3apt3pos44cit6": 1681,
      "drivetrucktru3apt3pos77cit1": 1682,
      "drivetrucktru3apt3pos77cit3": 1683,
      "drivetrucktru3apt3pos77cit2": 1684,
      "drivetrucktru3apt3pos77cit4": 1685,
      "drivetrucktru3apt3pos77cit5": 1686,
      "drivetrucktru3apt3pos77cit6": 1687,
      "drivetrucktru3apt3pos55cit1": 1688,
      "drivetrucktru3apt3pos55cit3": 1689,
      "drivetrucktru3apt3pos55cit2": 1690,
      "drivetrucktru3apt3pos55cit4": 1691,
      "drivetrucktru3apt3pos55cit5": 1692,
      "drivetrucktru3apt3pos55cit6": 1693,
      "drivetrucktru3apt3pos66cit1": 1694,
      "drivetrucktru3apt3pos66cit3": 1695,
      "drivetrucktru3apt3pos66cit2": 1696,
      "drivetrucktru3apt3pos66cit4": 1697,
      "drivetrucktru3apt3pos66cit5": 1698,
      "drivetrucktru3apt3pos66cit6": 1699,
      "drivetrucktru3apt3apt7cit1": 1700,
      "drivetrucktru3apt3apt7cit3": 1701,
      "drivetrucktru3apt3apt7cit2": 1702,
      "drivetrucktru3apt3apt7cit4": 1703,
      "drivetrucktru3apt3apt7cit5": 1704,
      "drivetrucktru3apt3apt7cit6": 1705,
      "drivetrucktru3apt3apt5cit1": 1706,
      "drivetrucktru3apt3apt5cit3": 1707,
      "drivetrucktru3apt3apt5cit2": 1708,
      "drivetrucktru3apt3apt5cit4": 1709,
      "drivetrucktru3apt3apt5cit5": 1710,
      "drivetrucktru3apt3apt5cit6": 1711,
      "drivetrucktru3apt3apt8cit1": 1712,
      "drivetrucktru3apt3apt8cit3": 1713,
      "drivetrucktru3apt3apt8cit2": 1714,
      "drivetrucktru3apt3apt8cit4": 1715,
      "drivetrucktru3apt3apt8cit5": 1716,
      "drivetrucktru3apt3apt8cit6": 1717,
      "drivetrucktru3apt3apt6cit1": 1718,
      "drivetrucktru3apt3apt6cit3": 1719,
      "drivetrucktru3apt3apt6cit2": 1720,
      "drivetrucktru3apt3apt6cit4": 1721,
      "drivetrucktru3apt3apt6cit5": 1722,
      "drivetrucktru3apt3apt6cit6": 1723,
      "drivetrucktru3apt3apt4cit1": 1724,
      "drivetrucktru3apt3apt4cit3": 1725,
      "drivetrucktru3apt3apt4cit4": 1726,
      "drivetrucktru3apt3apt4cit6": 1727,
      "drivetrucktru3apt3apt4cit2": 1728,
      "drivetrucktru3apt3apt4cit5": 1729,
      "drivetrucktru3apt2apt4cit1": 1730,
      "drivetrucktru3apt2apt4cit3": 1731,
      "drivetrucktru3apt2apt4cit2": 1732,
      "drivetrucktru3apt2apt4cit4": 1733,
      "drivetrucktru3apt2apt4cit5": 1734,
      "drivetrucktru3apt2apt4cit6": 1735,
      "drivetrucktru3apt2apt7cit1": 1736,
      "drivetrucktru3apt2apt7cit3": 1737,
      "drivetrucktru3apt2apt7cit2": 1738,
      "drivetrucktru3apt2apt7cit4": 1739,
      "drivetrucktru3apt2apt7cit5": 1740,
      "drivetrucktru3apt2apt7cit6": 1741,
      "drivetrucktru3apt2apt5cit1": 1742,
      "drivetrucktru3apt2apt5cit3": 1743,
      "drivetrucktru3apt2apt5cit2": 1744,
      "drivetrucktru3apt2apt5cit4": 1745,
      "drivetrucktru3apt2apt5cit5": 1746,
      "drivetrucktru3apt2apt5cit6": 1747,
      "drivetrucktru3apt2apt8cit1": 1748,
      "drivetrucktru3apt2apt8cit3": 1749,
      "drivetrucktru3apt2apt8cit2": 1750,
      "drivetrucktru3apt2apt8cit4": 1751,
      "drivetrucktru3apt2apt8cit5": 1752,
      "drivetrucktru3apt2apt8cit6": 1753,
      "drivetrucktru3apt2apt6cit1": 1754,
      "drivetrucktru3apt2apt6cit3": 1755,
      "drivetrucktru3apt2apt6cit2": 1756,
      "drivetrucktru3apt2apt6cit4": 1757,
      "drivetrucktru3apt2apt6cit5": 1758,
      "drivetrucktru3apt2apt6cit6": 1759,
      "drivetrucktru3apt1apt7cit1": 1760,
      "drivetrucktru3apt1apt7cit3": 1761,
      "drivetrucktru3apt1apt7cit2": 1762,
      "drivetrucktru3apt1apt7cit4": 1763,
      "drivetrucktru3apt1apt7cit5": 1764,
      "drivetrucktru3apt1apt7cit6": 1765,
      "drivetrucktru3apt1apt5cit1": 1766,
      "drivetrucktru3apt1apt5cit3": 1767,
      "drivetrucktru3apt1apt5cit2": 1768,
      "drivetrucktru3apt1apt5cit4": 1769,
      "drivetrucktru3apt1apt5cit5": 1770,
      "drivetrucktru3apt1apt5cit6": 1771,
      "drivetrucktru3apt1apt8cit1": 1772,
      "drivetrucktru3apt1apt8cit3": 1773,
      "drivetrucktru3apt1apt8cit2": 1774,
      "drivetrucktru3apt1apt8cit4": 1775,
      "drivetrucktru3apt1apt8cit5": 1776,
      "drivetrucktru3apt1apt8cit6": 1777,
      "drivetrucktru3apt1apt6cit1": 1778,
      "drivetrucktru3apt1apt6cit3": 1779,
      "drivetrucktru3apt1apt6cit2": 1780,
      "drivetrucktru3apt1apt6cit4": 1781,
      "drivetrucktru3apt1apt6cit5": 1782,
      "drivetrucktru3apt1apt6cit6": 1783,
      "drivetrucktru3apt1apt4cit1": 1784,
      "drivetrucktru3apt1apt4cit2": 1785,
      "drivetrucktru3apt1apt4cit4": 1786,
      "drivetrucktru3apt1apt4cit5": 1787,
      "drivetrucktru3apt1apt4cit6": 1788,
      "drivetrucktru3apt3pos33cit3": 1789,
      "drivetrucktru3apt3pos33cit2": 1790,
      "drivetrucktru3apt3pos33cit4": 1791,
      "drivetrucktru3apt3pos33cit5": 1792,
      "drivetrucktru3apt3pos33cit1": 1793,
      "drivetrucktru3apt3pos33cit6": 1794,
      "drivetrucktru3apt2pos44cit1": 1795,
      "drivetrucktru3apt2pos44cit3": 1796,
      "drivetrucktru3apt2pos44cit2": 1797,
      "drivetrucktru3apt2pos44cit4": 1798,
      "drivetrucktru3apt2pos44cit5": 1799,
      "drivetrucktru3apt2pos44cit6": 1800,
      "drivetrucktru3apt2pos77cit1": 1801,
      "drivetrucktru3apt2pos77cit3": 1802,
      "drivetrucktru3apt2pos77cit2": 1803,
      "drivetrucktru3apt2pos77cit4": 1804,
      "drivetrucktru3apt2pos77cit5": 1805,
      "drivetrucktru3apt2pos77cit6": 1806,
      "drivetrucktru3apt2pos55cit1": 1807,
      "drivetrucktru3apt2pos55cit3": 1808,
      "drivetrucktru3apt2pos55cit2": 1809,
      "drivetrucktru3apt2pos55cit4": 1810,
      "drivetrucktru3apt2pos55cit5": 1811,
      "drivetrucktru3apt2pos55cit6": 1812,
      "drivetrucktru3apt2pos66cit1": 1813,
      "drivetrucktru3apt2pos66cit3": 1814,
      "drivetrucktru3apt2pos66cit2": 1815,
      "drivetrucktru3apt2pos66cit4": 1816,
      "drivetrucktru3apt2pos66cit5": 1817,
      "drivetrucktru3apt2pos66cit6": 1818,
      "drivetrucktru3apt1pos44cit1": 1819,
      "drivetrucktru3apt1pos44cit3": 1820,
      "drivetrucktru3apt1pos44cit2": 1821,
      "drivetrucktru3apt1pos44cit4": 1822,
      "drivetrucktru3apt1pos44cit5": 1823,
      "drivetrucktru3apt1pos44cit6": 1824,
      "drivetrucktru3apt1pos77cit1": 1825,
      "drivetrucktru3apt1pos77cit3": 1826,
      "drivetrucktru3apt1pos77cit2": 1827,
      "drivetrucktru3apt1pos77cit4": 1828,
      "drivetrucktru3apt1pos77cit5": 1829,
      "drivetrucktru3apt1pos77cit6": 1830,
      "drivetrucktru3apt1pos55cit1": 1831,
      "drivetrucktru3apt1pos55cit3": 1832,
      "drivetrucktru3apt1pos55cit2": 1833,
      "drivetrucktru3apt1pos55cit4": 1834,
      "drivetrucktru3apt1pos55cit5": 1835,
      "drivetrucktru3apt1pos55cit6": 1836,
      "drivetrucktru3apt1pos66cit1": 1837,
      "drivetrucktru3apt1pos66cit3": 1838,
      "drivetrucktru3apt1pos66cit2": 1839,
      "drivetrucktru3apt1pos66cit4": 1840,
      "drivetrucktru3apt1pos66cit5": 1841,
      "drivetrucktru3apt1pos66cit6": 1842,
      "drivetrucktru3pos23pos44cit1": 1843,
      "drivetrucktru3pos23pos44cit3": 1844,
      "drivetrucktru3pos23pos44cit2": 1845,
      "drivetrucktru3pos23pos44cit4": 1846,
      "drivetrucktru3pos23pos44cit5": 1847,
      "drivetrucktru3pos23pos44cit6": 1848,
      "drivetrucktru3pos23pos77cit1": 1849,
      "drivetrucktru3pos23pos77cit3": 1850,
      "drivetrucktru3pos23pos77cit2": 1851,
      "drivetrucktru3pos23pos77cit4": 1852,
      "drivetrucktru3pos23pos77cit5": 1853,
      "drivetrucktru3pos23pos77cit6": 1854,
      "drivetrucktru3pos23pos55cit1": 1855,
      "drivetrucktru3pos23pos55cit3": 1856,
      "drivetrucktru3pos23pos55cit2": 1857,
      "drivetrucktru3pos23pos55cit4": 1858,
      "drivetrucktru3pos23pos55cit5": 1859,
      "drivetrucktru3pos23pos55cit6": 1860,
      "drivetrucktru3pos23pos66cit1": 1861,
      "drivetrucktru3pos23pos66cit3": 1862,
      "drivetrucktru3pos23pos66cit2": 1863,
      "drivetrucktru3pos23pos66cit4": 1864,
      "drivetrucktru3pos23pos66cit5": 1865,
      "drivetrucktru3pos23pos66cit6": 1866,
      "drivetrucktru3pos23apt7cit1": 1867,
      "drivetrucktru3pos23apt7cit3": 1868,
      "drivetrucktru3pos23apt7cit2": 1869,
      "drivetrucktru3pos23apt7cit4": 1870,
      "drivetrucktru3pos23apt7cit5": 1871,
      "drivetrucktru3pos23apt7cit6": 1872,
      "drivetrucktru3pos23apt5cit1": 1873,
      "drivetrucktru3pos23apt5cit3": 1874,
      "drivetrucktru3pos23apt5cit2": 1875,
      "drivetrucktru3pos23apt5cit4": 1876,
      "drivetrucktru3pos23apt5cit5": 1877,
      "drivetrucktru3pos23apt5cit6": 1878,
      "drivetrucktru3pos23apt8cit1": 1879,
      "drivetrucktru3pos23apt8cit3": 1880,
      "drivetrucktru3pos23apt8cit2": 1881,
      "drivetrucktru3pos23apt8cit4": 1882,
      "drivetrucktru3pos23apt8cit5": 1883,
      "drivetrucktru3pos23apt8cit6": 1884,
      "drivetrucktru3pos23apt6cit1": 1885,
      "drivetrucktru3pos23apt6cit3": 1886,
      "drivetrucktru3pos23apt6cit2": 1887,
      "drivetrucktru3pos23apt6cit4": 1888,
      "drivetrucktru3pos23apt6cit5": 1889,
      "drivetrucktru3pos23apt6cit6": 1890,
      "drivetrucktru3pos23apt4cit1": 1891,
      "drivetrucktru3pos23apt4cit3": 1892,
      "drivetrucktru3pos23apt4cit4": 1893,
      "drivetrucktru3pos23apt4cit6": 1894,
      "drivetrucktru3pos23apt4cit2": 1895,
      "drivetrucktru3pos23apt4cit5": 1896,
      "drivetrucktru3pos22apt4cit1": 1897,
      "drivetrucktru3pos22apt4cit3": 1898,
      "drivetrucktru3pos22apt4cit2": 1899,
      "drivetrucktru3pos22apt4cit4": 1900,
      "drivetrucktru3pos22apt4cit5": 1901,
      "drivetrucktru3pos22apt4cit6": 1902,
      "drivetrucktru3pos22apt7cit1": 1903,
      "drivetrucktru3pos22apt7cit3": 1904,
      "drivetrucktru3pos22apt7cit2": 1905,
      "drivetrucktru3pos22apt7cit4": 1906,
      "drivetrucktru3pos22apt7cit5": 1907,
      "drivetrucktru3pos22apt7cit6": 1908,
      "drivetrucktru3pos22apt5cit1": 1909,
      "drivetrucktru3pos22apt5cit3": 1910,
      "drivetrucktru3pos22apt5cit2": 1911,
      "drivetrucktru3pos22apt5cit4": 1912,
      "drivetrucktru3pos22apt5cit5": 1913,
      "drivetrucktru3pos22apt5cit6": 1914,
      "drivetrucktru3pos22apt8cit1": 1915,
      "drivetrucktru3pos22apt8cit3": 1916,
      "drivetrucktru3pos22apt8cit2": 1917,
      "drivetrucktru3pos22apt8cit4": 1918,
      "drivetrucktru3pos22apt8cit5": 1919,
      "drivetrucktru3pos22apt8cit6": 1920,
      "drivetrucktru3pos22apt6cit1": 1921,
      "drivetrucktru3pos22apt6cit3": 1922,
      "drivetrucktru3pos22apt6cit2": 1923,
      "drivetrucktru3pos22apt6cit4": 1924,
      "drivetrucktru3pos22apt6cit5": 1925,
      "drivetrucktru3pos22apt6cit6": 1926,
      "drivetrucktru3pos21apt7cit1": 1927,
      "drivetrucktru3pos21apt7cit3": 1928,
      "drivetrucktru3pos21apt7cit2": 1929,
      "drivetrucktru3pos21apt7cit4": 1930,
      "drivetrucktru3pos21apt7cit5": 1931,
      "drivetrucktru3pos21apt7cit6": 1932,
      "drivetrucktru3pos21apt5cit1": 1933,
      "drivetrucktru3pos21apt5cit3": 1934,
      "drivetrucktru3pos21apt5cit2": 1935,
      "drivetrucktru3pos21apt5cit4": 1936,
      "drivetrucktru3pos21apt5cit5": 1937,
      "drivetrucktru3pos21apt5cit6": 1938,
      "drivetrucktru3pos21apt8cit1": 1939,
      "drivetrucktru3pos21apt8cit3": 1940,
      "drivetrucktru3pos21apt8cit2": 1941,
      "drivetrucktru3pos21apt8cit4": 1942,
      "drivetrucktru3pos21apt8cit5": 1943,
      "drivetrucktru3pos21apt8cit6": 1944,
      "drivetrucktru3pos21apt6cit1": 1945,
      "drivetrucktru3pos21apt6cit3": 1946,
      "drivetrucktru3pos21apt6cit2": 1947,
      "drivetrucktru3pos21apt6cit4": 1948,
      "drivetrucktru3pos21apt6cit5": 1949,
      "drivetrucktru3pos21apt6cit6": 1950,
      "drivetrucktru3pos21apt4cit1": 1951,
      "drivetrucktru3pos21apt4cit2": 1952,
      "drivetrucktru3pos21apt4cit4": 1953,
      "drivetrucktru3pos21apt4cit5": 1954,
      "drivetrucktru3pos21apt4cit6": 1955,
      "drivetrucktru3pos23pos33cit3": 1956,
      "drivetrucktru3pos23pos33cit2": 1957,
      "drivetrucktru3pos23pos33cit4": 1958,
      "drivetrucktru3pos23pos33cit5": 1959,
      "drivetrucktru3pos23pos33cit1": 1960,
      "drivetrucktru3pos23pos33cit6": 1961,
      "drivetrucktru3pos21apt4cit3": 1962,
      "drivetrucktru3pos22pos44cit1": 1963,
      "drivetrucktru3pos22pos44cit3": 1964,
      "drivetrucktru3pos22pos44cit2": 1965,
      "drivetrucktru3pos22pos44cit4": 1966,
      "drivetrucktru3pos22pos44cit5": 1967,
      "drivetrucktru3pos22pos44cit6": 1968,
      "drivetrucktru3pos22pos77cit1": 1969,
      "drivetrucktru3pos22pos77cit3": 1970,
      "drivetrucktru3pos22pos77cit2": 1971,
      "drivetrucktru3pos22pos77cit4": 1972,
      "drivetrucktru3pos22pos77cit5": 1973,
      "drivetrucktru3pos22pos77cit6": 1974,
      "drivetrucktru3pos22pos55cit1": 1975,
      "drivetrucktru3pos22pos55cit3": 1976,
      "drivetrucktru3pos22pos55cit2": 1977,
      "drivetrucktru3pos22pos55cit4": 1978,
      "drivetrucktru3pos22pos55cit5": 1979,
      "drivetrucktru3pos22pos55cit6": 1980,
      "drivetrucktru3pos22pos66cit1": 1981,
      "drivetrucktru3pos22pos66cit3": 1982,
      "drivetrucktru3pos22pos66cit2": 1983,
      "drivetrucktru3pos22pos66cit4": 1984,
      "drivetrucktru3pos22pos66cit5": 1985,
      "drivetrucktru3pos22pos66cit6": 1986,
      "drivetrucktru3pos21pos44cit1": 1987,
      "drivetrucktru3pos21pos44cit3": 1988,
      "drivetrucktru3pos21pos44cit2": 1989,
      "drivetrucktru3pos21pos44cit4": 1990,
      "drivetrucktru3pos21pos44cit5": 1991,
      "drivetrucktru3pos21pos44cit6": 1992,
      "drivetrucktru3pos21pos77cit1": 1993,
      "drivetrucktru3pos21pos77cit3": 1994,
      "drivetrucktru3pos21pos77cit2": 1995,
      "drivetrucktru3pos21pos77cit4": 1996,
      "drivetrucktru3pos21pos77cit5": 1997,
      "drivetrucktru3pos21pos77cit6": 1998,
      "drivetrucktru3pos21pos55cit1": 1999,
      "drivetrucktru3pos21pos55cit3": 2000,
      "drivetrucktru3pos21pos55cit2": 2001,
      "drivetrucktru3pos21pos55cit4": 2002,
      "drivetrucktru3pos21pos55cit5": 2003,
      "drivetrucktru3pos21pos55cit6": 2004,
      "drivetrucktru3pos21pos66cit1": 2005,
      "drivetrucktru3pos21pos66cit3": 2006,
      "drivetrucktru3pos21pos66cit2": 2007,
      "drivetrucktru3pos21pos66cit4": 2008,
      "drivetrucktru3pos21pos66cit5": 2009,
      "drivetrucktru3pos21pos66cit6": 2010,
      "drivetrucktru3pos13pos44cit1": 2011,
      "drivetrucktru3pos13pos44cit3": 2012,
      "drivetrucktru3pos13pos44cit2": 2013,
      "drivetrucktru3pos13pos44cit4": 2014,
      "drivetrucktru3pos13pos44cit5": 2015,
      "drivetrucktru3pos13pos44cit6": 2016,
      "drivetrucktru3pos13pos77cit1": 2017,
      "drivetrucktru3pos13pos77cit3": 2018,
      "drivetrucktru3pos13pos77cit2": 2019,
      "drivetrucktru3pos13pos77cit4": 2020,
      "drivetrucktru3pos13pos77cit5": 2021,
      "drivetrucktru3pos13pos77cit6": 2022,
      "drivetrucktru3pos13pos55cit1": 2023,
      "drivetrucktru3pos13pos55cit3": 2024,
      "drivetrucktru3pos13pos55cit2": 2025,
      "drivetrucktru3pos13pos55cit4": 2026,
      "drivetrucktru3pos13pos55cit5": 2027,
      "drivetrucktru3pos13pos55cit6": 2028,
      "drivetrucktru3pos13pos66cit1": 2029,
      "drivetrucktru3pos13pos66cit3": 2030,
      "drivetrucktru3pos13pos66cit2": 2031,
      "drivetrucktru3pos13pos66cit4": 2032,
      "drivetrucktru3pos13pos66cit5": 2033,
      "drivetrucktru3pos13pos66cit6": 2034,
      "drivetrucktru3pos13apt7cit1": 2035,
      "drivetrucktru3pos13apt7cit3": 2036,
      "drivetrucktru3pos13apt7cit2": 2037,
      "drivetrucktru3pos13apt7cit4": 2038,
      "drivetrucktru3pos13apt7cit5": 2039,
      "drivetrucktru3pos13apt7cit6": 2040,
      "drivetrucktru3pos13apt5cit1": 2041,
      "drivetrucktru3pos13apt5cit3": 2042,
      "drivetrucktru3pos13apt5cit2": 2043,
      "drivetrucktru3pos13apt5cit4": 2044,
      "drivetrucktru3pos13apt5cit5": 2045,
      "drivetrucktru3pos13apt5cit6": 2046,
      "drivetrucktru3pos13apt8cit1": 2047,
      "drivetrucktru3pos13apt8cit3": 2048,
      "drivetrucktru3pos13apt8cit2": 2049,
      "drivetrucktru3pos13apt8cit4": 2050,
      "drivetrucktru3pos13apt8cit5": 2051,
      "drivetrucktru3pos13apt8cit6": 2052,
      "drivetrucktru3pos13apt6cit1": 2053,
      "drivetrucktru3pos13apt6cit3": 2054,
      "drivetrucktru3pos13apt6cit2": 2055,
      "drivetrucktru3pos13apt6cit4": 2056,
      "drivetrucktru3pos13apt6cit5": 2057,
      "drivetrucktru3pos13apt6cit6": 2058,
      "drivetrucktru3pos13apt4cit1": 2059,
      "drivetrucktru3pos13apt4cit3": 2060,
      "drivetrucktru3pos13apt4cit4": 2061,
      "drivetrucktru3pos13apt4cit6": 2062,
      "drivetrucktru3pos13apt4cit2": 2063,
      "drivetrucktru3pos13apt4cit5": 2064,
      "drivetrucktru3pos12apt4cit1": 2065,
      "drivetrucktru3pos12apt4cit3": 2066,
      "drivetrucktru3pos12apt4cit2": 2067,
      "drivetrucktru3pos12apt4cit4": 2068,
      "drivetrucktru3pos12apt4cit5": 2069,
      "drivetrucktru3pos12apt4cit6": 2070,
      "drivetrucktru3pos12apt7cit1": 2071,
      "drivetrucktru3pos12apt7cit3": 2072,
      "drivetrucktru3pos12apt7cit2": 2073,
      "drivetrucktru3pos12apt7cit4": 2074,
      "drivetrucktru3pos12apt7cit5": 2075,
      "drivetrucktru3pos12apt7cit6": 2076,
      "drivetrucktru3pos12apt5cit1": 2077,
      "drivetrucktru3pos12apt5cit3": 2078,
      "drivetrucktru3pos12apt5cit2": 2079,
      "drivetrucktru3pos12apt5cit4": 2080,
      "drivetrucktru3pos12apt5cit5": 2081,
      "drivetrucktru3pos12apt5cit6": 2082,
      "drivetrucktru3pos12apt8cit1": 2083,
      "drivetrucktru3pos12apt8cit3": 2084,
      "drivetrucktru3pos12apt8cit2": 2085,
      "drivetrucktru3pos12apt8cit4": 2086,
      "drivetrucktru3pos12apt8cit5": 2087,
      "drivetrucktru3pos12apt8cit6": 2088,
      "drivetrucktru3pos12apt6cit1": 2089,
      "drivetrucktru3pos12apt6cit3": 2090,
      "drivetrucktru3pos12apt6cit2": 2091,
      "drivetrucktru3pos12apt6cit4": 2092,
      "drivetrucktru3pos12apt6cit5": 2093,
      "drivetrucktru3pos12apt6cit6": 2094,
      "drivetrucktru3pos11apt7cit1": 2095,
      "drivetrucktru3pos11apt7cit3": 2096,
      "drivetrucktru3pos11apt7cit2": 2097,
      "drivetrucktru3pos11apt7cit4": 2098,
      "drivetrucktru3pos11apt7cit5": 2099,
      "drivetrucktru3pos11apt7cit6": 2100,
      "drivetrucktru3pos11apt5cit1": 2101,
      "drivetrucktru3pos11apt5cit3": 2102,
      "drivetrucktru3pos11apt5cit2": 2103,
      "drivetrucktru3pos11apt5cit4": 2104,
      "drivetrucktru3pos11apt5cit5": 2105,
      "drivetrucktru3pos11apt5cit6": 2106,
      "drivetrucktru3pos11apt8cit1": 2107,
      "drivetrucktru3pos11apt8cit3": 2108,
      "drivetrucktru3pos11apt8cit2": 2109,
      "drivetrucktru3pos11apt8cit4": 2110,
      "drivetrucktru3pos11apt8cit5": 2111,
      "drivetrucktru3pos11apt8cit6": 2112,
      "drivetrucktru3pos11apt6cit1": 2113,
      "drivetrucktru3pos11apt6cit3": 2114,
      "drivetrucktru3pos11apt6cit2": 2115,
      "drivetrucktru3pos11apt6cit4": 2116,
      "drivetrucktru3pos11apt6cit5": 2117,
      "drivetrucktru3pos11apt6cit6": 2118,
      "drivetrucktru3pos11apt4cit1": 2119,
      "drivetrucktru3pos11apt4cit2": 2120,
      "drivetrucktru3pos11apt4cit4": 2121,
      "drivetrucktru3pos11apt4cit5": 2122,
      "drivetrucktru3pos11apt4cit6": 2123,
      "drivetrucktru3pos13pos33cit3": 2124,
      "drivetrucktru3pos13pos33cit2": 2125,
      "drivetrucktru3pos13pos33cit4": 2126,
      "drivetrucktru3pos13pos33cit5": 2127,
      "drivetrucktru3pos13pos33cit1": 2128,
      "drivetrucktru3pos13pos33cit6": 2129,
      "drivetrucktru3pos11apt4cit3": 2130,
      "drivetrucktru3pos12pos44cit1": 2131,
      "drivetrucktru3pos12pos44cit3": 2132,
      "drivetrucktru3pos12pos44cit2": 2133,
      "drivetrucktru3pos12pos44cit4": 2134,
      "drivetrucktru3pos12pos44cit5": 2135,
      "drivetrucktru3pos12pos44cit6": 2136,
      "drivetrucktru3pos12pos77cit1": 2137,
      "drivetrucktru3pos12pos77cit3": 2138,
      "drivetrucktru3pos12pos77cit2": 2139,
      "drivetrucktru3pos12pos77cit4": 2140,
      "drivetrucktru3pos12pos77cit5": 2141,
      "drivetrucktru3pos12pos77cit6": 2142,
      "drivetrucktru3pos12pos55cit1": 2143,
      "drivetrucktru3pos12pos55cit3": 2144,
      "drivetrucktru3pos12pos55cit2": 2145,
      "drivetrucktru3pos12pos55cit4": 2146,
      "drivetrucktru3pos12pos55cit5": 2147,
      "drivetrucktru3pos12pos55cit6": 2148,
      "drivetrucktru3pos12pos66cit1": 2149,
      "drivetrucktru3pos12pos66cit3": 2150,
      "drivetrucktru3pos12pos66cit2": 2151,
      "drivetrucktru3pos12pos66cit4": 2152,
      "drivetrucktru3pos12pos66cit5": 2153,
      "drivetrucktru3pos12pos66cit6": 2154,
      "drivetrucktru3pos11pos44cit1": 2155,
      "drivetrucktru3pos11pos44cit3": 2156,
      "drivetrucktru3pos11pos44cit2": 2157,
      "drivetrucktru3pos11pos44cit4": 2158,
      "drivetrucktru3pos11pos44cit5": 2159,
      "drivetrucktru3pos11pos44cit6": 2160,
      "drivetrucktru3pos11pos77cit1": 2161,
      "drivetrucktru3pos11pos77cit3": 2162,
      "drivetrucktru3pos11pos77cit2": 2163,
      "drivetrucktru3pos11pos77cit4": 2164,
      "drivetrucktru3pos11pos77cit5": 2165,
      "drivetrucktru3pos11pos77cit6": 2166,
      "drivetrucktru3pos11pos55cit1": 2167,
      "drivetrucktru3pos11pos55cit3": 2168,
      "drivetrucktru3pos11pos55cit2": 2169,
      "drivetrucktru3pos11pos55cit4": 2170,
      "drivetrucktru3pos11pos55cit5": 2171,
      "drivetrucktru3pos11pos55cit6": 2172,
      "drivetrucktru3pos11pos66cit1": 2173,
      "drivetrucktru3pos11pos66cit3": 2174,
      "drivetrucktru3pos11pos66cit2": 2175,
      "drivetrucktru3pos11pos66cit4": 2176,
      "drivetrucktru3pos11pos66cit5": 2177,
      "drivetrucktru3pos11pos66cit6": 2178,
      "drivetrucktru5pos23pos44cit1": 2179,
      "drivetrucktru5pos23pos44cit3": 2180,
      "drivetrucktru5pos23pos44cit2": 2181,
      "drivetrucktru5pos23pos44cit4": 2182,
      "drivetrucktru5pos23pos44cit5": 2183,
      "drivetrucktru5pos23pos44cit6": 2184,
      "drivetrucktru5pos23pos77cit1": 2185,
      "drivetrucktru5pos23pos77cit3": 2186,
      "drivetrucktru5pos23pos77cit2": 2187,
      "drivetrucktru5pos23pos77cit4": 2188,
      "drivetrucktru5pos23pos77cit5": 2189,
      "drivetrucktru5pos23pos77cit6": 2190,
      "drivetrucktru5pos23pos55cit1": 2191,
      "drivetrucktru5pos23pos55cit3": 2192,
      "drivetrucktru5pos23pos55cit2": 2193,
      "drivetrucktru5pos23pos55cit4": 2194,
      "drivetrucktru5pos23pos55cit5": 2195,
      "drivetrucktru5pos23pos55cit6": 2196,
      "drivetrucktru5pos23pos66cit1": 2197,
      "drivetrucktru5pos23pos66cit3": 2198,
      "drivetrucktru5pos23pos66cit2": 2199,
      "drivetrucktru5pos23pos66cit4": 2200,
      "drivetrucktru5pos23pos66cit5": 2201,
      "drivetrucktru5pos23pos66cit6": 2202,
      "drivetrucktru5pos23apt7cit1": 2203,
      "drivetrucktru5pos23apt7cit3": 2204,
      "drivetrucktru5pos23apt7cit2": 2205,
      "drivetrucktru5pos23apt7cit4": 2206,
      "drivetrucktru5pos23apt7cit5": 2207,
      "drivetrucktru5pos23apt7cit6": 2208,
      "drivetrucktru5pos23apt5cit1": 2209,
      "drivetrucktru5pos23apt5cit3": 2210,
      "drivetrucktru5pos23apt5cit2": 2211,
      "drivetrucktru5pos23apt5cit4": 2212,
      "drivetrucktru5pos23apt5cit5": 2213,
      "drivetrucktru5pos23apt5cit6": 2214,
      "drivetrucktru5pos23apt8cit1": 2215,
      "drivetrucktru5pos23apt8cit3": 2216,
      "drivetrucktru5pos23apt8cit2": 2217,
      "drivetrucktru5pos23apt8cit4": 2218,
      "drivetrucktru5pos23apt8cit5": 2219,
      "drivetrucktru5pos23apt8cit6": 2220,
      "drivetrucktru5pos23apt6cit1": 2221,
      "drivetrucktru5pos23apt6cit3": 2222,
      "drivetrucktru5pos23apt6cit2": 2223,
      "drivetrucktru5pos23apt6cit4": 2224,
      "drivetrucktru5pos23apt6cit5": 2225,
      "drivetrucktru5pos23apt6cit6": 2226,
      "drivetrucktru5pos23apt4cit1": 2227,
      "drivetrucktru5pos23apt4cit3": 2228,
      "drivetrucktru5pos23apt4cit4": 2229,
      "drivetrucktru5pos23apt4cit6": 2230,
      "drivetrucktru5pos23apt4cit2": 2231,
      "drivetrucktru5pos23apt4cit5": 2232,
      "drivetrucktru5pos22apt4cit1": 2233,
      "drivetrucktru5pos22apt4cit3": 2234,
      "drivetrucktru5pos22apt4cit2": 2235,
      "drivetrucktru5pos22apt4cit4": 2236,
      "drivetrucktru5pos22apt4cit5": 2237,
      "drivetrucktru5pos22apt4cit6": 2238,
      "drivetrucktru5pos22apt7cit1": 2239,
      "drivetrucktru5pos22apt7cit3": 2240,
      "drivetrucktru5pos22apt7cit2": 2241,
      "drivetrucktru5pos22apt7cit4": 2242,
      "drivetrucktru5pos22apt7cit5": 2243,
      "drivetrucktru5pos22apt7cit6": 2244,
      "drivetrucktru5pos22apt5cit1": 2245,
      "drivetrucktru5pos22apt5cit3": 2246,
      "drivetrucktru5pos22apt5cit2": 2247,
      "drivetrucktru5pos22apt5cit4": 2248,
      "drivetrucktru5pos22apt5cit5": 2249,
      "drivetrucktru5pos22apt5cit6": 2250,
      "drivetrucktru5pos22apt8cit1": 2251,
      "drivetrucktru5pos22apt8cit3": 2252,
      "drivetrucktru5pos22apt8cit2": 2253,
      "drivetrucktru5pos22apt8cit4": 2254,
      "drivetrucktru5pos22apt8cit5": 2255,
      "drivetrucktru5pos22apt8cit6": 2256,
      "drivetrucktru5pos22apt6cit1": 2257,
      "drivetrucktru5pos22apt6cit3": 2258,
      "drivetrucktru5pos22apt6cit2": 2259,
      "drivetrucktru5pos22apt6cit4": 2260,
      "drivetrucktru5pos22apt6cit5": 2261,
      "drivetrucktru5pos22apt6cit6": 2262,
      "drivetrucktru5pos21apt7cit1": 2263,
      "drivetrucktru5pos21apt7cit3": 2264,
      "drivetrucktru5pos21apt7cit2": 2265,
      "drivetrucktru5pos21apt7cit4": 2266,
      "drivetrucktru5pos21apt7cit5": 2267,
      "drivetrucktru5pos21apt7cit6": 2268,
      "drivetrucktru5pos21apt5cit1": 2269,
      "drivetrucktru5pos21apt5cit3": 2270,
      "drivetrucktru5pos21apt5cit2": 2271,
      "drivetrucktru5pos21apt5cit4": 2272,
      "drivetrucktru5pos21apt5cit5": 2273,
      "drivetrucktru5pos21apt5cit6": 2274,
      "drivetrucktru5pos21apt8cit1": 2275,
      "drivetrucktru5pos21apt8cit3": 2276,
      "drivetrucktru5pos21apt8cit2": 2277,
      "drivetrucktru5pos21apt8cit4": 2278,
      "drivetrucktru5pos21apt8cit5": 2279,
      "drivetrucktru5pos21apt8cit6": 2280,
      "drivetrucktru5pos21apt6cit1": 2281,
      "drivetrucktru5pos21apt6cit3": 2282,
      "drivetrucktru5pos21apt6cit2": 2283,
      "drivetrucktru5pos21apt6cit4": 2284,
      "drivetrucktru5pos21apt6cit5": 2285,
      "drivetrucktru5pos21apt6cit6": 2286,
      "drivetrucktru5pos21apt4cit1": 2287,
      "drivetrucktru5pos21apt4cit2": 2288,
      "drivetrucktru5pos21apt4cit4": 2289,
      "drivetrucktru5pos21apt4cit5": 2290,
      "drivetrucktru5pos21apt4cit6": 2291,
      "drivetrucktru5pos23pos33cit3": 2292,
      "drivetrucktru5pos23pos33cit2": 2293,
      "drivetrucktru5pos23pos33cit4": 2294,
      "drivetrucktru5pos23pos33cit5": 2295,
      "drivetrucktru5pos23pos33cit1": 2296,
      "drivetrucktru5pos23pos33cit6": 2297,
      "drivetrucktru5pos21apt4cit3": 2298,
      "drivetrucktru5pos13pos44cit1": 2299,
      "drivetrucktru5pos13pos44cit3": 2300,
      "drivetrucktru5pos13pos44cit2": 2301,
      "drivetrucktru5pos13pos44cit4": 2302,
      "drivetrucktru5pos13pos44cit5": 2303,
      "drivetrucktru5pos13pos44cit6": 2304,
      "drivetrucktru5pos13pos77cit1": 2305,
      "drivetrucktru5pos13pos77cit3": 2306,
      "drivetrucktru5pos13pos77cit2": 2307,
      "drivetrucktru5pos13pos77cit4": 2308,
      "drivetrucktru5pos13pos77cit5": 2309,
      "drivetrucktru5pos13pos77cit6": 2310,
      "drivetrucktru5pos13pos55cit1": 2311,
      "drivetrucktru5pos13pos55cit3": 2312,
      "drivetrucktru5pos13pos55cit2": 2313,
      "drivetrucktru5pos13pos55cit4": 2314,
      "drivetrucktru5pos13pos55cit5": 2315,
      "drivetrucktru5pos13pos55cit6": 2316,
      "drivetrucktru5pos13pos66cit1": 2317,
      "drivetrucktru5pos13pos66cit3": 2318,
      "drivetrucktru5pos13pos66cit2": 2319,
      "drivetrucktru5pos13pos66cit4": 2320,
      "drivetrucktru5pos13pos66cit5": 2321,
      "drivetrucktru5pos13pos66cit6": 2322,
      "drivetrucktru5pos13apt7cit1": 2323,
      "drivetrucktru5pos13apt7cit3": 2324,
      "drivetrucktru5pos13apt7cit2": 2325,
      "drivetrucktru5pos13apt7cit4": 2326,
      "drivetrucktru5pos13apt7cit5": 2327,
      "drivetrucktru5pos13apt7cit6": 2328,
      "drivetrucktru5pos13apt5cit1": 2329,
      "drivetrucktru5pos13apt5cit3": 2330,
      "drivetrucktru5pos13apt5cit2": 2331,
      "drivetrucktru5pos13apt5cit4": 2332,
      "drivetrucktru5pos13apt5cit5": 2333,
      "drivetrucktru5pos13apt5cit6": 2334,
      "drivetrucktru5pos13apt8cit1": 2335,
      "drivetrucktru5pos13apt8cit3": 2336,
      "drivetrucktru5pos13apt8cit2": 2337,
      "drivetrucktru5pos13apt8cit4": 2338,
      "drivetrucktru5pos13apt8cit5": 2339,
      "drivetrucktru5pos13apt8cit6": 2340,
      "drivetrucktru5pos13apt6cit1": 2341,
      "drivetrucktru5pos13apt6cit3": 2342,
      "drivetrucktru5pos13apt6cit2": 2343,
      "drivetrucktru5pos13apt6cit4": 2344,
      "drivetrucktru5pos13apt6cit5": 2345,
      "drivetrucktru5pos13apt6cit6": 2346,
      "drivetrucktru5pos13apt4cit1": 2347,
      "drivetrucktru5pos13apt4cit3": 2348,
      "drivetrucktru5pos13apt4cit4": 2349,
      "drivetrucktru5pos13apt4cit6": 2350,
      "drivetrucktru5pos13apt4cit2": 2351,
      "drivetrucktru5pos13apt4cit5": 2352,
      "drivetrucktru5pos12apt4cit1": 2353,
      "drivetrucktru5pos12apt4cit3": 2354,
      "drivetrucktru5pos12apt4cit2": 2355,
      "drivetrucktru5pos12apt4cit4": 2356,
      "drivetrucktru5pos12apt4cit5": 2357,
      "drivetrucktru5pos12apt4cit6": 2358,
      "drivetrucktru5pos12apt7cit1": 2359,
      "drivetrucktru5pos12apt7cit3": 2360,
      "drivetrucktru5pos12apt7cit2": 2361,
      "drivetrucktru5pos12apt7cit4": 2362,
      "drivetrucktru5pos12apt7cit5": 2363,
      "drivetrucktru5pos12apt7cit6": 2364,
      "drivetrucktru5pos12apt5cit1": 2365,
      "drivetrucktru5pos12apt5cit3": 2366,
      "drivetrucktru5pos12apt5cit2": 2367,
      "drivetrucktru5pos12apt5cit4": 2368,
      "drivetrucktru5pos12apt5cit5": 2369,
      "drivetrucktru5pos12apt5cit6": 2370,
      "drivetrucktru5pos12apt8cit1": 2371,
      "drivetrucktru5pos12apt8cit3": 2372,
      "drivetrucktru5pos12apt8cit2": 2373,
      "drivetrucktru5pos12apt8cit4": 2374,
      "drivetrucktru5pos12apt8cit5": 2375,
      "drivetrucktru5pos12apt8cit6": 2376,
      "drivetrucktru5pos12apt6cit1": 2377,
      "drivetrucktru5pos12apt6cit3": 2378,
      "drivetrucktru5pos12apt6cit2": 2379,
      "drivetrucktru5pos12apt6cit4": 2380,
      "drivetrucktru5pos12apt6cit5": 2381,
      "drivetrucktru5pos12apt6cit6": 2382,
      "drivetrucktru5pos11apt7cit1": 2383,
      "drivetrucktru5pos11apt7cit3": 2384,
      "drivetrucktru5pos11apt7cit2": 2385,
      "drivetrucktru5pos11apt7cit4": 2386,
      "drivetrucktru5pos11apt7cit5": 2387,
      "drivetrucktru5pos11apt7cit6": 2388,
      "drivetrucktru5pos11apt5cit1": 2389,
      "drivetrucktru5pos11apt5cit3": 2390,
      "drivetrucktru5pos11apt5cit2": 2391,
      "drivetrucktru5pos11apt5cit4": 2392,
      "drivetrucktru5pos11apt5cit5": 2393,
      "drivetrucktru5pos11apt5cit6": 2394,
      "drivetrucktru5pos11apt8cit1": 2395,
      "drivetrucktru5pos11apt8cit3": 2396,
      "drivetrucktru5pos11apt8cit2": 2397,
      "drivetrucktru5pos11apt8cit4": 2398,
      "drivetrucktru5pos11apt8cit5": 2399,
      "drivetrucktru5pos11apt8cit6": 2400,
      "drivetrucktru5pos11apt6cit1": 2401,
      "drivetrucktru5pos11apt6cit3": 2402,
      "drivetrucktru5pos11apt6cit2": 2403,
      "drivetrucktru5pos11apt6cit4": 2404,
      "drivetrucktru5pos11apt6cit5": 2405,
      "drivetrucktru5pos11apt6cit6": 2406,
      "drivetrucktru5pos11apt4cit1": 2407,
      "drivetrucktru5pos11apt4cit2": 2408,
      "drivetrucktru5pos11apt4cit4": 2409,
      "drivetrucktru5pos11apt4cit5": 2410,
      "drivetrucktru5pos11apt4cit6": 2411,
      "drivetrucktru5pos13pos33cit3": 2412,
      "drivetrucktru5pos13pos33cit2": 2413,
      "drivetrucktru5pos13pos33cit4": 2414,
      "drivetrucktru5pos13pos33cit5": 2415,
      "drivetrucktru5pos13pos33cit1": 2416,
      "drivetrucktru5pos13pos33cit6": 2417,
      "drivetrucktru5pos11apt4cit3": 2418,
      "drivetrucktru4pos23pos44cit1": 2419,
      "drivetrucktru4pos23pos44cit3": 2420,
      "drivetrucktru4pos23pos44cit2": 2421,
      "drivetrucktru4pos23pos44cit4": 2422,
      "drivetrucktru4pos23pos44cit5": 2423,
      "drivetrucktru4pos23pos44cit6": 2424,
      "drivetrucktru4pos23pos77cit1": 2425,
      "drivetrucktru4pos23pos77cit3": 2426,
      "drivetrucktru4pos23pos77cit2": 2427,
      "drivetrucktru4pos23pos77cit4": 2428,
      "drivetrucktru4pos23pos77cit5": 2429,
      "drivetrucktru4pos23pos77cit6": 2430,
      "drivetrucktru4pos23pos55cit1": 2431,
      "drivetrucktru4pos23pos55cit3": 2432,
      "drivetrucktru4pos23pos55cit2": 2433,
      "drivetrucktru4pos23pos55cit4": 2434,
      "drivetrucktru4pos23pos55cit5": 2435,
      "drivetrucktru4pos23pos55cit6": 2436,
      "drivetrucktru4pos23pos66cit1": 2437,
      "drivetrucktru4pos23pos66cit3": 2438,
      "drivetrucktru4pos23pos66cit2": 2439,
      "drivetrucktru4pos23pos66cit4": 2440,
      "drivetrucktru4pos23pos66cit5": 2441,
      "drivetrucktru4pos23pos66cit6": 2442,
      "drivetrucktru4pos23apt7cit1": 2443,
      "drivetrucktru4pos23apt7cit3": 2444,
      "drivetrucktru4pos23apt7cit2": 2445,
      "drivetrucktru4pos23apt7cit4": 2446,
      "drivetrucktru4pos23apt7cit5": 2447,
      "drivetrucktru4pos23apt7cit6": 2448,
      "drivetrucktru4pos23apt5cit1": 2449,
      "drivetrucktru4pos23apt5cit3": 2450,
      "drivetrucktru4pos23apt5cit2": 2451,
      "drivetrucktru4pos23apt5cit4": 2452,
      "drivetrucktru4pos23apt5cit5": 2453,
      "drivetrucktru4pos23apt5cit6": 2454,
      "drivetrucktru4pos23apt8cit1": 2455,
      "drivetrucktru4pos23apt8cit3": 2456,
      "drivetrucktru4pos23apt8cit2": 2457,
      "drivetrucktru4pos23apt8cit4": 2458,
      "drivetrucktru4pos23apt8cit5": 2459,
      "drivetrucktru4pos23apt8cit6": 2460,
      "drivetrucktru4pos23apt6cit1": 2461,
      "drivetrucktru4pos23apt6cit3": 2462,
      "drivetrucktru4pos23apt6cit2": 2463,
      "drivetrucktru4pos23apt6cit4": 2464,
      "drivetrucktru4pos23apt6cit5": 2465,
      "drivetrucktru4pos23apt6cit6": 2466,
      "drivetrucktru4pos23apt4cit1": 2467,
      "drivetrucktru4pos23apt4cit3": 2468,
      "drivetrucktru4pos23apt4cit4": 2469,
      "drivetrucktru4pos23apt4cit6": 2470,
      "drivetrucktru4pos23apt4cit2": 2471,
      "drivetrucktru4pos23apt4cit5": 2472,
      "drivetrucktru4pos22apt4cit1": 2473,
      "drivetrucktru4pos22apt4cit3": 2474,
      "drivetrucktru4pos22apt4cit2": 2475,
      "drivetrucktru4pos22apt4cit4": 2476,
      "drivetrucktru4pos22apt4cit5": 2477,
      "drivetrucktru4pos22apt4cit6": 2478,
      "drivetrucktru4pos22apt7cit1": 2479,
      "drivetrucktru4pos22apt7cit3": 2480,
      "drivetrucktru4pos22apt7cit2": 2481,
      "drivetrucktru4pos22apt7cit4": 2482,
      "drivetrucktru4pos22apt7cit5": 2483,
      "drivetrucktru4pos22apt7cit6": 2484,
      "drivetrucktru4pos22apt5cit1": 2485,
      "drivetrucktru4pos22apt5cit3": 2486,
      "drivetrucktru4pos22apt5cit2": 2487,
      "drivetrucktru4pos22apt5cit4": 2488,
      "drivetrucktru4pos22apt5cit5": 2489,
      "drivetrucktru4pos22apt5cit6": 2490,
      "drivetrucktru4pos22apt8cit1": 2491,
      "drivetrucktru4pos22apt8cit3": 2492,
      "drivetrucktru4pos22apt8cit2": 2493,
      "drivetrucktru4pos22apt8cit4": 2494,
      "drivetrucktru4pos22apt8cit5": 2495,
      "drivetrucktru4pos22apt8cit6": 2496,
      "drivetrucktru4pos22apt6cit1": 2497,
      "drivetrucktru4pos22apt6cit3": 2498,
      "drivetrucktru4pos22apt6cit2": 2499,
      "drivetrucktru4pos22apt6cit4": 2500,
      "drivetrucktru4pos22apt6cit5": 2501,
      "drivetrucktru4pos22apt6cit6": 2502,
      "drivetrucktru4pos21apt7cit1": 2503,
      "drivetrucktru4pos21apt7cit3": 2504,
      "drivetrucktru4pos21apt7cit2": 2505,
      "drivetrucktru4pos21apt7cit4": 2506,
      "drivetrucktru4pos21apt7cit5": 2507,
      "drivetrucktru4pos21apt7cit6": 2508,
      "drivetrucktru4pos21apt5cit1": 2509,
      "drivetrucktru4pos21apt5cit3": 2510,
      "drivetrucktru4pos21apt5cit2": 2511,
      "drivetrucktru4pos21apt5cit4": 2512,
      "drivetrucktru4pos21apt5cit5": 2513,
      "drivetrucktru4pos21apt5cit6": 2514,
      "drivetrucktru4pos21apt8cit1": 2515,
      "drivetrucktru4pos21apt8cit3": 2516,
      "drivetrucktru4pos21apt8cit2": 2517,
      "drivetrucktru4pos21apt8cit4": 2518,
      "drivetrucktru4pos21apt8cit5": 2519,
      "drivetrucktru4pos21apt8cit6": 2520,
      "drivetrucktru4pos21apt6cit1": 2521,
      "drivetrucktru4pos21apt6cit3": 2522,
      "drivetrucktru4pos21apt6cit2": 2523,
      "drivetrucktru4pos21apt6cit4": 2524,
      "drivetrucktru4pos21apt6cit5": 2525,
      "drivetrucktru4pos21apt6cit6": 2526,
      "drivetrucktru4pos21apt4cit1": 2527,
      "drivetrucktru4pos21apt4cit2": 2528,
      "drivetrucktru4pos21apt4cit4": 2529,
      "drivetrucktru4pos21apt4cit5": 2530,
      "drivetrucktru4pos21apt4cit6": 2531,
      "drivetrucktru4pos23pos33cit3": 2532,
      "drivetrucktru4pos23pos33cit2": 2533,
      "drivetrucktru4pos23pos33cit4": 2534,
      "drivetrucktru4pos23pos33cit5": 2535,
      "drivetrucktru4pos23pos33cit1": 2536,
      "drivetrucktru4pos23pos33cit6": 2537,
      "drivetrucktru4pos21apt4cit3": 2538,
      "drivetrucktru4pos13pos44cit1": 2539,
      "drivetrucktru4pos13pos44cit3": 2540,
      "drivetrucktru4pos13pos44cit2": 2541,
      "drivetrucktru4pos13pos44cit4": 2542,
      "drivetrucktru4pos13pos44cit5": 2543,
      "drivetrucktru4pos13pos44cit6": 2544,
      "drivetrucktru4pos13pos77cit1": 2545,
      "drivetrucktru4pos13pos77cit3": 2546,
      "drivetrucktru4pos13pos77cit2": 2547,
      "drivetrucktru4pos13pos77cit4": 2548,
      "drivetrucktru4pos13pos77cit5": 2549,
      "drivetrucktru4pos13pos77cit6": 2550,
      "drivetrucktru4pos13pos55cit1": 2551,
      "drivetrucktru4pos13pos55cit3": 2552,
      "drivetrucktru4pos13pos55cit2": 2553,
      "drivetrucktru4pos13pos55cit4": 2554,
      "drivetrucktru4pos13pos55cit5": 2555,
      "drivetrucktru4pos13pos55cit6": 2556,
      "drivetrucktru4pos13pos66cit1": 2557,
      "drivetrucktru4pos13pos66cit3": 2558,
      "drivetrucktru4pos13pos66cit2": 2559,
      "drivetrucktru4pos13pos66cit4": 2560,
      "drivetrucktru4pos13pos66cit5": 2561,
      "drivetrucktru4pos13pos66cit6": 2562,
      "drivetrucktru4pos13apt7cit1": 2563,
      "drivetrucktru4pos13apt7cit3": 2564,
      "drivetrucktru4pos13apt7cit2": 2565,
      "drivetrucktru4pos13apt7cit4": 2566,
      "drivetrucktru4pos13apt7cit5": 2567,
      "drivetrucktru4pos13apt7cit6": 2568,
      "drivetrucktru4pos13apt5cit1": 2569,
      "drivetrucktru4pos13apt5cit3": 2570,
      "drivetrucktru4pos13apt5cit2": 2571,
      "drivetrucktru4pos13apt5cit4": 2572,
      "drivetrucktru4pos13apt5cit5": 2573,
      "drivetrucktru4pos13apt5cit6": 2574,
      "drivetrucktru4pos13apt8cit1": 2575,
      "drivetrucktru4pos13apt8cit3": 2576,
      "drivetrucktru4pos13apt8cit2": 2577,
      "drivetrucktru4pos13apt8cit4": 2578,
      "drivetrucktru4pos13apt8cit5": 2579,
      "drivetrucktru4pos13apt8cit6": 2580,
      "drivetrucktru4pos13apt6cit1": 2581,
      "drivetrucktru4pos13apt6cit3": 2582,
      "drivetrucktru4pos13apt6cit2": 2583,
      "drivetrucktru4pos13apt6cit4": 2584,
      "drivetrucktru4pos13apt6cit5": 2585,
      "drivetrucktru4pos13apt6cit6": 2586,
      "drivetrucktru4pos13apt4cit1": 2587,
      "drivetrucktru4pos13apt4cit3": 2588,
      "drivetrucktru4pos13apt4cit4": 2589,
      "drivetrucktru4pos13apt4cit6": 2590,
      "drivetrucktru4pos13apt4cit2": 2591,
      "drivetrucktru4pos13apt4cit5": 2592,
      "drivetrucktru4pos12apt4cit1": 2593,
      "drivetrucktru4pos12apt4cit3": 2594,
      "drivetrucktru4pos12apt4cit2": 2595,
      "drivetrucktru4pos12apt4cit4": 2596,
      "drivetrucktru4pos12apt4cit5": 2597,
      "drivetrucktru4pos12apt4cit6": 2598,
      "drivetrucktru4pos12apt7cit1": 2599,
      "drivetrucktru4pos12apt7cit3": 2600,
      "drivetrucktru4pos12apt7cit2": 2601,
      "drivetrucktru4pos12apt7cit4": 2602,
      "drivetrucktru4pos12apt7cit5": 2603,
      "drivetrucktru4pos12apt7cit6": 2604,
      "drivetrucktru4pos12apt5cit1": 2605,
      "drivetrucktru4pos12apt5cit3": 2606,
      "drivetrucktru4pos12apt5cit2": 2607,
      "drivetrucktru4pos12apt5cit4": 2608,
      "drivetrucktru4pos12apt5cit5": 2609,
      "drivetrucktru4pos12apt5cit6": 2610,
      "drivetrucktru4pos12apt8cit1": 2611,
      "drivetrucktru4pos12apt8cit3": 2612,
      "drivetrucktru4pos12apt8cit2": 2613,
      "drivetrucktru4pos12apt8cit4": 2614,
      "drivetrucktru4pos12apt8cit5": 2615,
      "drivetrucktru4pos12apt8cit6": 2616,
      "drivetrucktru4pos12apt6cit1": 2617,
      "drivetrucktru4pos12apt6cit3": 2618,
      "drivetrucktru4pos12apt6cit2": 2619,
      "drivetrucktru4pos12apt6cit4": 2620,
      "drivetrucktru4pos12apt6cit5": 2621,
      "drivetrucktru4pos12apt6cit6": 2622,
      "drivetrucktru4pos11apt7cit1": 2623,
      "drivetrucktru4pos11apt7cit3": 2624,
      "drivetrucktru4pos11apt7cit2": 2625,
      "drivetrucktru4pos11apt7cit4": 2626,
      "drivetrucktru4pos11apt7cit5": 2627,
      "drivetrucktru4pos11apt7cit6": 2628,
      "drivetrucktru4pos11apt5cit1": 2629,
      "drivetrucktru4pos11apt5cit3": 2630,
      "drivetrucktru4pos11apt5cit2": 2631,
      "drivetrucktru4pos11apt5cit4": 2632,
      "drivetrucktru4pos11apt5cit5": 2633,
      "drivetrucktru4pos11apt5cit6": 2634,
      "drivetrucktru4pos11apt8cit1": 2635,
      "drivetrucktru4pos11apt8cit3": 2636,
      "drivetrucktru4pos11apt8cit2": 2637,
      "drivetrucktru4pos11apt8cit4": 2638,
      "drivetrucktru4pos11apt8cit5": 2639,
      "drivetrucktru4pos11apt8cit6": 2640,
      "drivetrucktru4pos11apt6cit1": 2641,
      "drivetrucktru4pos11apt6cit3": 2642,
      "drivetrucktru4pos11apt6cit2": 2643,
      "drivetrucktru4pos11apt6cit4": 2644,
      "drivetrucktru4pos11apt6cit5": 2645,
      "drivetrucktru4pos11apt6cit6": 2646,
      "drivetrucktru4pos11apt4cit1": 2647,
      "drivetrucktru4pos11apt4cit2": 2648,
      "drivetrucktru4pos11apt4cit4": 2649,
      "drivetrucktru4pos11apt4cit5": 2650,
      "drivetrucktru4pos11apt4cit6": 2651,
      "drivetrucktru4pos13pos33cit3": 2652,
      "drivetrucktru4pos13pos33cit2": 2653,
      "drivetrucktru4pos13pos33cit4": 2654,
      "drivetrucktru4pos13pos33cit5": 2655,
      "drivetrucktru4pos13pos33cit1": 2656,
      "drivetrucktru4pos13pos33cit6": 2657,
      "drivetrucktru4pos11apt4cit3": 2658,
      "drivetrucktru2pos23pos44cit1": 2659,
      "drivetrucktru2pos23pos44cit3": 2660,
      "drivetrucktru2pos23pos44cit2": 2661,
      "drivetrucktru2pos23pos44cit4": 2662,
      "drivetrucktru2pos23pos44cit5": 2663,
      "drivetrucktru2pos23pos44cit6": 2664,
      "drivetrucktru2pos23pos77cit1": 2665,
      "drivetrucktru2pos23pos77cit3": 2666,
      "drivetrucktru2pos23pos77cit2": 2667,
      "drivetrucktru2pos23pos77cit4": 2668,
      "drivetrucktru2pos23pos77cit5": 2669,
      "drivetrucktru2pos23pos77cit6": 2670,
      "drivetrucktru2pos23pos55cit1": 2671,
      "drivetrucktru2pos23pos55cit3": 2672,
      "drivetrucktru2pos23pos55cit2": 2673,
      "drivetrucktru2pos23pos55cit4": 2674,
      "drivetrucktru2pos23pos55cit5": 2675,
      "drivetrucktru2pos23pos55cit6": 2676,
      "drivetrucktru2pos23pos66cit1": 2677,
      "drivetrucktru2pos23pos66cit3": 2678,
      "drivetrucktru2pos23pos66cit2": 2679,
      "drivetrucktru2pos23pos66cit4": 2680,
      "drivetrucktru2pos23pos66cit5": 2681,
      "drivetrucktru2pos23pos66cit6": 2682,
      "drivetrucktru2pos23apt7cit1": 2683,
      "drivetrucktru2pos23apt7cit3": 2684,
      "drivetrucktru2pos23apt7cit2": 2685,
      "drivetrucktru2pos23apt7cit4": 2686,
      "drivetrucktru2pos23apt7cit5": 2687,
      "drivetrucktru2pos23apt7cit6": 2688,
      "drivetrucktru2pos23apt5cit1": 2689,
      "drivetrucktru2pos23apt5cit3": 2690,
      "drivetrucktru2pos23apt5cit2": 2691,
      "drivetrucktru2pos23apt5cit4": 2692,
      "drivetrucktru2pos23apt5cit5": 2693,
      "drivetrucktru2pos23apt5cit6": 2694,
      "drivetrucktru2pos23apt8cit1": 2695,
      "drivetrucktru2pos23apt8cit3": 2696,
      "drivetrucktru2pos23apt8cit2": 2697,
      "drivetrucktru2pos23apt8cit4": 2698,
      "drivetrucktru2pos23apt8cit5": 2699,
      "drivetrucktru2pos23apt8cit6": 2700,
      "drivetrucktru2pos23apt6cit1": 2701,
      "drivetrucktru2pos23apt6cit3": 2702,
      "drivetrucktru2pos23apt6cit2": 2703,
      "drivetrucktru2pos23apt6cit4": 2704,
      "drivetrucktru2pos23apt6cit5": 2705,
      "drivetrucktru2pos23apt6cit6": 2706,
      "drivetrucktru2pos23apt4cit1": 2707,
      "drivetrucktru2pos23apt4cit3": 2708,
      "drivetrucktru2pos23apt4cit4": 2709,
      "drivetrucktru2pos23apt4cit6": 2710,
      "drivetrucktru2pos23apt4cit2": 2711,
      "drivetrucktru2pos23apt4cit5": 2712,
      "drivetrucktru2pos22apt4cit1": 2713,
      "drivetrucktru2pos22apt4cit3": 2714,
      "drivetrucktru2pos22apt4cit2": 2715,
      "drivetrucktru2pos22apt4cit4": 2716,
      "drivetrucktru2pos22apt4cit5": 2717,
      "drivetrucktru2pos22apt4cit6": 2718,
      "drivetrucktru2pos22apt7cit1": 2719,
      "drivetrucktru2pos22apt7cit3": 2720,
      "drivetrucktru2pos22apt7cit2": 2721,
      "drivetrucktru2pos22apt7cit4": 2722,
      "drivetrucktru2pos22apt7cit5": 2723,
      "drivetrucktru2pos22apt7cit6": 2724,
      "drivetrucktru2pos22apt5cit1": 2725,
      "drivetrucktru2pos22apt5cit3": 2726,
      "drivetrucktru2pos22apt5cit2": 2727,
      "drivetrucktru2pos22apt5cit4": 2728,
      "drivetrucktru2pos22apt5cit5": 2729,
      "drivetrucktru2pos22apt5cit6": 2730,
      "drivetrucktru2pos22apt8cit1": 2731,
      "drivetrucktru2pos22apt8cit3": 2732,
      "drivetrucktru2pos22apt8cit2": 2733,
      "drivetrucktru2pos22apt8cit4": 2734,
      "drivetrucktru2pos22apt8cit5": 2735,
      "drivetrucktru2pos22apt8cit6": 2736,
      "drivetrucktru2pos22apt6cit1": 2737,
      "drivetrucktru2pos22apt6cit3": 2738,
      "drivetrucktru2pos22apt6cit2": 2739,
      "drivetrucktru2pos22apt6cit4": 2740,
      "drivetrucktru2pos22apt6cit5": 2741,
      "drivetrucktru2pos22apt6cit6": 2742,
      "drivetrucktru2pos21apt7cit1": 2743,
      "drivetrucktru2pos21apt7cit3": 2744,
      "drivetrucktru2pos21apt7cit2": 2745,
      "drivetrucktru2pos21apt7cit4": 2746,
      "drivetrucktru2pos21apt7cit5": 2747,
      "drivetrucktru2pos21apt7cit6": 2748,
      "drivetrucktru2pos21apt5cit1": 2749,
      "drivetrucktru2pos21apt5cit3": 2750,
      "drivetrucktru2pos21apt5cit2": 2751,
      "drivetrucktru2pos21apt5cit4": 2752,
      "drivetrucktru2pos21apt5cit5": 2753,
      "drivetrucktru2pos21apt5cit6": 2754,
      "drivetrucktru2pos21apt8cit1": 2755,
      "drivetrucktru2pos21apt8cit3": 2756,
      "drivetrucktru2pos21apt8cit2": 2757,
      "drivetrucktru2pos21apt8cit4": 2758,
      "drivetrucktru2pos21apt8cit5": 2759,
      "drivetrucktru2pos21apt8cit6": 2760,
      "drivetrucktru2pos21apt6cit1": 2761,
      "drivetrucktru2pos21apt6cit3": 2762,
      "drivetrucktru2pos21apt6cit2": 2763,
      "drivetrucktru2pos21apt6cit4": 2764,
      "drivetrucktru2pos21apt6cit5": 2765,
      "drivetrucktru2pos21apt6cit6": 2766,
      "drivetrucktru2pos21apt4cit1": 2767,
      "drivetrucktru2pos21apt4cit2": 2768,
      "drivetrucktru2pos21apt4cit4": 2769,
      "drivetrucktru2pos21apt4cit5": 2770,
      "drivetrucktru2pos21apt4cit6": 2771,
      "drivetrucktru2pos23pos33cit3": 2772,
      "drivetrucktru2pos23pos33cit2": 2773,
      "drivetrucktru2pos23pos33cit4": 2774,
      "drivetrucktru2pos23pos33cit5": 2775,
      "drivetrucktru2pos23pos33cit1": 2776,
      "drivetrucktru2pos23pos33cit6": 2777,
      "drivetrucktru2pos21apt4cit3": 2778,
      "drivetrucktru2pos13pos44cit1": 2779,
      "drivetrucktru2pos13pos44cit3": 2780,
      "drivetrucktru2pos13pos44cit2": 2781,
      "drivetrucktru2pos13pos44cit4": 2782,
      "drivetrucktru2pos13pos44cit5": 2783,
      "drivetrucktru2pos13pos44cit6": 2784,
      "drivetrucktru2pos13pos77cit1": 2785,
      "drivetrucktru2pos13pos77cit3": 2786,
      "drivetrucktru2pos13pos77cit2": 2787,
      "drivetrucktru2pos13pos77cit4": 2788,
      "drivetrucktru2pos13pos77cit5": 2789,
      "drivetrucktru2pos13pos77cit6": 2790,
      "drivetrucktru2pos13pos55cit1": 2791,
      "drivetrucktru2pos13pos55cit3": 2792,
      "drivetrucktru2pos13pos55cit2": 2793,
      "drivetrucktru2pos13pos55cit4": 2794,
      "drivetrucktru2pos13pos55cit5": 2795,
      "drivetrucktru2pos13pos55cit6": 2796,
      "drivetrucktru2pos13pos66cit1": 2797,
      "drivetrucktru2pos13pos66cit3": 2798,
      "drivetrucktru2pos13pos66cit2": 2799,
      "drivetrucktru2pos13pos66cit4": 2800,
      "drivetrucktru2pos13pos66cit5": 2801,
      "drivetrucktru2pos13pos66cit6": 2802,
      "drivetrucktru2pos13apt7cit1": 2803,
      "drivetrucktru2pos13apt7cit3": 2804,
      "drivetrucktru2pos13apt7cit2": 2805,
      "drivetrucktru2pos13apt7cit4": 2806,
      "drivetrucktru2pos13apt7cit5": 2807,
      "drivetrucktru2pos13apt7cit6": 2808,
      "drivetrucktru2pos13apt5cit1": 2809,
      "drivetrucktru2pos13apt5cit3": 2810,
      "drivetrucktru2pos13apt5cit2": 2811,
      "drivetrucktru2pos13apt5cit4": 2812,
      "drivetrucktru2pos13apt5cit5": 2813,
      "drivetrucktru2pos13apt5cit6": 2814,
      "drivetrucktru2pos13apt8cit1": 2815,
      "drivetrucktru2pos13apt8cit3": 2816,
      "drivetrucktru2pos13apt8cit2": 2817,
      "drivetrucktru2pos13apt8cit4": 2818,
      "drivetrucktru2pos13apt8cit5": 2819,
      "drivetrucktru2pos13apt8cit6": 2820,
      "drivetrucktru2pos13apt6cit1": 2821,
      "drivetrucktru2pos13apt6cit3": 2822,
      "drivetrucktru2pos13apt6cit2": 2823,
      "drivetrucktru2pos13apt6cit4": 2824,
      "drivetrucktru2pos13apt6cit5": 2825,
      "drivetrucktru2pos13apt6cit6": 2826,
      "drivetrucktru2pos13apt4cit1": 2827,
      "drivetrucktru2pos13apt4cit3": 2828,
      "drivetrucktru2pos13apt4cit4": 2829,
      "drivetrucktru2pos13apt4cit6": 2830,
      "drivetrucktru2pos13apt4cit2": 2831,
      "drivetrucktru2pos13apt4cit5": 2832,
      "drivetrucktru2pos12apt4cit1": 2833,
      "drivetrucktru2pos12apt4cit3": 2834,
      "drivetrucktru2pos12apt4cit2": 2835,
      "drivetrucktru2pos12apt4cit4": 2836,
      "drivetrucktru2pos12apt4cit5": 2837,
      "drivetrucktru2pos12apt4cit6": 2838,
      "drivetrucktru2pos12apt7cit1": 2839,
      "drivetrucktru2pos12apt7cit3": 2840,
      "drivetrucktru2pos12apt7cit2": 2841,
      "drivetrucktru2pos12apt7cit4": 2842,
      "drivetrucktru2pos12apt7cit5": 2843,
      "drivetrucktru2pos12apt7cit6": 2844,
      "drivetrucktru2pos12apt5cit1": 2845,
      "drivetrucktru2pos12apt5cit3": 2846,
      "drivetrucktru2pos12apt5cit2": 2847,
      "drivetrucktru2pos12apt5cit4": 2848,
      "drivetrucktru2pos12apt5cit5": 2849,
      "drivetrucktru2pos12apt5cit6": 2850,
      "drivetrucktru2pos12apt8cit1": 2851,
      "drivetrucktru2pos12apt8cit3": 2852,
      "drivetrucktru2pos12apt8cit2": 2853,
      "drivetrucktru2pos12apt8cit4": 2854,
      "drivetrucktru2pos12apt8cit5": 2855,
      "drivetrucktru2pos12apt8cit6": 2856,
      "drivetrucktru2pos12apt6cit1": 2857,
      "drivetrucktru2pos12apt6cit3": 2858,
      "drivetrucktru2pos12apt6cit2": 2859,
      "drivetrucktru2pos12apt6cit4": 2860,
      "drivetrucktru2pos12apt6cit5": 2861,
      "drivetrucktru2pos12apt6cit6": 2862,
      "drivetrucktru2pos11apt7cit1": 2863,
      "drivetrucktru2pos11apt7cit3": 2864,
      "drivetrucktru2pos11apt7cit2": 2865,
      "drivetrucktru2pos11apt7cit4": 2866,
      "drivetrucktru2pos11apt7cit5": 2867,
      "drivetrucktru2pos11apt7cit6": 2868,
      "drivetrucktru2pos11apt5cit1": 2869,
      "drivetrucktru2pos11apt5cit3": 2870,
      "drivetrucktru2pos11apt5cit2": 2871,
      "drivetrucktru2pos11apt5cit4": 2872,
      "drivetrucktru2pos11apt5cit5": 2873,
      "drivetrucktru2pos11apt5cit6": 2874,
      "drivetrucktru2pos11apt8cit1": 2875,
      "drivetrucktru2pos11apt8cit3": 2876,
      "drivetrucktru2pos11apt8cit2": 2877,
      "drivetrucktru2pos11apt8cit4": 2878,
      "drivetrucktru2pos11apt8cit5": 2879,
      "drivetrucktru2pos11apt8cit6": 2880,
      "drivetrucktru2pos11apt6cit1": 2881,
      "drivetrucktru2pos11apt6cit3": 2882,
      "drivetrucktru2pos11apt6cit2": 2883,
      "drivetrucktru2pos11apt6cit4": 2884,
      "drivetrucktru2pos11apt6cit5": 2885,
      "drivetrucktru2pos11apt6cit6": 2886,
      "drivetrucktru2pos11apt4cit1": 2887,
      "drivetrucktru2pos11apt4cit2": 2888,
      "drivetrucktru2pos11apt4cit4": 2889,
      "drivetrucktru2pos11apt4cit5": 2890,
      "drivetrucktru2pos11apt4cit6": 2891,
      "drivetrucktru2pos13pos33cit3": 2892,
      "drivetrucktru2pos13pos33cit2": 2893,
      "drivetrucktru2pos13pos33cit4": 2894,
      "drivetrucktru2pos13pos33cit5": 2895,
      "drivetrucktru2pos13pos33cit1": 2896,
      "drivetrucktru2pos13pos33cit6": 2897,
      "drivetrucktru2pos11apt4cit3": 2898,
      "drivetrucktru1pos23pos44cit1": 2899,
      "drivetrucktru1pos23pos44cit3": 2900,
      "drivetrucktru1pos23pos44cit2": 2901,
      "drivetrucktru1pos23pos44cit4": 2902,
      "drivetrucktru1pos23pos44cit5": 2903,
      "drivetrucktru1pos23pos44cit6": 2904,
      "drivetrucktru1pos23pos77cit1": 2905,
      "drivetrucktru1pos23pos77cit3": 2906,
      "drivetrucktru1pos23pos77cit2": 2907,
      "drivetrucktru1pos23pos77cit4": 2908,
      "drivetrucktru1pos23pos77cit5": 2909,
      "drivetrucktru1pos23pos77cit6": 2910,
      "drivetrucktru1pos23pos55cit1": 2911,
      "drivetrucktru1pos23pos55cit3": 2912,
      "drivetrucktru1pos23pos55cit2": 2913,
      "drivetrucktru1pos23pos55cit4": 2914,
      "drivetrucktru1pos23pos55cit5": 2915,
      "drivetrucktru1pos23pos55cit6": 2916,
      "drivetrucktru1pos23pos66cit1": 2917,
      "drivetrucktru1pos23pos66cit3": 2918,
      "drivetrucktru1pos23pos66cit2": 2919,
      "drivetrucktru1pos23pos66cit4": 2920,
      "drivetrucktru1pos23pos66cit5": 2921,
      "drivetrucktru1pos23pos66cit6": 2922,
      "drivetrucktru1pos23apt7cit1": 2923,
      "drivetrucktru1pos23apt7cit3": 2924,
      "drivetrucktru1pos23apt7cit2": 2925,
      "drivetrucktru1pos23apt7cit4": 2926,
      "drivetrucktru1pos23apt7cit5": 2927,
      "drivetrucktru1pos23apt7cit6": 2928,
      "drivetrucktru1pos23apt5cit1": 2929,
      "drivetrucktru1pos23apt5cit3": 2930,
      "drivetrucktru1pos23apt5cit2": 2931,
      "drivetrucktru1pos23apt5cit4": 2932,
      "drivetrucktru1pos23apt5cit5": 2933,
      "drivetrucktru1pos23apt5cit6": 2934,
      "drivetrucktru1pos23apt8cit1": 2935,
      "drivetrucktru1pos23apt8cit3": 2936,
      "drivetrucktru1pos23apt8cit2": 2937,
      "drivetrucktru1pos23apt8cit4": 2938,
      "drivetrucktru1pos23apt8cit5": 2939,
      "drivetrucktru1pos23apt8cit6": 2940,
      "drivetrucktru1pos23apt6cit1": 2941,
      "drivetrucktru1pos23apt6cit3": 2942,
      "drivetrucktru1pos23apt6cit2": 2943,
      "drivetrucktru1pos23apt6cit4": 2944,
      "drivetrucktru1pos23apt6cit5": 2945,
      "drivetrucktru1pos23apt6cit6": 2946,
      "drivetrucktru1pos23apt4cit1": 2947,
      "drivetrucktru1pos23apt4cit3": 2948,
      "drivetrucktru1pos23apt4cit4": 2949,
      "drivetrucktru1pos23apt4cit6": 2950,
      "drivetrucktru1pos23apt4cit2": 2951,
      "drivetrucktru1pos23apt4cit5": 2952,
      "drivetrucktru1pos22apt4cit1": 2953,
      "drivetrucktru1pos22apt4cit3": 2954,
      "drivetrucktru1pos22apt4cit2": 2955,
      "drivetrucktru1pos22apt4cit4": 2956,
      "drivetrucktru1pos22apt4cit5": 2957,
      "drivetrucktru1pos22apt4cit6": 2958,
      "drivetrucktru1pos22apt7cit1": 2959,
      "drivetrucktru1pos22apt7cit3": 2960,
      "drivetrucktru1pos22apt7cit2": 2961,
      "drivetrucktru1pos22apt7cit4": 2962,
      "drivetrucktru1pos22apt7cit5": 2963,
      "drivetrucktru1pos22apt7cit6": 2964,
      "drivetrucktru1pos22apt5cit1": 2965,
      "drivetrucktru1pos22apt5cit3": 2966,
      "drivetrucktru1pos22apt5cit2": 2967,
      "drivetrucktru1pos22apt5cit4": 2968,
      "drivetrucktru1pos22apt5cit5": 2969,
      "drivetrucktru1pos22apt5cit6": 2970,
      "drivetrucktru1pos22apt8cit1": 2971,
      "drivetrucktru1pos22apt8cit3": 2972,
      "drivetrucktru1pos22apt8cit2": 2973,
      "drivetrucktru1pos22apt8cit4": 2974,
      "drivetrucktru1pos22apt8cit5": 2975,
      "drivetrucktru1pos22apt8cit6": 2976,
      "drivetrucktru1pos22apt6cit1": 2977,
      "drivetrucktru1pos22apt6cit3": 2978,
      "drivetrucktru1pos22apt6cit2": 2979,
      "drivetrucktru1pos22apt6cit4": 2980,
      "drivetrucktru1pos22apt6cit5": 2981,
      "drivetrucktru1pos22apt6cit6": 2982,
      "drivetrucktru1pos21apt7cit1": 2983,
      "drivetrucktru1pos21apt7cit3": 2984,
      "drivetrucktru1pos21apt7cit2": 2985,
      "drivetrucktru1pos21apt7cit4": 2986,
      "drivetrucktru1pos21apt7cit5": 2987,
      "drivetrucktru1pos21apt7cit6": 2988,
      "drivetrucktru1pos21apt5cit1": 2989,
      "drivetrucktru1pos21apt5cit3": 2990,
      "drivetrucktru1pos21apt5cit2": 2991,
      "drivetrucktru1pos21apt5cit4": 2992,
      "drivetrucktru1pos21apt5cit5": 2993,
      "drivetrucktru1pos21apt5cit6": 2994,
      "drivetrucktru1pos21apt8cit1": 2995,
      "drivetrucktru1pos21apt8cit3": 2996,
      "drivetrucktru1pos21apt8cit2": 2997,
      "drivetrucktru1pos21apt8cit4": 2998,
      "drivetrucktru1pos21apt8cit5": 2999,
      "drivetrucktru1pos21apt8cit6": 3000,
      "drivetrucktru1pos21apt6cit1": 3001,
      "drivetrucktru1pos21apt6cit3": 3002,
      "drivetrucktru1pos21apt6cit2": 3003,
      "drivetrucktru1pos21apt6cit4": 3004,
      "drivetrucktru1pos21apt6cit5": 3005,
      "drivetrucktru1pos21apt6cit6": 3006,
      "drivetrucktru1pos21apt4cit1": 3007,
      "drivetrucktru1pos21apt4cit2": 3008,
      "drivetrucktru1pos21apt4cit4": 3009,
      "drivetrucktru1pos21apt4cit5": 3010,
      "drivetrucktru1pos21apt4cit6": 3011,
      "drivetrucktru1pos23pos33cit3": 3012,
      "drivetrucktru1pos23pos33cit2": 3013,
      "drivetrucktru1pos23pos33cit4": 3014,
      "drivetrucktru1pos23pos33cit5": 3015,
      "drivetrucktru1pos23pos33cit1": 3016,
      "drivetrucktru1pos23pos33cit6": 3017,
      "drivetrucktru1pos21apt4cit3": 3018,
      "drivetrucktru1pos13pos44cit1": 3019,
      "drivetrucktru1pos13pos44cit3": 3020,
      "drivetrucktru1pos13pos44cit2": 3021,
      "drivetrucktru1pos13pos44cit4": 3022,
      "drivetrucktru1pos13pos44cit5": 3023,
      "drivetrucktru1pos13pos44cit6": 3024,
      "drivetrucktru1pos13pos77cit1": 3025,
      "drivetrucktru1pos13pos77cit3": 3026,
      "drivetrucktru1pos13pos77cit2": 3027,
      "drivetrucktru1pos13pos77cit4": 3028,
      "drivetrucktru1pos13pos77cit5": 3029,
      "drivetrucktru1pos13pos77cit6": 3030,
      "drivetrucktru1pos13pos55cit1": 3031,
      "drivetrucktru1pos13pos55cit3": 3032,
      "drivetrucktru1pos13pos55cit2": 3033,
      "drivetrucktru1pos13pos55cit4": 3034,
      "drivetrucktru1pos13pos55cit5": 3035,
      "drivetrucktru1pos13pos55cit6": 3036,
      "drivetrucktru1pos13pos66cit1": 3037,
      "drivetrucktru1pos13pos66cit3": 3038,
      "drivetrucktru1pos13pos66cit2": 3039,
      "drivetrucktru1pos13pos66cit4": 3040,
      "drivetrucktru1pos13pos66cit5": 3041,
      "drivetrucktru1pos13pos66cit6": 3042,
      "drivetrucktru1pos13apt7cit1": 3043,
      "drivetrucktru1pos13apt7cit3": 3044,
      "drivetrucktru1pos13apt7cit2": 3045,
      "drivetrucktru1pos13apt7cit4": 3046,
      "drivetrucktru1pos13apt7cit5": 3047,
      "drivetrucktru1pos13apt7cit6": 3048,
      "drivetrucktru1pos13apt5cit1": 3049,
      "drivetrucktru1pos13apt5cit3": 3050,
      "drivetrucktru1pos13apt5cit2": 3051,
      "drivetrucktru1pos13apt5cit4": 3052,
      "drivetrucktru1pos13apt5cit5": 3053,
      "drivetrucktru1pos13apt5cit6": 3054,
      "drivetrucktru1pos13apt8cit1": 3055,
      "drivetrucktru1pos13apt8cit3": 3056,
      "drivetrucktru1pos13apt8cit2": 3057,
      "drivetrucktru1pos13apt8cit4": 3058,
      "drivetrucktru1pos13apt8cit5": 3059,
      "drivetrucktru1pos13apt8cit6": 3060,
      "drivetrucktru1pos13apt6cit1": 3061,
      "drivetrucktru1pos13apt6cit3": 3062,
      "drivetrucktru1pos13apt6cit2": 3063,
      "drivetrucktru1pos13apt6cit4": 3064,
      "drivetrucktru1pos13apt6cit5": 3065,
      "drivetrucktru1pos13apt6cit6": 3066,
      "drivetrucktru1pos13apt4cit1": 3067,
      "drivetrucktru1pos13apt4cit3": 3068,
      "drivetrucktru1pos13apt4cit4": 3069,
      "drivetrucktru1pos13apt4cit6": 3070,
      "drivetrucktru1pos13apt4cit2": 3071,
      "drivetrucktru1pos13apt4cit5": 3072,
      "drivetrucktru1pos12apt4cit1": 3073,
      "drivetrucktru1pos12apt4cit3": 3074,
      "drivetrucktru1pos12apt4cit2": 3075,
      "drivetrucktru1pos12apt4cit4": 3076,
      "drivetrucktru1pos12apt4cit5": 3077,
      "drivetrucktru1pos12apt4cit6": 3078,
      "drivetrucktru1pos12apt7cit1": 3079,
      "drivetrucktru1pos12apt7cit3": 3080,
      "drivetrucktru1pos12apt7cit2": 3081,
      "drivetrucktru1pos12apt7cit4": 3082,
      "drivetrucktru1pos12apt7cit5": 3083,
      "drivetrucktru1pos12apt7cit6": 3084,
      "drivetrucktru1pos12apt5cit1": 3085,
      "drivetrucktru1pos12apt5cit3": 3086,
      "drivetrucktru1pos12apt5cit2": 3087,
      "drivetrucktru1pos12apt5cit4": 3088,
      "drivetrucktru1pos12apt5cit5": 3089,
      "drivetrucktru1pos12apt5cit6": 3090,
      "drivetrucktru1pos12apt8cit1": 3091,
      "drivetrucktru1pos12apt8cit3": 3092,
      "drivetrucktru1pos12apt8cit2": 3093,
      "drivetrucktru1pos12apt8cit4": 3094,
      "drivetrucktru1pos12apt8cit5": 3095,
      "drivetrucktru1pos12apt8cit6": 3096,
      "drivetrucktru1pos12apt6cit1": 3097,
      "drivetrucktru1pos12apt6cit3": 3098,
      "drivetrucktru1pos12apt6cit2": 3099,
      "drivetrucktru1pos12apt6cit4": 3100,
      "drivetrucktru1pos12apt6cit5": 3101,
      "drivetrucktru1pos12apt6cit6": 3102,
      "drivetrucktru1pos11apt7cit1": 3103,
      "drivetrucktru1pos11apt7cit3": 3104,
      "drivetrucktru1pos11apt7cit2": 3105,
      "drivetrucktru1pos11apt7cit4": 3106,
      "drivetrucktru1pos11apt7cit5": 3107,
      "drivetrucktru1pos11apt7cit6": 3108,
      "drivetrucktru1pos11apt5cit1": 3109,
      "drivetrucktru1pos11apt5cit3": 3110,
      "drivetrucktru1pos11apt5cit2": 3111,
      "drivetrucktru1pos11apt5cit4": 3112,
      "drivetrucktru1pos11apt5cit5": 3113,
      "drivetrucktru1pos11apt5cit6": 3114,
      "drivetrucktru1pos11apt8cit1": 3115,
      "drivetrucktru1pos11apt8cit3": 3116,
      "drivetrucktru1pos11apt8cit2": 3117,
      "drivetrucktru1pos11apt8cit4": 3118,
      "drivetrucktru1pos11apt8cit5": 3119,
      "drivetrucktru1pos11apt8cit6": 3120,
      "drivetrucktru1pos11apt6cit1": 3121,
      "drivetrucktru1pos11apt6cit3": 3122,
      "drivetrucktru1pos11apt6cit2": 3123,
      "drivetrucktru1pos11apt6cit4": 3124,
      "drivetrucktru1pos11apt6cit5": 3125,
      "drivetrucktru1pos11apt6cit6": 3126,
      "drivetrucktru1pos11apt4cit1": 3127,
      "drivetrucktru1pos11apt4cit2": 3128,
      "drivetrucktru1pos11apt4cit4": 3129,
      "drivetrucktru1pos11apt4cit5": 3130,
      "drivetrucktru1pos11apt4cit6": 3131,
      "drivetrucktru1pos13pos33cit3": 3132,
      "drivetrucktru1pos13pos33cit2": 3133,
      "drivetrucktru1pos13pos33cit4": 3134,
      "drivetrucktru1pos13pos33cit5": 3135,
      "drivetrucktru1pos13pos33cit1": 3136,
      "drivetrucktru1pos13pos33cit6": 3137,
      "drivetrucktru1pos11apt4cit3": 3138,
      "drivetrucktru3pos33pos44cit1": 3139,
      "drivetrucktru3pos33pos44cit3": 3140,
      "drivetrucktru3pos33pos44cit2": 3141,
      "drivetrucktru3pos33pos44cit4": 3142,
      "drivetrucktru3pos33pos44cit5": 3143,
      "drivetrucktru3pos33pos44cit6": 3144,
      "drivetrucktru3pos33pos77cit1": 3145,
      "drivetrucktru3pos33pos77cit3": 3146,
      "drivetrucktru3pos33pos77cit2": 3147,
      "drivetrucktru3pos33pos77cit4": 3148,
      "drivetrucktru3pos33pos77cit5": 3149,
      "drivetrucktru3pos33pos77cit6": 3150,
      "drivetrucktru3pos33pos55cit1": 3151,
      "drivetrucktru3pos33pos55cit3": 3152,
      "drivetrucktru3pos33pos55cit2": 3153,
      "drivetrucktru3pos33pos55cit4": 3154,
      "drivetrucktru3pos33pos55cit5": 3155,
      "drivetrucktru3pos33pos55cit6": 3156,
      "drivetrucktru3pos33pos66cit1": 3157,
      "drivetrucktru3pos33pos66cit3": 3158,
      "drivetrucktru3pos33pos66cit2": 3159,
      "drivetrucktru3pos33pos66cit4": 3160,
      "drivetrucktru3pos33pos66cit5": 3161,
      "drivetrucktru3pos33pos66cit6": 3162,
      "drivetrucktru3pos33apt7cit1": 3163,
      "drivetrucktru3pos33apt7cit3": 3164,
      "drivetrucktru3pos33apt7cit2": 3165,
      "drivetrucktru3pos33apt7cit4": 3166,
      "drivetrucktru3pos33apt7cit5": 3167,
      "drivetrucktru3pos33apt7cit6": 3168,
      "drivetrucktru3pos33apt5cit1": 3169,
      "drivetrucktru3pos33apt5cit3": 3170,
      "drivetrucktru3pos33apt5cit2": 3171,
      "drivetrucktru3pos33apt5cit4": 3172,
      "drivetrucktru3pos33apt5cit5": 3173,
      "drivetrucktru3pos33apt5cit6": 3174,
      "drivetrucktru3pos33apt8cit1": 3175,
      "drivetrucktru3pos33apt8cit3": 3176,
      "drivetrucktru3pos33apt8cit2": 3177,
      "drivetrucktru3pos33apt8cit4": 3178,
      "drivetrucktru3pos33apt8cit5": 3179,
      "drivetrucktru3pos33apt8cit6": 3180,
      "drivetrucktru3pos33apt6cit1": 3181,
      "drivetrucktru3pos33apt6cit3": 3182,
      "drivetrucktru3pos33apt6cit2": 3183,
      "drivetrucktru3pos33apt6cit4": 3184,
      "drivetrucktru3pos33apt6cit5": 3185,
      "drivetrucktru3pos33apt6cit6": 3186,
      "drivetrucktru3pos33apt4cit1": 3187,
      "drivetrucktru3pos33apt4cit3": 3188,
      "drivetrucktru3pos33apt4cit4": 3189,
      "drivetrucktru3pos33apt4cit6": 3190,
      "drivetrucktru3pos33apt4cit2": 3191,
      "drivetrucktru3pos33apt4cit5": 3192,
      "drivetrucktru3pos44pos23cit3": 3193,
      "drivetrucktru3pos44pos23cit2": 3194,
      "drivetrucktru3pos44pos23cit4": 3195,
      "drivetrucktru3pos44pos23cit5": 3196,
      "drivetrucktru3pos44pos23cit1": 3197,
      "drivetrucktru3pos44pos23cit6": 3198,
      "drivetrucktru3pos44pos13cit3": 3199,
      "drivetrucktru3pos44pos13cit2": 3200,
      "drivetrucktru3pos44pos13cit4": 3201,
      "drivetrucktru3pos44pos13cit5": 3202,
      "drivetrucktru3pos44pos13cit1": 3203,
      "drivetrucktru3pos44pos13cit6": 3204,
      "drivetrucktru3pos44pos33cit3": 3205,
      "drivetrucktru3pos44pos33cit2": 3206,
      "drivetrucktru3pos44pos33cit4": 3207,
      "drivetrucktru3pos44pos33cit5": 3208,
      "drivetrucktru3pos44pos33cit1": 3209,
      "drivetrucktru3pos44pos33cit6": 3210,
      "drivetrucktru3pos44pos22cit3": 3211,
      "drivetrucktru3pos44pos22cit2": 3212,
      "drivetrucktru3pos44pos22cit4": 3213,
      "drivetrucktru3pos44pos22cit5": 3214,
      "drivetrucktru3pos44pos22cit1": 3215,
      "drivetrucktru3pos44pos22cit6": 3216,
      "drivetrucktru3pos44pos21cit3": 3217,
      "drivetrucktru3pos44pos21cit2": 3218,
      "drivetrucktru3pos44pos21cit4": 3219,
      "drivetrucktru3pos44pos21cit5": 3220,
      "drivetrucktru3pos44pos21cit1": 3221,
      "drivetrucktru3pos44pos21cit6": 3222,
      "drivetrucktru3pos44pos12cit3": 3223,
      "drivetrucktru3pos44pos12cit2": 3224,
      "drivetrucktru3pos44pos12cit4": 3225,
      "drivetrucktru3pos44pos12cit5": 3226,
      "drivetrucktru3pos44pos12cit1": 3227,
      "drivetrucktru3pos44pos12cit6": 3228,
      "drivetrucktru3pos44pos11cit3": 3229,
      "drivetrucktru3pos44pos11cit2": 3230,
      "drivetrucktru3pos44pos11cit4": 3231,
      "drivetrucktru3pos44pos11cit5": 3232,
      "drivetrucktru3pos44pos11cit1": 3233,
      "drivetrucktru3pos44pos11cit6": 3234,
      "drivetrucktru3pos44pos77cit1": 3235,
      "drivetrucktru3pos44pos77cit3": 3236,
      "drivetrucktru3pos44pos77cit2": 3237,
      "drivetrucktru3pos44pos77cit4": 3238,
      "drivetrucktru3pos44pos77cit5": 3239,
      "drivetrucktru3pos44pos77cit6": 3240,
      "drivetrucktru3pos44pos55cit1": 3241,
      "drivetrucktru3pos44pos55cit3": 3242,
      "drivetrucktru3pos44pos55cit2": 3243,
      "drivetrucktru3pos44pos55cit4": 3244,
      "drivetrucktru3pos44pos55cit5": 3245,
      "drivetrucktru3pos44pos55cit6": 3246,
      "drivetrucktru3pos44pos66cit1": 3247,
      "drivetrucktru3pos44pos66cit3": 3248,
      "drivetrucktru3pos44pos66cit2": 3249,
      "drivetrucktru3pos44pos66cit4": 3250,
      "drivetrucktru3pos44pos66cit5": 3251,
      "drivetrucktru3pos44pos66cit6": 3252,
      "drivetrucktru3pos77pos23cit3": 3253,
      "drivetrucktru3pos77pos23cit2": 3254,
      "drivetrucktru3pos77pos23cit4": 3255,
      "drivetrucktru3pos77pos23cit5": 3256,
      "drivetrucktru3pos77pos23cit1": 3257,
      "drivetrucktru3pos77pos23cit6": 3258,
      "drivetrucktru3pos77pos13cit3": 3259,
      "drivetrucktru3pos77pos13cit2": 3260,
      "drivetrucktru3pos77pos13cit4": 3261,
      "drivetrucktru3pos77pos13cit5": 3262,
      "drivetrucktru3pos77pos13cit1": 3263,
      "drivetrucktru3pos77pos13cit6": 3264,
      "drivetrucktru3pos77pos33cit3": 3265,
      "drivetrucktru3pos77pos33cit2": 3266,
      "drivetrucktru3pos77pos33cit4": 3267,
      "drivetrucktru3pos77pos33cit5": 3268,
      "drivetrucktru3pos77pos33cit1": 3269,
      "drivetrucktru3pos77pos33cit6": 3270,
      "drivetrucktru3pos77pos22cit3": 3271,
      "drivetrucktru3pos77pos22cit2": 3272,
      "drivetrucktru3pos77pos22cit4": 3273,
      "drivetrucktru3pos77pos22cit5": 3274,
      "drivetrucktru3pos77pos22cit1": 3275,
      "drivetrucktru3pos77pos22cit6": 3276,
      "drivetrucktru3pos77pos21cit3": 3277,
      "drivetrucktru3pos77pos21cit2": 3278,
      "drivetrucktru3pos77pos21cit4": 3279,
      "drivetrucktru3pos77pos21cit5": 3280,
      "drivetrucktru3pos77pos21cit1": 3281,
      "drivetrucktru3pos77pos21cit6": 3282,
      "drivetrucktru3pos77pos12cit3": 3283,
      "drivetrucktru3pos77pos12cit2": 3284,
      "drivetrucktru3pos77pos12cit4": 3285,
      "drivetrucktru3pos77pos12cit5": 3286,
      "drivetrucktru3pos77pos12cit1": 3287,
      "drivetrucktru3pos77pos12cit6": 3288,
      "drivetrucktru3pos77pos11cit3": 3289,
      "drivetrucktru3pos77pos11cit2": 3290,
      "drivetrucktru3pos77pos11cit4": 3291,
      "drivetrucktru3pos77pos11cit5": 3292,
      "drivetrucktru3pos77pos11cit1": 3293,
      "drivetrucktru3pos77pos11cit6": 3294,
      "drivetrucktru3pos77pos44cit1": 3295,
      "drivetrucktru3pos77pos44cit3": 3296,
      "drivetrucktru3pos77pos44cit2": 3297,
      "drivetrucktru3pos77pos44cit4": 3298,
      "drivetrucktru3pos77pos44cit5": 3299,
      "drivetrucktru3pos77pos44cit6": 3300,
      "drivetrucktru3pos77pos55cit1": 3301,
      "drivetrucktru3pos77pos55cit3": 3302,
      "drivetrucktru3pos77pos55cit2": 3303,
      "drivetrucktru3pos77pos55cit4": 3304,
      "drivetrucktru3pos77pos55cit5": 3305,
      "drivetrucktru3pos77pos55cit6": 3306,
      "drivetrucktru3pos77pos66cit1": 3307,
      "drivetrucktru3pos77pos66cit3": 3308,
      "drivetrucktru3pos77pos66cit2": 3309,
      "drivetrucktru3pos77pos66cit4": 3310,
      "drivetrucktru3pos77pos66cit5": 3311,
      "drivetrucktru3pos77pos66cit6": 3312,
      "drivetrucktru3pos55pos23cit3": 3313,
      "drivetrucktru3pos55pos23cit2": 3314,
      "drivetrucktru3pos55pos23cit4": 3315,
      "drivetrucktru3pos55pos23cit5": 3316,
      "drivetrucktru3pos55pos23cit1": 3317,
      "drivetrucktru3pos55pos23cit6": 3318,
      "drivetrucktru3pos55pos13cit3": 3319,
      "drivetrucktru3pos55pos13cit2": 3320,
      "drivetrucktru3pos55pos13cit4": 3321,
      "drivetrucktru3pos55pos13cit5": 3322,
      "drivetrucktru3pos55pos13cit1": 3323,
      "drivetrucktru3pos55pos13cit6": 3324,
      "drivetrucktru3pos55pos33cit3": 3325,
      "drivetrucktru3pos55pos33cit2": 3326,
      "drivetrucktru3pos55pos33cit4": 3327,
      "drivetrucktru3pos55pos33cit5": 3328,
      "drivetrucktru3pos55pos33cit1": 3329,
      "drivetrucktru3pos55pos33cit6": 3330,
      "drivetrucktru3pos55pos22cit3": 3331,
      "drivetrucktru3pos55pos22cit2": 3332,
      "drivetrucktru3pos55pos22cit4": 3333,
      "drivetrucktru3pos55pos22cit5": 3334,
      "drivetrucktru3pos55pos22cit1": 3335,
      "drivetrucktru3pos55pos22cit6": 3336,
      "drivetrucktru3pos55pos21cit3": 3337,
      "drivetrucktru3pos55pos21cit2": 3338,
      "drivetrucktru3pos55pos21cit4": 3339,
      "drivetrucktru3pos55pos21cit5": 3340,
      "drivetrucktru3pos55pos21cit1": 3341,
      "drivetrucktru3pos55pos21cit6": 3342,
      "drivetrucktru3pos55pos12cit3": 3343,
      "drivetrucktru3pos55pos12cit2": 3344,
      "drivetrucktru3pos55pos12cit4": 3345,
      "drivetrucktru3pos55pos12cit5": 3346,
      "drivetrucktru3pos55pos12cit1": 3347,
      "drivetrucktru3pos55pos12cit6": 3348,
      "drivetrucktru3pos55pos11cit3": 3349,
      "drivetrucktru3pos55pos11cit2": 3350,
      "drivetrucktru3pos55pos11cit4": 3351,
      "drivetrucktru3pos55pos11cit5": 3352,
      "drivetrucktru3pos55pos11cit1": 3353,
      "drivetrucktru3pos55pos11cit6": 3354,
      "drivetrucktru3pos55pos44cit1": 3355,
      "drivetrucktru3pos55pos44cit3": 3356,
      "drivetrucktru3pos55pos44cit2": 3357,
      "drivetrucktru3pos55pos44cit4": 3358,
      "drivetrucktru3pos55pos44cit5": 3359,
      "drivetrucktru3pos55pos44cit6": 3360,
      "drivetrucktru3pos55pos77cit1": 3361,
      "drivetrucktru3pos55pos77cit3": 3362,
      "drivetrucktru3pos55pos77cit2": 3363,
      "drivetrucktru3pos55pos77cit4": 3364,
      "drivetrucktru3pos55pos77cit5": 3365,
      "drivetrucktru3pos55pos77cit6": 3366,
      "drivetrucktru3pos55pos66cit1": 3367,
      "drivetrucktru3pos55pos66cit3": 3368,
      "drivetrucktru3pos55pos66cit2": 3369,
      "drivetrucktru3pos55pos66cit4": 3370,
      "drivetrucktru3pos55pos66cit5": 3371,
      "drivetrucktru3pos55pos66cit6": 3372,
      "drivetrucktru3pos66pos23cit3": 3373,
      "drivetrucktru3pos66pos23cit2": 3374,
      "drivetrucktru3pos66pos23cit4": 3375,
      "drivetrucktru3pos66pos23cit5": 3376,
      "drivetrucktru3pos66pos23cit1": 3377,
      "drivetrucktru3pos66pos23cit6": 3378,
      "drivetrucktru3pos66pos13cit3": 3379,
      "drivetrucktru3pos66pos13cit2": 3380,
      "drivetrucktru3pos66pos13cit4": 3381,
      "drivetrucktru3pos66pos13cit5": 3382,
      "drivetrucktru3pos66pos13cit1": 3383,
      "drivetrucktru3pos66pos13cit6": 3384,
      "drivetrucktru3pos66pos33cit3": 3385,
      "drivetrucktru3pos66pos33cit2": 3386,
      "drivetrucktru3pos66pos33cit4": 3387,
      "drivetrucktru3pos66pos33cit5": 3388,
      "drivetrucktru3pos66pos33cit1": 3389,
      "drivetrucktru3pos66pos33cit6": 3390,
      "drivetrucktru3pos66pos22cit3": 3391,
      "drivetrucktru3pos66pos22cit2": 3392,
      "drivetrucktru3pos66pos22cit4": 3393,
      "drivetrucktru3pos66pos22cit5": 3394,
      "drivetrucktru3pos66pos22cit1": 3395,
      "drivetrucktru3pos66pos22cit6": 3396,
      "drivetrucktru3pos66pos21cit3": 3397,
      "drivetrucktru3pos66pos21cit2": 3398,
      "drivetrucktru3pos66pos21cit4": 3399,
      "drivetrucktru3pos66pos21cit5": 3400,
      "drivetrucktru3pos66pos21cit1": 3401,
      "drivetrucktru3pos66pos21cit6": 3402,
      "drivetrucktru3pos66pos12cit3": 3403,
      "drivetrucktru3pos66pos12cit2": 3404,
      "drivetrucktru3pos66pos12cit4": 3405,
      "drivetrucktru3pos66pos12cit5": 3406,
      "drivetrucktru3pos66pos12cit1": 3407,
      "drivetrucktru3pos66pos12cit6": 3408,
      "drivetrucktru3pos66pos11cit3": 3409,
      "drivetrucktru3pos66pos11cit2": 3410,
      "drivetrucktru3pos66pos11cit4": 3411,
      "drivetrucktru3pos66pos11cit5": 3412,
      "drivetrucktru3pos66pos11cit1": 3413,
      "drivetrucktru3pos66pos11cit6": 3414,
      "drivetrucktru3pos66pos44cit1": 3415,
      "drivetrucktru3pos66pos44cit3": 3416,
      "drivetrucktru3pos66pos44cit2": 3417,
      "drivetrucktru3pos66pos44cit4": 3418,
      "drivetrucktru3pos66pos44cit5": 3419,
      "drivetrucktru3pos66pos44cit6": 3420,
      "drivetrucktru3pos66pos77cit1": 3421,
      "drivetrucktru3pos66pos77cit3": 3422,
      "drivetrucktru3pos66pos77cit2": 3423,
      "drivetrucktru3pos66pos77cit4": 3424,
      "drivetrucktru3pos66pos77cit5": 3425,
      "drivetrucktru3pos66pos77cit6": 3426,
      "drivetrucktru3pos66pos55cit1": 3427,
      "drivetrucktru3pos66pos55cit3": 3428,
      "drivetrucktru3pos66pos55cit2": 3429,
      "drivetrucktru3pos66pos55cit4": 3430,
      "drivetrucktru3pos66pos55cit5": 3431,
      "drivetrucktru3pos66pos55cit6": 3432,
      "loadtruckobj33tru3apt7": 3433,
      "loadtruckobj33tru3apt5": 3434,
      "loadtruckobj33tru3apt8": 3435,
      "loadtruckobj33tru3apt6": 3436,
      "loadtruckobj33tru3apt4": 3437,
      "loadtruckobj33tru2apt4": 3438,
      "loadtruckobj33tru2apt7": 3439,
      "loadtruckobj33tru2apt5": 3440,
      "loadtruckobj33tru2apt8": 3441,
      "loadtruckobj33tru2apt6": 3442,
      "loadtruckobj33tru1apt7": 3443,
      "loadtruckobj33tru1apt5": 3444,
      "loadtruckobj33tru1apt8": 3445,
      "loadtruckobj33tru1apt6": 3446,
      "loadtruckobj33tru1apt4": 3447,
      "loadtruckobj33tru3pos44": 3448,
      "loadtruckobj33tru3pos77": 3449,
      "loadtruckobj33tru3pos55": 3450,
      "loadtruckobj33tru3pos66": 3451,
      "loadtruckobj33tru4apt7": 3452,
      "loadtruckobj33tru4apt5": 3453,
      "loadtruckobj33tru4apt8": 3454,
      "loadtruckobj33tru4apt6": 3455,
      "loadtruckobj33tru5apt7": 3456,
      "loadtruckobj33tru5apt8": 3457,
      "loadtruckobj33tru5apt6": 3458,
      "loadtruckobj33tru5apt4": 3459,
      "loadtruckobj33tru2pos44": 3460,
      "loadtruckobj33tru2pos77": 3461,
      "loadtruckobj33tru2pos55": 3462,
      "loadtruckobj33tru2pos66": 3463,
      "loadtruckobj33tru1pos44": 3464,
      "loadtruckobj33tru1pos77": 3465,
      "loadtruckobj33tru1pos55": 3466,
      "loadtruckobj33tru1pos66": 3467,
      "loadtruckobj33tru3apt2": 3468,
      "loadtruckobj33tru3apt1": 3469,
      "loadtruckobj33tru2apt3": 3470,
      "loadtruckobj33tru2apt1": 3471,
      "loadtruckobj33tru1apt3": 3472,
      "loadtruckobj33tru1apt2": 3473,
      "loadtruckobj33tru4apt3": 3474,
      "loadtruckobj33tru4apt2": 3475,
      "loadtruckobj33tru4apt1": 3476,
      "loadtruckobj33tru5apt3": 3477,
      "loadtruckobj33tru5apt2": 3478,
      "loadtruckobj33tru5apt1": 3479,
      "loadtruckobj33tru3apt3": 3480,
      "loadtruckobj33tru2apt2": 3481,
      "loadtruckobj33tru1apt1": 3482,
      "loadtruckobj33tru4apt4": 3483,
      "loadtruckobj33tru5apt5": 3484,
      "loadtruckobj33tru3pos23": 3485,
      "loadtruckobj33tru3pos22": 3486,
      "loadtruckobj33tru3pos21": 3487,
      "loadtruckobj33tru3pos13": 3488,
      "loadtruckobj33tru3pos12": 3489,
      "loadtruckobj33tru3pos11": 3490,
      "loadtruckobj33tru3pos33": 3491,
      "loadtruckobj33tru2pos22": 3492,
      "loadtruckobj33tru2pos21": 3493,
      "loadtruckobj33tru2pos12": 3494,
      "loadtruckobj33tru2pos11": 3495,
      "loadtruckobj33tru2pos23": 3496,
      "loadtruckobj33tru2pos13": 3497,
      "loadtruckobj33tru2pos33": 3498,
      "loadtruckobj33tru1pos22": 3499,
      "loadtruckobj33tru1pos21": 3500,
      "loadtruckobj33tru1pos12": 3501,
      "loadtruckobj33tru1pos11": 3502,
      "loadtruckobj33tru1pos23": 3503,
      "loadtruckobj33tru1pos13": 3504,
      "loadtruckobj33tru1pos33": 3505,
      "loadtruckobj33tru4pos44": 3506,
      "loadtruckobj33tru4pos77": 3507,
      "loadtruckobj33tru4pos55": 3508,
      "loadtruckobj33tru4pos66": 3509,
      "loadtruckobj33tru4pos22": 3510,
      "loadtruckobj33tru4pos21": 3511,
      "loadtruckobj33tru4pos12": 3512,
      "loadtruckobj33tru4pos11": 3513,
      "loadtruckobj33tru4pos23": 3514,
      "loadtruckobj33tru4pos13": 3515,
      "loadtruckobj33tru4pos33": 3516,
      "loadtruckobj33tru5pos44": 3517,
      "loadtruckobj33tru5pos77": 3518,
      "loadtruckobj33tru5pos55": 3519,
      "loadtruckobj33tru5pos66": 3520,
      "loadtruckobj33tru5pos22": 3521,
      "loadtruckobj33tru5pos21": 3522,
      "loadtruckobj33tru5pos12": 3523,
      "loadtruckobj33tru5pos11": 3524,
      "loadtruckobj33tru5pos23": 3525,
      "loadtruckobj33tru5pos13": 3526,
      "loadtruckobj33tru5pos33": 3527,
      "loadtruckobj44tru3apt7": 3528,
      "loadtruckobj44tru3apt5": 3529,
      "loadtruckobj44tru3apt8": 3530,
      "loadtruckobj44tru3apt6": 3531,
      "loadtruckobj44tru3apt4": 3532,
      "loadtruckobj44tru2apt4": 3533,
      "loadtruckobj44tru2apt7": 3534,
      "loadtruckobj44tru2apt5": 3535,
      "loadtruckobj44tru2apt8": 3536,
      "loadtruckobj44tru2apt6": 3537,
      "loadtruckobj44tru1apt7": 3538,
      "loadtruckobj44tru1apt5": 3539,
      "loadtruckobj44tru1apt8": 3540,
      "loadtruckobj44tru1apt6": 3541,
      "loadtruckobj44tru1apt4": 3542,
      "loadtruckobj44tru3pos44": 3543,
      "loadtruckobj44tru3pos77": 3544,
      "loadtruckobj44tru3pos55": 3545,
      "loadtruckobj44tru3pos66": 3546,
      "loadtruckobj44tru4apt7": 3547,
      "loadtruckobj44tru4apt5": 3548,
      "loadtruckobj44tru4apt8": 3549,
      "loadtruckobj44tru4apt6": 3550,
      "loadtruckobj44tru5apt7": 3551,
      "loadtruckobj44tru5apt8": 3552,
      "loadtruckobj44tru5apt6": 3553,
      "loadtruckobj44tru5apt4": 3554,
      "loadtruckobj44tru2pos44": 3555,
      "loadtruckobj44tru2pos77": 3556,
      "loadtruckobj44tru2pos55": 3557,
      "loadtruckobj44tru2pos66": 3558,
      "loadtruckobj44tru1pos44": 3559,
      "loadtruckobj44tru1pos77": 3560,
      "loadtruckobj44tru1pos55": 3561,
      "loadtruckobj44tru1pos66": 3562,
      "loadtruckobj44tru3apt2": 3563,
      "loadtruckobj44tru3apt1": 3564,
      "loadtruckobj44tru2apt3": 3565,
      "loadtruckobj44tru2apt1": 3566,
      "loadtruckobj44tru1apt3": 3567,
      "loadtruckobj44tru1apt2": 3568,
      "loadtruckobj44tru4apt3": 3569,
      "loadtruckobj44tru4apt2": 3570,
      "loadtruckobj44tru4apt1": 3571,
      "loadtruckobj44tru5apt3": 3572,
      "loadtruckobj44tru5apt2": 3573,
      "loadtruckobj44tru5apt1": 3574,
      "loadtruckobj44tru3apt3": 3575,
      "loadtruckobj44tru2apt2": 3576,
      "loadtruckobj44tru1apt1": 3577,
      "loadtruckobj44tru4apt4": 3578,
      "loadtruckobj44tru5apt5": 3579,
      "loadtruckobj44tru3pos23": 3580,
      "loadtruckobj44tru3pos22": 3581,
      "loadtruckobj44tru3pos21": 3582,
      "loadtruckobj44tru3pos13": 3583,
      "loadtruckobj44tru3pos12": 3584,
      "loadtruckobj44tru3pos11": 3585,
      "loadtruckobj44tru3pos33": 3586,
      "loadtruckobj44tru2pos22": 3587,
      "loadtruckobj44tru2pos21": 3588,
      "loadtruckobj44tru2pos12": 3589,
      "loadtruckobj44tru2pos11": 3590,
      "loadtruckobj44tru2pos23": 3591,
      "loadtruckobj44tru2pos13": 3592,
      "loadtruckobj44tru2pos33": 3593,
      "loadtruckobj44tru1pos22": 3594,
      "loadtruckobj44tru1pos21": 3595,
      "loadtruckobj44tru1pos12": 3596,
      "loadtruckobj44tru1pos11": 3597,
      "loadtruckobj44tru1pos23": 3598,
      "loadtruckobj44tru1pos13": 3599,
      "loadtruckobj44tru1pos33": 3600,
      "loadtruckobj44tru4pos44": 3601,
      "loadtruckobj44tru4pos77": 3602,
      "loadtruckobj44tru4pos55": 3603,
      "loadtruckobj44tru4pos66": 3604,
      "loadtruckobj44tru4pos22": 3605,
      "loadtruckobj44tru4pos21": 3606,
      "loadtruckobj44tru4pos12": 3607,
      "loadtruckobj44tru4pos11": 3608,
      "loadtruckobj44tru4pos23": 3609,
      "loadtruckobj44tru4pos13": 3610,
      "loadtruckobj44tru4pos33": 3611,
      "loadtruckobj44tru5pos44": 3612,
      "loadtruckobj44tru5pos77": 3613,
      "loadtruckobj44tru5pos55": 3614,
      "loadtruckobj44tru5pos66": 3615,
      "loadtruckobj44tru5pos22": 3616,
      "loadtruckobj44tru5pos21": 3617,
      "loadtruckobj44tru5pos12": 3618,
      "loadtruckobj44tru5pos11": 3619,
      "loadtruckobj44tru5pos23": 3620,
      "loadtruckobj44tru5pos13": 3621,
      "loadtruckobj44tru5pos33": 3622,
      "loadtruckobj77tru3apt7": 3623,
      "loadtruckobj77tru3apt5": 3624,
      "loadtruckobj77tru3apt8": 3625,
      "loadtruckobj77tru3apt6": 3626,
      "loadtruckobj77tru3apt4": 3627,
      "loadtruckobj77tru2apt4": 3628,
      "loadtruckobj77tru2apt7": 3629,
      "loadtruckobj77tru2apt5": 3630,
      "loadtruckobj77tru2apt8": 3631,
      "loadtruckobj77tru2apt6": 3632,
      "loadtruckobj77tru1apt7": 3633,
      "loadtruckobj77tru1apt5": 3634,
      "loadtruckobj77tru1apt8": 3635,
      "loadtruckobj77tru1apt6": 3636,
      "loadtruckobj77tru1apt4": 3637,
      "loadtruckobj77tru3pos44": 3638,
      "loadtruckobj77tru3pos77": 3639,
      "loadtruckobj77tru3pos55": 3640,
      "loadtruckobj77tru3pos66": 3641,
      "loadtruckobj77tru4apt7": 3642,
      "loadtruckobj77tru4apt5": 3643,
      "loadtruckobj77tru4apt8": 3644,
      "loadtruckobj77tru4apt6": 3645,
      "loadtruckobj77tru5apt7": 3646,
      "loadtruckobj77tru5apt8": 3647,
      "loadtruckobj77tru5apt6": 3648,
      "loadtruckobj77tru5apt4": 3649,
      "loadtruckobj77tru2pos44": 3650,
      "loadtruckobj77tru2pos77": 3651,
      "loadtruckobj77tru2pos55": 3652,
      "loadtruckobj77tru2pos66": 3653,
      "loadtruckobj77tru1pos44": 3654,
      "loadtruckobj77tru1pos77": 3655,
      "loadtruckobj77tru1pos55": 3656,
      "loadtruckobj77tru1pos66": 3657,
      "loadtruckobj77tru3apt2": 3658,
      "loadtruckobj77tru3apt1": 3659,
      "loadtruckobj77tru2apt3": 3660,
      "loadtruckobj77tru2apt1": 3661,
      "loadtruckobj77tru1apt3": 3662,
      "loadtruckobj77tru1apt2": 3663,
      "loadtruckobj77tru4apt3": 3664,
      "loadtruckobj77tru4apt2": 3665,
      "loadtruckobj77tru4apt1": 3666,
      "loadtruckobj77tru5apt3": 3667,
      "loadtruckobj77tru5apt2": 3668,
      "loadtruckobj77tru5apt1": 3669,
      "loadtruckobj77tru3apt3": 3670,
      "loadtruckobj77tru2apt2": 3671,
      "loadtruckobj77tru1apt1": 3672,
      "loadtruckobj77tru4apt4": 3673,
      "loadtruckobj77tru5apt5": 3674,
      "loadtruckobj77tru3pos23": 3675,
      "loadtruckobj77tru3pos22": 3676,
      "loadtruckobj77tru3pos21": 3677,
      "loadtruckobj77tru3pos13": 3678,
      "loadtruckobj77tru3pos12": 3679,
      "loadtruckobj77tru3pos11": 3680,
      "loadtruckobj77tru3pos33": 3681,
      "loadtruckobj77tru2pos22": 3682,
      "loadtruckobj77tru2pos21": 3683,
      "loadtruckobj77tru2pos12": 3684,
      "loadtruckobj77tru2pos11": 3685,
      "loadtruckobj77tru2pos23": 3686,
      "loadtruckobj77tru2pos13": 3687,
      "loadtruckobj77tru2pos33": 3688,
      "loadtruckobj77tru1pos22": 3689,
      "loadtruckobj77tru1pos21": 3690,
      "loadtruckobj77tru1pos12": 3691,
      "loadtruckobj77tru1pos11": 3692,
      "loadtruckobj77tru1pos23": 3693,
      "loadtruckobj77tru1pos13": 3694,
      "loadtruckobj77tru1pos33": 3695,
      "loadtruckobj77tru4pos44": 3696,
      "loadtruckobj77tru4pos77": 3697,
      "loadtruckobj77tru4pos55": 3698,
      "loadtruckobj77tru4pos66": 3699,
      "loadtruckobj77tru4pos22": 3700,
      "loadtruckobj77tru4pos21": 3701,
      "loadtruckobj77tru4pos12": 3702,
      "loadtruckobj77tru4pos11": 3703,
      "loadtruckobj77tru4pos23": 3704,
      "loadtruckobj77tru4pos13": 3705,
      "loadtruckobj77tru4pos33": 3706,
      "loadtruckobj77tru5pos44": 3707,
      "loadtruckobj77tru5pos77": 3708,
      "loadtruckobj77tru5pos55": 3709,
      "loadtruckobj77tru5pos66": 3710,
      "loadtruckobj77tru5pos22": 3711,
      "loadtruckobj77tru5pos21": 3712,
      "loadtruckobj77tru5pos12": 3713,
      "loadtruckobj77tru5pos11": 3714,
      "loadtruckobj77tru5pos23": 3715,
      "loadtruckobj77tru5pos13": 3716,
      "loadtruckobj77tru5pos33": 3717,
      "loadtruckobj55tru3apt7": 3718,
      "loadtruckobj55tru3apt5": 3719,
      "loadtruckobj55tru3apt8": 3720,
      "loadtruckobj55tru3apt6": 3721,
      "loadtruckobj55tru3apt4": 3722,
      "loadtruckobj55tru2apt4": 3723,
      "loadtruckobj55tru2apt7": 3724,
      "loadtruckobj55tru2apt5": 3725,
      "loadtruckobj55tru2apt8": 3726,
      "loadtruckobj55tru2apt6": 3727,
      "loadtruckobj55tru1apt7": 3728,
      "loadtruckobj55tru1apt5": 3729,
      "loadtruckobj55tru1apt8": 3730,
      "loadtruckobj55tru1apt6": 3731,
      "loadtruckobj55tru1apt4": 3732,
      "loadtruckobj55tru3pos44": 3733,
      "loadtruckobj55tru3pos77": 3734,
      "loadtruckobj55tru3pos55": 3735,
      "loadtruckobj55tru3pos66": 3736,
      "loadtruckobj55tru4apt7": 3737,
      "loadtruckobj55tru4apt5": 3738,
      "loadtruckobj55tru4apt8": 3739,
      "loadtruckobj55tru4apt6": 3740,
      "loadtruckobj55tru5apt7": 3741,
      "loadtruckobj55tru5apt8": 3742,
      "loadtruckobj55tru5apt6": 3743,
      "loadtruckobj55tru5apt4": 3744,
      "loadtruckobj55tru2pos44": 3745,
      "loadtruckobj55tru2pos77": 3746,
      "loadtruckobj55tru2pos55": 3747,
      "loadtruckobj55tru2pos66": 3748,
      "loadtruckobj55tru1pos44": 3749,
      "loadtruckobj55tru1pos77": 3750,
      "loadtruckobj55tru1pos55": 3751,
      "loadtruckobj55tru1pos66": 3752,
      "loadtruckobj55tru3apt2": 3753,
      "loadtruckobj55tru3apt1": 3754,
      "loadtruckobj55tru2apt3": 3755,
      "loadtruckobj55tru2apt1": 3756,
      "loadtruckobj55tru1apt3": 3757,
      "loadtruckobj55tru1apt2": 3758,
      "loadtruckobj55tru4apt3": 3759,
      "loadtruckobj55tru4apt2": 3760,
      "loadtruckobj55tru4apt1": 3761,
      "loadtruckobj55tru5apt3": 3762,
      "loadtruckobj55tru5apt2": 3763,
      "loadtruckobj55tru5apt1": 3764,
      "loadtruckobj55tru3apt3": 3765,
      "loadtruckobj55tru2apt2": 3766,
      "loadtruckobj55tru1apt1": 3767,
      "loadtruckobj55tru4apt4": 3768,
      "loadtruckobj55tru5apt5": 3769,
      "loadtruckobj55tru3pos23": 3770,
      "loadtruckobj55tru3pos22": 3771,
      "loadtruckobj55tru3pos21": 3772,
      "loadtruckobj55tru3pos13": 3773,
      "loadtruckobj55tru3pos12": 3774,
      "loadtruckobj55tru3pos11": 3775,
      "loadtruckobj55tru3pos33": 3776,
      "loadtruckobj55tru2pos22": 3777,
      "loadtruckobj55tru2pos21": 3778,
      "loadtruckobj55tru2pos12": 3779,
      "loadtruckobj55tru2pos11": 3780,
      "loadtruckobj55tru2pos23": 3781,
      "loadtruckobj55tru2pos13": 3782,
      "loadtruckobj55tru2pos33": 3783,
      "loadtruckobj55tru1pos22": 3784,
      "loadtruckobj55tru1pos21": 3785,
      "loadtruckobj55tru1pos12": 3786,
      "loadtruckobj55tru1pos11": 3787,
      "loadtruckobj55tru1pos23": 3788,
      "loadtruckobj55tru1pos13": 3789,
      "loadtruckobj55tru1pos33": 3790,
      "loadtruckobj55tru4pos44": 3791,
      "loadtruckobj55tru4pos77": 3792,
      "loadtruckobj55tru4pos55": 3793,
      "loadtruckobj55tru4pos66": 3794,
      "loadtruckobj55tru4pos22": 3795,
      "loadtruckobj55tru4pos21": 3796,
      "loadtruckobj55tru4pos12": 3797,
      "loadtruckobj55tru4pos11": 3798,
      "loadtruckobj55tru4pos23": 3799,
      "loadtruckobj55tru4pos13": 3800,
      "loadtruckobj55tru4pos33": 3801,
      "loadtruckobj55tru5pos44": 3802,
      "loadtruckobj55tru5pos77": 3803,
      "loadtruckobj55tru5pos55": 3804,
      "loadtruckobj55tru5pos66": 3805,
      "loadtruckobj55tru5pos22": 3806,
      "loadtruckobj55tru5pos21": 3807,
      "loadtruckobj55tru5pos12": 3808,
      "loadtruckobj55tru5pos11": 3809,
      "loadtruckobj55tru5pos23": 3810,
      "loadtruckobj55tru5pos13": 3811,
      "loadtruckobj55tru5pos33": 3812,
      "loadtruckobj66tru3apt7": 3813,
      "loadtruckobj66tru3apt5": 3814,
      "loadtruckobj66tru3apt8": 3815,
      "loadtruckobj66tru3apt6": 3816,
      "loadtruckobj66tru3apt4": 3817,
      "loadtruckobj66tru2apt4": 3818,
      "loadtruckobj66tru2apt7": 3819,
      "loadtruckobj66tru2apt5": 3820,
      "loadtruckobj66tru2apt8": 3821,
      "loadtruckobj66tru2apt6": 3822,
      "loadtruckobj66tru1apt7": 3823,
      "loadtruckobj66tru1apt5": 3824,
      "loadtruckobj66tru1apt8": 3825,
      "loadtruckobj66tru1apt6": 3826,
      "loadtruckobj66tru1apt4": 3827,
      "loadtruckobj66tru3pos44": 3828,
      "loadtruckobj66tru3pos77": 3829,
      "loadtruckobj66tru3pos55": 3830,
      "loadtruckobj66tru3pos66": 3831,
      "loadtruckobj66tru4apt7": 3832,
      "loadtruckobj66tru4apt5": 3833,
      "loadtruckobj66tru4apt8": 3834,
      "loadtruckobj66tru4apt6": 3835,
      "loadtruckobj66tru5apt7": 3836,
      "loadtruckobj66tru5apt8": 3837,
      "loadtruckobj66tru5apt6": 3838,
      "loadtruckobj66tru5apt4": 3839,
      "loadtruckobj66tru2pos44": 3840,
      "loadtruckobj66tru2pos77": 3841,
      "loadtruckobj66tru2pos55": 3842,
      "loadtruckobj66tru2pos66": 3843,
      "loadtruckobj66tru1pos44": 3844,
      "loadtruckobj66tru1pos77": 3845,
      "loadtruckobj66tru1pos55": 3846,
      "loadtruckobj66tru1pos66": 3847,
      "loadtruckobj66tru3apt2": 3848,
      "loadtruckobj66tru3apt1": 3849,
      "loadtruckobj66tru2apt3": 3850,
      "loadtruckobj66tru2apt1": 3851,
      "loadtruckobj66tru1apt3": 3852,
      "loadtruckobj66tru1apt2": 3853,
      "loadtruckobj66tru4apt3": 3854,
      "loadtruckobj66tru4apt2": 3855,
      "loadtruckobj66tru4apt1": 3856,
      "loadtruckobj66tru5apt3": 3857,
      "loadtruckobj66tru5apt2": 3858,
      "loadtruckobj66tru5apt1": 3859,
      "loadtruckobj66tru3apt3": 3860,
      "loadtruckobj66tru2apt2": 3861,
      "loadtruckobj66tru1apt1": 3862,
      "loadtruckobj66tru4apt4": 3863,
      "loadtruckobj66tru5apt5": 3864,
      "loadtruckobj66tru3pos23": 3865,
      "loadtruckobj66tru3pos22": 3866,
      "loadtruckobj66tru3pos21": 3867,
      "loadtruckobj66tru3pos13": 3868,
      "loadtruckobj66tru3pos12": 3869,
      "loadtruckobj66tru3pos11": 3870,
      "loadtruckobj66tru3pos33": 3871,
      "loadtruckobj66tru2pos22": 3872,
      "loadtruckobj66tru2pos21": 3873,
      "loadtruckobj66tru2pos12": 3874,
      "loadtruckobj66tru2pos11": 3875,
      "loadtruckobj66tru2pos23": 3876,
      "loadtruckobj66tru2pos13": 3877,
      "loadtruckobj66tru2pos33": 3878,
      "loadtruckobj66tru1pos22": 3879,
      "loadtruckobj66tru1pos21": 3880,
      "loadtruckobj66tru1pos12": 3881,
      "loadtruckobj66tru1pos11": 3882,
      "loadtruckobj66tru1pos23": 3883,
      "loadtruckobj66tru1pos13": 3884,
      "loadtruckobj66tru1pos33": 3885,
      "loadtruckobj66tru4pos44": 3886,
      "loadtruckobj66tru4pos77": 3887,
      "loadtruckobj66tru4pos55": 3888,
      "loadtruckobj66tru4pos66": 3889,
      "loadtruckobj66tru4pos22": 3890,
      "loadtruckobj66tru4pos21": 3891,
      "loadtruckobj66tru4pos12": 3892,
      "loadtruckobj66tru4pos11": 3893,
      "loadtruckobj66tru4pos23": 3894,
      "loadtruckobj66tru4pos13": 3895,
      "loadtruckobj66tru4pos33": 3896,
      "loadtruckobj66tru5pos44": 3897,
      "loadtruckobj66tru5pos77": 3898,
      "loadtruckobj66tru5pos55": 3899,
      "loadtruckobj66tru5pos66": 3900,
      "loadtruckobj66tru5pos22": 3901,
      "loadtruckobj66tru5pos21": 3902,
      "loadtruckobj66tru5pos12": 3903,
      "loadtruckobj66tru5pos11": 3904,
      "loadtruckobj66tru5pos23": 3905,
      "loadtruckobj66tru5pos13": 3906,
      "loadtruckobj66tru5pos33": 3907,
      "loadtruckobj99tru3apt7": 3908,
      "loadtruckobj99tru3apt5": 3909,
      "loadtruckobj99tru3apt8": 3910,
      "loadtruckobj99tru3apt6": 3911,
      "loadtruckobj99tru3apt4": 3912,
      "loadtruckobj99tru2apt4": 3913,
      "loadtruckobj99tru2apt7": 3914,
      "loadtruckobj99tru2apt5": 3915,
      "loadtruckobj99tru2apt8": 3916,
      "loadtruckobj99tru2apt6": 3917,
      "loadtruckobj99tru1apt7": 3918,
      "loadtruckobj99tru1apt5": 3919,
      "loadtruckobj99tru1apt8": 3920,
      "loadtruckobj99tru1apt6": 3921,
      "loadtruckobj99tru1apt4": 3922,
      "loadtruckobj99tru3pos44": 3923,
      "loadtruckobj99tru3pos77": 3924,
      "loadtruckobj99tru3pos55": 3925,
      "loadtruckobj99tru3pos66": 3926,
      "loadtruckobj99tru4apt7": 3927,
      "loadtruckobj99tru4apt5": 3928,
      "loadtruckobj99tru4apt8": 3929,
      "loadtruckobj99tru4apt6": 3930,
      "loadtruckobj99tru5apt7": 3931,
      "loadtruckobj99tru5apt8": 3932,
      "loadtruckobj99tru5apt6": 3933,
      "loadtruckobj99tru5apt4": 3934,
      "loadtruckobj99tru2pos44": 3935,
      "loadtruckobj99tru2pos77": 3936,
      "loadtruckobj99tru2pos55": 3937,
      "loadtruckobj99tru2pos66": 3938,
      "loadtruckobj99tru1pos44": 3939,
      "loadtruckobj99tru1pos77": 3940,
      "loadtruckobj99tru1pos55": 3941,
      "loadtruckobj99tru1pos66": 3942,
      "loadtruckobj99tru3apt2": 3943,
      "loadtruckobj99tru3apt1": 3944,
      "loadtruckobj99tru2apt3": 3945,
      "loadtruckobj99tru2apt1": 3946,
      "loadtruckobj99tru1apt3": 3947,
      "loadtruckobj99tru1apt2": 3948,
      "loadtruckobj99tru4apt3": 3949,
      "loadtruckobj99tru4apt2": 3950,
      "loadtruckobj99tru4apt1": 3951,
      "loadtruckobj99tru5apt3": 3952,
      "loadtruckobj99tru5apt2": 3953,
      "loadtruckobj99tru5apt1": 3954,
      "loadtruckobj99tru3apt3": 3955,
      "loadtruckobj99tru2apt2": 3956,
      "loadtruckobj99tru1apt1": 3957,
      "loadtruckobj99tru4apt4": 3958,
      "loadtruckobj99tru5apt5": 3959,
      "loadtruckobj99tru3pos23": 3960,
      "loadtruckobj99tru3pos22": 3961,
      "loadtruckobj99tru3pos21": 3962,
      "loadtruckobj99tru3pos13": 3963,
      "loadtruckobj99tru3pos12": 3964,
      "loadtruckobj99tru3pos11": 3965,
      "loadtruckobj99tru3pos33": 3966,
      "loadtruckobj99tru2pos22": 3967,
      "loadtruckobj99tru2pos21": 3968,
      "loadtruckobj99tru2pos12": 3969,
      "loadtruckobj99tru2pos11": 3970,
      "loadtruckobj99tru2pos23": 3971,
      "loadtruckobj99tru2pos13": 3972,
      "loadtruckobj99tru2pos33": 3973,
      "loadtruckobj99tru1pos22": 3974,
      "loadtruckobj99tru1pos21": 3975,
      "loadtruckobj99tru1pos12": 3976,
      "loadtruckobj99tru1pos11": 3977,
      "loadtruckobj99tru1pos23": 3978,
      "loadtruckobj99tru1pos13": 3979,
      "loadtruckobj99tru1pos33": 3980,
      "loadtruckobj99tru4pos44": 3981,
      "loadtruckobj99tru4pos77": 3982,
      "loadtruckobj99tru4pos55": 3983,
      "loadtruckobj99tru4pos66": 3984,
      "loadtruckobj99tru4pos22": 3985,
      "loadtruckobj99tru4pos21": 3986,
      "loadtruckobj99tru4pos12": 3987,
      "loadtruckobj99tru4pos11": 3988,
      "loadtruckobj99tru4pos23": 3989,
      "loadtruckobj99tru4pos13": 3990,
      "loadtruckobj99tru4pos33": 3991,
      "loadtruckobj99tru5pos44": 3992,
      "loadtruckobj99tru5pos77": 3993,
      "loadtruckobj99tru5pos55": 3994,
      "loadtruckobj99tru5pos66": 3995,
      "loadtruckobj99tru5pos22": 3996,
      "loadtruckobj99tru5pos21": 3997,
      "loadtruckobj99tru5pos12": 3998,
      "loadtruckobj99tru5pos11": 3999,
      "loadtruckobj99tru5pos23": 4000,
      "loadtruckobj99tru5pos13": 4001,
      "loadtruckobj99tru5pos33": 4002,
      "loadtruckobj88tru3apt7": 4003,
      "loadtruckobj88tru3apt5": 4004,
      "loadtruckobj88tru3apt8": 4005,
      "loadtruckobj88tru3apt6": 4006,
      "loadtruckobj88tru3apt4": 4007,
      "loadtruckobj88tru2apt4": 4008,
      "loadtruckobj88tru2apt7": 4009,
      "loadtruckobj88tru2apt5": 4010,
      "loadtruckobj88tru2apt8": 4011,
      "loadtruckobj88tru2apt6": 4012,
      "loadtruckobj88tru1apt7": 4013,
      "loadtruckobj88tru1apt5": 4014,
      "loadtruckobj88tru1apt8": 4015,
      "loadtruckobj88tru1apt6": 4016,
      "loadtruckobj88tru1apt4": 4017,
      "loadtruckobj88tru3pos44": 4018,
      "loadtruckobj88tru3pos77": 4019,
      "loadtruckobj88tru3pos55": 4020,
      "loadtruckobj88tru3pos66": 4021,
      "loadtruckobj88tru4apt7": 4022,
      "loadtruckobj88tru4apt5": 4023,
      "loadtruckobj88tru4apt8": 4024,
      "loadtruckobj88tru4apt6": 4025,
      "loadtruckobj88tru5apt7": 4026,
      "loadtruckobj88tru5apt8": 4027,
      "loadtruckobj88tru5apt6": 4028,
      "loadtruckobj88tru5apt4": 4029,
      "loadtruckobj88tru2pos44": 4030,
      "loadtruckobj88tru2pos77": 4031,
      "loadtruckobj88tru2pos55": 4032,
      "loadtruckobj88tru2pos66": 4033,
      "loadtruckobj88tru1pos44": 4034,
      "loadtruckobj88tru1pos77": 4035,
      "loadtruckobj88tru1pos55": 4036,
      "loadtruckobj88tru1pos66": 4037,
      "loadtruckobj88tru3apt2": 4038,
      "loadtruckobj88tru3apt1": 4039,
      "loadtruckobj88tru2apt3": 4040,
      "loadtruckobj88tru2apt1": 4041,
      "loadtruckobj88tru1apt3": 4042,
      "loadtruckobj88tru1apt2": 4043,
      "loadtruckobj88tru4apt3": 4044,
      "loadtruckobj88tru4apt2": 4045,
      "loadtruckobj88tru4apt1": 4046,
      "loadtruckobj88tru5apt3": 4047,
      "loadtruckobj88tru5apt2": 4048,
      "loadtruckobj88tru5apt1": 4049,
      "loadtruckobj88tru3apt3": 4050,
      "loadtruckobj88tru2apt2": 4051,
      "loadtruckobj88tru1apt1": 4052,
      "loadtruckobj88tru4apt4": 4053,
      "loadtruckobj88tru5apt5": 4054,
      "loadtruckobj88tru3pos23": 4055,
      "loadtruckobj88tru3pos22": 4056,
      "loadtruckobj88tru3pos21": 4057,
      "loadtruckobj88tru3pos13": 4058,
      "loadtruckobj88tru3pos12": 4059,
      "loadtruckobj88tru3pos11": 4060,
      "loadtruckobj88tru3pos33": 4061,
      "loadtruckobj88tru2pos22": 4062,
      "loadtruckobj88tru2pos21": 4063,
      "loadtruckobj88tru2pos12": 4064,
      "loadtruckobj88tru2pos11": 4065,
      "loadtruckobj88tru2pos23": 4066,
      "loadtruckobj88tru2pos13": 4067,
      "loadtruckobj88tru2pos33": 4068,
      "loadtruckobj88tru1pos22": 4069,
      "loadtruckobj88tru1pos21": 4070,
      "loadtruckobj88tru1pos12": 4071,
      "loadtruckobj88tru1pos11": 4072,
      "loadtruckobj88tru1pos23": 4073,
      "loadtruckobj88tru1pos13": 4074,
      "loadtruckobj88tru1pos33": 4075,
      "loadtruckobj88tru4pos44": 4076,
      "loadtruckobj88tru4pos77": 4077,
      "loadtruckobj88tru4pos55": 4078,
      "loadtruckobj88tru4pos66": 4079,
      "loadtruckobj88tru4pos22": 4080,
      "loadtruckobj88tru4pos21": 4081,
      "loadtruckobj88tru4pos12": 4082,
      "loadtruckobj88tru4pos11": 4083,
      "loadtruckobj88tru4pos23": 4084,
      "loadtruckobj88tru4pos13": 4085,
      "loadtruckobj88tru4pos33": 4086,
      "loadtruckobj88tru5pos44": 4087,
      "loadtruckobj88tru5pos77": 4088,
      "loadtruckobj88tru5pos55": 4089,
      "loadtruckobj88tru5pos66": 4090,
      "loadtruckobj88tru5pos22": 4091,
      "loadtruckobj88tru5pos21": 4092,
      "loadtruckobj88tru5pos12": 4093,
      "loadtruckobj88tru5pos11": 4094,
      "loadtruckobj88tru5pos23": 4095,
      "loadtruckobj88tru5pos13": 4096,
      "loadtruckobj88tru5pos33": 4097,
      "loadtruckobj00tru3apt7": 4098,
      "loadtruckobj00tru3apt5": 4099,
      "loadtruckobj00tru3apt8": 4100,
      "loadtruckobj00tru3apt6": 4101,
      "loadtruckobj00tru3apt4": 4102,
      "loadtruckobj00tru2apt4": 4103,
      "loadtruckobj00tru2apt7": 4104,
      "loadtruckobj00tru2apt5": 4105,
      "loadtruckobj00tru2apt8": 4106,
      "loadtruckobj00tru2apt6": 4107,
      "loadtruckobj00tru1apt7": 4108,
      "loadtruckobj00tru1apt5": 4109,
      "loadtruckobj00tru1apt8": 4110,
      "loadtruckobj00tru1apt6": 4111,
      "loadtruckobj00tru1apt4": 4112,
      "loadtruckobj00tru3pos44": 4113,
      "loadtruckobj00tru3pos77": 4114,
      "loadtruckobj00tru3pos55": 4115,
      "loadtruckobj00tru3pos66": 4116,
      "loadtruckobj00tru4apt7": 4117,
      "loadtruckobj00tru4apt5": 4118,
      "loadtruckobj00tru4apt8": 4119,
      "loadtruckobj00tru4apt6": 4120,
      "loadtruckobj00tru5apt7": 4121,
      "loadtruckobj00tru5apt8": 4122,
      "loadtruckobj00tru5apt6": 4123,
      "loadtruckobj00tru5apt4": 4124,
      "loadtruckobj00tru2pos44": 4125,
      "loadtruckobj00tru2pos77": 4126,
      "loadtruckobj00tru2pos55": 4127,
      "loadtruckobj00tru2pos66": 4128,
      "loadtruckobj00tru1pos44": 4129,
      "loadtruckobj00tru1pos77": 4130,
      "loadtruckobj00tru1pos55": 4131,
      "loadtruckobj00tru1pos66": 4132,
      "loadtruckobj00tru3apt2": 4133,
      "loadtruckobj00tru3apt1": 4134,
      "loadtruckobj00tru2apt3": 4135,
      "loadtruckobj00tru2apt1": 4136,
      "loadtruckobj00tru1apt3": 4137,
      "loadtruckobj00tru1apt2": 4138,
      "loadtruckobj00tru4apt3": 4139,
      "loadtruckobj00tru4apt2": 4140,
      "loadtruckobj00tru4apt1": 4141,
      "loadtruckobj00tru5apt3": 4142,
      "loadtruckobj00tru5apt2": 4143,
      "loadtruckobj00tru5apt1": 4144,
      "loadtruckobj00tru3apt3": 4145,
      "loadtruckobj00tru2apt2": 4146,
      "loadtruckobj00tru1apt1": 4147,
      "loadtruckobj00tru4apt4": 4148,
      "loadtruckobj00tru5apt5": 4149,
      "loadtruckobj00tru3pos23": 4150,
      "loadtruckobj00tru3pos22": 4151,
      "loadtruckobj00tru3pos21": 4152,
      "loadtruckobj00tru3pos13": 4153,
      "loadtruckobj00tru3pos12": 4154,
      "loadtruckobj00tru3pos11": 4155,
      "loadtruckobj00tru3pos33": 4156,
      "loadtruckobj00tru2pos22": 4157,
      "loadtruckobj00tru2pos21": 4158,
      "loadtruckobj00tru2pos12": 4159,
      "loadtruckobj00tru2pos11": 4160,
      "loadtruckobj00tru2pos23": 4161,
      "loadtruckobj00tru2pos13": 4162,
      "loadtruckobj00tru2pos33": 4163,
      "loadtruckobj00tru1pos22": 4164,
      "loadtruckobj00tru1pos21": 4165,
      "loadtruckobj00tru1pos12": 4166,
      "loadtruckobj00tru1pos11": 4167,
      "loadtruckobj00tru1pos23": 4168,
      "loadtruckobj00tru1pos13": 4169,
      "loadtruckobj00tru1pos33": 4170,
      "loadtruckobj00tru4pos44": 4171,
      "loadtruckobj00tru4pos77": 4172,
      "loadtruckobj00tru4pos55": 4173,
      "loadtruckobj00tru4pos66": 4174,
      "loadtruckobj00tru4pos22": 4175,
      "loadtruckobj00tru4pos21": 4176,
      "loadtruckobj00tru4pos12": 4177,
      "loadtruckobj00tru4pos11": 4178,
      "loadtruckobj00tru4pos23": 4179,
      "loadtruckobj00tru4pos13": 4180,
      "loadtruckobj00tru4pos33": 4181,
      "loadtruckobj00tru5pos44": 4182,
      "loadtruckobj00tru5pos77": 4183,
      "loadtruckobj00tru5pos55": 4184,
      "loadtruckobj00tru5pos66": 4185,
      "loadtruckobj00tru5pos22": 4186,
      "loadtruckobj00tru5pos21": 4187,
      "loadtruckobj00tru5pos12": 4188,
      "loadtruckobj00tru5pos11": 4189,
      "loadtruckobj00tru5pos23": 4190,
      "loadtruckobj00tru5pos13": 4191,
      "loadtruckobj00tru5pos33": 4192,
      "unloadtruckobj33tru3apt7": 4193,
      "unloadtruckobj33tru3apt5": 4194,
      "unloadtruckobj33tru3apt8": 4195,
      "unloadtruckobj33tru3apt6": 4196,
      "unloadtruckobj33tru3apt4": 4197,
      "unloadtruckobj33tru2apt4": 4198,
      "unloadtruckobj33tru2apt7": 4199,
      "unloadtruckobj33tru2apt5": 4200,
      "unloadtruckobj33tru2apt8": 4201,
      "unloadtruckobj33tru2apt6": 4202,
      "unloadtruckobj33tru1apt7": 4203,
      "unloadtruckobj33tru1apt5": 4204,
      "unloadtruckobj33tru1apt8": 4205,
      "unloadtruckobj33tru1apt6": 4206,
      "unloadtruckobj33tru1apt4": 4207,
      "unloadtruckobj33tru3pos44": 4208,
      "unloadtruckobj33tru3pos77": 4209,
      "unloadtruckobj33tru3pos55": 4210,
      "unloadtruckobj33tru3pos66": 4211,
      "unloadtruckobj33tru4apt7": 4212,
      "unloadtruckobj33tru4apt5": 4213,
      "unloadtruckobj33tru4apt8": 4214,
      "unloadtruckobj33tru4apt6": 4215,
      "unloadtruckobj33tru5apt7": 4216,
      "unloadtruckobj33tru5apt8": 4217,
      "unloadtruckobj33tru5apt6": 4218,
      "unloadtruckobj33tru5apt4": 4219,
      "unloadtruckobj33tru2pos44": 4220,
      "unloadtruckobj33tru2pos77": 4221,
      "unloadtruckobj33tru2pos55": 4222,
      "unloadtruckobj33tru2pos66": 4223,
      "unloadtruckobj33tru1pos44": 4224,
      "unloadtruckobj33tru1pos77": 4225,
      "unloadtruckobj33tru1pos55": 4226,
      "unloadtruckobj33tru1pos66": 4227,
      "unloadtruckobj33tru3apt2": 4228,
      "unloadtruckobj33tru3apt1": 4229,
      "unloadtruckobj33tru2apt3": 4230,
      "unloadtruckobj33tru2apt1": 4231,
      "unloadtruckobj33tru1apt3": 4232,
      "unloadtruckobj33tru1apt2": 4233,
      "unloadtruckobj33tru4apt3": 4234,
      "unloadtruckobj33tru4apt2": 4235,
      "unloadtruckobj33tru4apt1": 4236,
      "unloadtruckobj33tru5apt3": 4237,
      "unloadtruckobj33tru5apt2": 4238,
      "unloadtruckobj33tru5apt1": 4239,
      "unloadtruckobj33tru3apt3": 4240,
      "unloadtruckobj33tru2apt2": 4241,
      "unloadtruckobj33tru1apt1": 4242,
      "unloadtruckobj33tru4apt4": 4243,
      "unloadtruckobj33tru5apt5": 4244,
      "unloadtruckobj33tru3pos23": 4245,
      "unloadtruckobj33tru3pos22": 4246,
      "unloadtruckobj33tru3pos21": 4247,
      "unloadtruckobj33tru3pos13": 4248,
      "unloadtruckobj33tru3pos12": 4249,
      "unloadtruckobj33tru3pos11": 4250,
      "unloadtruckobj33tru3pos33": 4251,
      "unloadtruckobj33tru2pos22": 4252,
      "unloadtruckobj33tru2pos21": 4253,
      "unloadtruckobj33tru2pos12": 4254,
      "unloadtruckobj33tru2pos11": 4255,
      "unloadtruckobj33tru2pos23": 4256,
      "unloadtruckobj33tru2pos13": 4257,
      "unloadtruckobj33tru2pos33": 4258,
      "unloadtruckobj33tru1pos22": 4259,
      "unloadtruckobj33tru1pos21": 4260,
      "unloadtruckobj33tru1pos12": 4261,
      "unloadtruckobj33tru1pos11": 4262,
      "unloadtruckobj33tru1pos23": 4263,
      "unloadtruckobj33tru1pos13": 4264,
      "unloadtruckobj33tru1pos33": 4265,
      "unloadtruckobj33tru4pos44": 4266,
      "unloadtruckobj33tru4pos77": 4267,
      "unloadtruckobj33tru4pos55": 4268,
      "unloadtruckobj33tru4pos66": 4269,
      "unloadtruckobj33tru4pos22": 4270,
      "unloadtruckobj33tru4pos21": 4271,
      "unloadtruckobj33tru4pos12": 4272,
      "unloadtruckobj33tru4pos11": 4273,
      "unloadtruckobj33tru4pos23": 4274,
      "unloadtruckobj33tru4pos13": 4275,
      "unloadtruckobj33tru4pos33": 4276,
      "unloadtruckobj33tru5pos44": 4277,
      "unloadtruckobj33tru5pos77": 4278,
      "unloadtruckobj33tru5pos55": 4279,
      "unloadtruckobj33tru5pos66": 4280,
      "unloadtruckobj33tru5pos22": 4281,
      "unloadtruckobj33tru5pos21": 4282,
      "unloadtruckobj33tru5pos12": 4283,
      "unloadtruckobj33tru5pos11": 4284,
      "unloadtruckobj33tru5pos23": 4285,
      "unloadtruckobj33tru5pos13": 4286,
      "unloadtruckobj33tru5pos33": 4287,
      "unloadtruckobj44tru3apt7": 4288,
      "unloadtruckobj44tru3apt5": 4289,
      "unloadtruckobj44tru3apt8": 4290,
      "unloadtruckobj44tru3apt6": 4291,
      "unloadtruckobj44tru3apt4": 4292,
      "unloadtruckobj44tru2apt4": 4293,
      "unloadtruckobj44tru2apt7": 4294,
      "unloadtruckobj44tru2apt5": 4295,
      "unloadtruckobj44tru2apt8": 4296,
      "unloadtruckobj44tru2apt6": 4297,
      "unloadtruckobj44tru1apt7": 4298,
      "unloadtruckobj44tru1apt5": 4299,
      "unloadtruckobj44tru1apt8": 4300,
      "unloadtruckobj44tru1apt6": 4301,
      "unloadtruckobj44tru1apt4": 4302,
      "unloadtruckobj44tru3pos44": 4303,
      "unloadtruckobj44tru3pos77": 4304,
      "unloadtruckobj44tru3pos55": 4305,
      "unloadtruckobj44tru3pos66": 4306,
      "unloadtruckobj44tru4apt7": 4307,
      "unloadtruckobj44tru4apt5": 4308,
      "unloadtruckobj44tru4apt8": 4309,
      "unloadtruckobj44tru4apt6": 4310,
      "unloadtruckobj44tru5apt7": 4311,
      "unloadtruckobj44tru5apt8": 4312,
      "unloadtruckobj44tru5apt6": 4313,
      "unloadtruckobj44tru5apt4": 4314,
      "unloadtruckobj44tru2pos44": 4315,
      "unloadtruckobj44tru2pos77": 4316,
      "unloadtruckobj44tru2pos55": 4317,
      "unloadtruckobj44tru2pos66": 4318,
      "unloadtruckobj44tru1pos44": 4319,
      "unloadtruckobj44tru1pos77": 4320,
      "unloadtruckobj44tru1pos55": 4321,
      "unloadtruckobj44tru1pos66": 4322,
      "unloadtruckobj44tru3apt2": 4323,
      "unloadtruckobj44tru3apt1": 4324,
      "unloadtruckobj44tru2apt3": 4325,
      "unloadtruckobj44tru2apt1": 4326,
      "unloadtruckobj44tru1apt3": 4327,
      "unloadtruckobj44tru1apt2": 4328,
      "unloadtruckobj44tru4apt3": 4329,
      "unloadtruckobj44tru4apt2": 4330,
      "unloadtruckobj44tru4apt1": 4331,
      "unloadtruckobj44tru5apt3": 4332,
      "unloadtruckobj44tru5apt2": 4333,
      "unloadtruckobj44tru5apt1": 4334,
      "unloadtruckobj44tru3apt3": 4335,
      "unloadtruckobj44tru2apt2": 4336,
      "unloadtruckobj44tru1apt1": 4337,
      "unloadtruckobj44tru4apt4": 4338,
      "unloadtruckobj44tru5apt5": 4339,
      "unloadtruckobj44tru3pos23": 4340,
      "unloadtruckobj44tru3pos22": 4341,
      "unloadtruckobj44tru3pos21": 4342,
      "unloadtruckobj44tru3pos13": 4343,
      "unloadtruckobj44tru3pos12": 4344,
      "unloadtruckobj44tru3pos11": 4345,
      "unloadtruckobj44tru3pos33": 4346,
      "unloadtruckobj44tru2pos22": 4347,
      "unloadtruckobj44tru2pos21": 4348,
      "unloadtruckobj44tru2pos12": 4349,
      "unloadtruckobj44tru2pos11": 4350,
      "unloadtruckobj44tru2pos23": 4351,
      "unloadtruckobj44tru2pos13": 4352,
      "unloadtruckobj44tru2pos33": 4353,
      "unloadtruckobj44tru1pos22": 4354,
      "unloadtruckobj44tru1pos21": 4355,
      "unloadtruckobj44tru1pos12": 4356,
      "unloadtruckobj44tru1pos11": 4357,
      "unloadtruckobj44tru1pos23": 4358,
      "unloadtruckobj44tru1pos13": 4359,
      "unloadtruckobj44tru1pos33": 4360,
      "unloadtruckobj44tru4pos44": 4361,
      "unloadtruckobj44tru4pos77": 4362,
      "unloadtruckobj44tru4pos55": 4363,
      "unloadtruckobj44tru4pos66": 4364,
      "unloadtruckobj44tru4pos22": 4365,
      "unloadtruckobj44tru4pos21": 4366,
      "unloadtruckobj44tru4pos12": 4367,
      "unloadtruckobj44tru4pos11": 4368,
      "unloadtruckobj44tru4pos23": 4369,
      "unloadtruckobj44tru4pos13": 4370,
      "unloadtruckobj44tru4pos33": 4371,
      "unloadtruckobj44tru5pos44": 4372,
      "unloadtruckobj44tru5pos77": 4373,
      "unloadtruckobj44tru5pos55": 4374,
      "unloadtruckobj44tru5pos66": 4375,
      "unloadtruckobj44tru5pos22": 4376,
      "unloadtruckobj44tru5pos21": 4377,
      "unloadtruckobj44tru5pos12": 4378,
      "unloadtruckobj44tru5pos11": 4379,
      "unloadtruckobj44tru5pos23": 4380,
      "unloadtruckobj44tru5pos13": 4381,
      "unloadtruckobj44tru5pos33": 4382,
      "unloadtruckobj77tru3apt7": 4383,
      "unloadtruckobj77tru3apt5": 4384,
      "unloadtruckobj77tru3apt8": 4385,
      "unloadtruckobj77tru3apt6": 4386,
      "unloadtruckobj77tru3apt4": 4387,
      "unloadtruckobj77tru2apt4": 4388,
      "unloadtruckobj77tru2apt7": 4389,
      "unloadtruckobj77tru2apt5": 4390,
      "unloadtruckobj77tru2apt8": 4391,
      "unloadtruckobj77tru2apt6": 4392,
      "unloadtruckobj77tru1apt7": 4393,
      "unloadtruckobj77tru1apt5": 4394,
      "unloadtruckobj77tru1apt8": 4395,
      "unloadtruckobj77tru1apt6": 4396,
      "unloadtruckobj77tru1apt4": 4397,
      "unloadtruckobj77tru3pos44": 4398,
      "unloadtruckobj77tru3pos77": 4399,
      "unloadtruckobj77tru3pos55": 4400,
      "unloadtruckobj77tru3pos66": 4401,
      "unloadtruckobj77tru4apt7": 4402,
      "unloadtruckobj77tru4apt5": 4403,
      "unloadtruckobj77tru4apt8": 4404,
      "unloadtruckobj77tru4apt6": 4405,
      "unloadtruckobj77tru5apt7": 4406,
      "unloadtruckobj77tru5apt8": 4407,
      "unloadtruckobj77tru5apt6": 4408,
      "unloadtruckobj77tru5apt4": 4409,
      "unloadtruckobj77tru2pos44": 4410,
      "unloadtruckobj77tru2pos77": 4411,
      "unloadtruckobj77tru2pos55": 4412,
      "unloadtruckobj77tru2pos66": 4413,
      "unloadtruckobj77tru1pos44": 4414,
      "unloadtruckobj77tru1pos77": 4415,
      "unloadtruckobj77tru1pos55": 4416,
      "unloadtruckobj77tru1pos66": 4417,
      "unloadtruckobj77tru3apt2": 4418,
      "unloadtruckobj77tru3apt1": 4419,
      "unloadtruckobj77tru2apt3": 4420,
      "unloadtruckobj77tru2apt1": 4421,
      "unloadtruckobj77tru1apt3": 4422,
      "unloadtruckobj77tru1apt2": 4423,
      "unloadtruckobj77tru4apt3": 4424,
      "unloadtruckobj77tru4apt2": 4425,
      "unloadtruckobj77tru4apt1": 4426,
      "unloadtruckobj77tru5apt3": 4427,
      "unloadtruckobj77tru5apt2": 4428,
      "unloadtruckobj77tru5apt1": 4429,
      "unloadtruckobj77tru3apt3": 4430,
      "unloadtruckobj77tru2apt2": 4431,
      "unloadtruckobj77tru1apt1": 4432,
      "unloadtruckobj77tru4apt4": 4433,
      "unloadtruckobj77tru5apt5": 4434,
      "unloadtruckobj77tru3pos23": 4435,
      "unloadtruckobj77tru3pos22": 4436,
      "unloadtruckobj77tru3pos21": 4437,
      "unloadtruckobj77tru3pos13": 4438,
      "unloadtruckobj77tru3pos12": 4439,
      "unloadtruckobj77tru3pos11": 4440,
      "unloadtruckobj77tru3pos33": 4441,
      "unloadtruckobj77tru2pos22": 4442,
      "unloadtruckobj77tru2pos21": 4443,
      "unloadtruckobj77tru2pos12": 4444,
      "unloadtruckobj77tru2pos11": 4445,
      "unloadtruckobj77tru2pos23": 4446,
      "unloadtruckobj77tru2pos13": 4447,
      "unloadtruckobj77tru2pos33": 4448,
      "unloadtruckobj77tru1pos22": 4449,
      "unloadtruckobj77tru1pos21": 4450,
      "unloadtruckobj77tru1pos12": 4451,
      "unloadtruckobj77tru1pos11": 4452,
      "unloadtruckobj77tru1pos23": 4453,
      "unloadtruckobj77tru1pos13": 4454,
      "unloadtruckobj77tru1pos33": 4455,
      "unloadtruckobj77tru4pos44": 4456,
      "unloadtruckobj77tru4pos77": 4457,
      "unloadtruckobj77tru4pos55": 4458,
      "unloadtruckobj77tru4pos66": 4459,
      "unloadtruckobj77tru4pos22": 4460,
      "unloadtruckobj77tru4pos21": 4461,
      "unloadtruckobj77tru4pos12": 4462,
      "unloadtruckobj77tru4pos11": 4463,
      "unloadtruckobj77tru4pos23": 4464,
      "unloadtruckobj77tru4pos13": 4465,
      "unloadtruckobj77tru4pos33": 4466,
      "unloadtruckobj77tru5pos44": 4467,
      "unloadtruckobj77tru5pos77": 4468,
      "unloadtruckobj77tru5pos55": 4469,
      "unloadtruckobj77tru5pos66": 4470,
      "unloadtruckobj77tru5pos22": 4471,
      "unloadtruckobj77tru5pos21": 4472,
      "unloadtruckobj77tru5pos12": 4473,
      "unloadtruckobj77tru5pos11": 4474,
      "unloadtruckobj77tru5pos23": 4475,
      "unloadtruckobj77tru5pos13": 4476,
      "unloadtruckobj77tru5pos33": 4477,
      "unloadtruckobj55tru3apt7": 4478,
      "unloadtruckobj55tru3apt5": 4479,
      "unloadtruckobj55tru3apt8": 4480,
      "unloadtruckobj55tru3apt6": 4481,
      "unloadtruckobj55tru3apt4": 4482,
      "unloadtruckobj55tru2apt4": 4483,
      "unloadtruckobj55tru2apt7": 4484,
      "unloadtruckobj55tru2apt5": 4485,
      "unloadtruckobj55tru2apt8": 4486,
      "unloadtruckobj55tru2apt6": 4487,
      "unloadtruckobj55tru1apt7": 4488,
      "unloadtruckobj55tru1apt5": 4489,
      "unloadtruckobj55tru1apt8": 4490,
      "unloadtruckobj55tru1apt6": 4491,
      "unloadtruckobj55tru1apt4": 4492,
      "unloadtruckobj55tru3pos44": 4493,
      "unloadtruckobj55tru3pos77": 4494,
      "unloadtruckobj55tru3pos55": 4495,
      "unloadtruckobj55tru3pos66": 4496,
      "unloadtruckobj55tru4apt7": 4497,
      "unloadtruckobj55tru4apt5": 4498,
      "unloadtruckobj55tru4apt8": 4499,
      "unloadtruckobj55tru4apt6": 4500,
      "unloadtruckobj55tru5apt7": 4501,
      "unloadtruckobj55tru5apt8": 4502,
      "unloadtruckobj55tru5apt6": 4503,
      "unloadtruckobj55tru5apt4": 4504,
      "unloadtruckobj55tru2pos44": 4505,
      "unloadtruckobj55tru2pos77": 4506,
      "unloadtruckobj55tru2pos55": 4507,
      "unloadtruckobj55tru2pos66": 4508,
      "unloadtruckobj55tru1pos44": 4509,
      "unloadtruckobj55tru1pos77": 4510,
      "unloadtruckobj55tru1pos55": 4511,
      "unloadtruckobj55tru1pos66": 4512,
      "unloadtruckobj55tru3apt2": 4513,
      "unloadtruckobj55tru3apt1": 4514,
      "unloadtruckobj55tru2apt3": 4515,
      "unloadtruckobj55tru2apt1": 4516,
      "unloadtruckobj55tru1apt3": 4517,
      "unloadtruckobj55tru1apt2": 4518,
      "unloadtruckobj55tru4apt3": 4519,
      "unloadtruckobj55tru4apt2": 4520,
      "unloadtruckobj55tru4apt1": 4521,
      "unloadtruckobj55tru5apt3": 4522,
      "unloadtruckobj55tru5apt2": 4523,
      "unloadtruckobj55tru5apt1": 4524,
      "unloadtruckobj55tru3apt3": 4525,
      "unloadtruckobj55tru2apt2": 4526,
      "unloadtruckobj55tru1apt1": 4527,
      "unloadtruckobj55tru4apt4": 4528,
      "unloadtruckobj55tru5apt5": 4529,
      "unloadtruckobj55tru3pos23": 4530,
      "unloadtruckobj55tru3pos22": 4531,
      "unloadtruckobj55tru3pos21": 4532,
      "unloadtruckobj55tru3pos13": 4533,
      "unloadtruckobj55tru3pos12": 4534,
      "unloadtruckobj55tru3pos11": 4535,
      "unloadtruckobj55tru3pos33": 4536,
      "unloadtruckobj55tru2pos22": 4537,
      "unloadtruckobj55tru2pos21": 4538,
      "unloadtruckobj55tru2pos12": 4539,
      "unloadtruckobj55tru2pos11": 4540,
      "unloadtruckobj55tru2pos23": 4541,
      "unloadtruckobj55tru2pos13": 4542,
      "unloadtruckobj55tru2pos33": 4543,
      "unloadtruckobj55tru1pos22": 4544,
      "unloadtruckobj55tru1pos21": 4545,
      "unloadtruckobj55tru1pos12": 4546,
      "unloadtruckobj55tru1pos11": 4547,
      "unloadtruckobj55tru1pos23": 4548,
      "unloadtruckobj55tru1pos13": 4549,
      "unloadtruckobj55tru1pos33": 4550,
      "unloadtruckobj55tru4pos44": 4551,
      "unloadtruckobj55tru4pos77": 4552,
      "unloadtruckobj55tru4pos55": 4553,
      "unloadtruckobj55tru4pos66": 4554,
      "unloadtruckobj55tru4pos22": 4555,
      "unloadtruckobj55tru4pos21": 4556,
      "unloadtruckobj55tru4pos12": 4557,
      "unloadtruckobj55tru4pos11": 4558,
      "unloadtruckobj55tru4pos23": 4559,
      "unloadtruckobj55tru4pos13": 4560,
      "unloadtruckobj55tru4pos33": 4561,
      "unloadtruckobj55tru5pos44": 4562,
      "unloadtruckobj55tru5pos77": 4563,
      "unloadtruckobj55tru5pos55": 4564,
      "unloadtruckobj55tru5pos66": 4565,
      "unloadtruckobj55tru5pos22": 4566,
      "unloadtruckobj55tru5pos21": 4567,
      "unloadtruckobj55tru5pos12": 4568,
      "unloadtruckobj55tru5pos11": 4569,
      "unloadtruckobj55tru5pos23": 4570,
      "unloadtruckobj55tru5pos13": 4571,
      "unloadtruckobj55tru5pos33": 4572,
      "unloadtruckobj66tru3apt7": 4573,
      "unloadtruckobj66tru3apt5": 4574,
      "unloadtruckobj66tru3apt8": 4575,
      "unloadtruckobj66tru3apt6": 4576,
      "unloadtruckobj66tru3apt4": 4577,
      "unloadtruckobj66tru2apt4": 4578,
      "unloadtruckobj66tru2apt7": 4579,
      "unloadtruckobj66tru2apt5": 4580,
      "unloadtruckobj66tru2apt8": 4581,
      "unloadtruckobj66tru2apt6": 4582,
      "unloadtruckobj66tru1apt7": 4583,
      "unloadtruckobj66tru1apt5": 4584,
      "unloadtruckobj66tru1apt8": 4585,
      "unloadtruckobj66tru1apt6": 4586,
      "unloadtruckobj66tru1apt4": 4587,
      "unloadtruckobj66tru3pos44": 4588,
      "unloadtruckobj66tru3pos77": 4589,
      "unloadtruckobj66tru3pos55": 4590,
      "unloadtruckobj66tru3pos66": 4591,
      "unloadtruckobj66tru4apt7": 4592,
      "unloadtruckobj66tru4apt5": 4593,
      "unloadtruckobj66tru4apt8": 4594,
      "unloadtruckobj66tru4apt6": 4595,
      "unloadtruckobj66tru5apt7": 4596,
      "unloadtruckobj66tru5apt8": 4597,
      "unloadtruckobj66tru5apt6": 4598,
      "unloadtruckobj66tru5apt4": 4599,
      "unloadtruckobj66tru2pos44": 4600,
      "unloadtruckobj66tru2pos77": 4601,
      "unloadtruckobj66tru2pos55": 4602,
      "unloadtruckobj66tru2pos66": 4603,
      "unloadtruckobj66tru1pos44": 4604,
      "unloadtruckobj66tru1pos77": 4605,
      "unloadtruckobj66tru1pos55": 4606,
      "unloadtruckobj66tru1pos66": 4607,
      "unloadtruckobj66tru3apt2": 4608,
      "unloadtruckobj66tru3apt1": 4609,
      "unloadtruckobj66tru2apt3": 4610,
      "unloadtruckobj66tru2apt1": 4611,
      "unloadtruckobj66tru1apt3": 4612,
      "unloadtruckobj66tru1apt2": 4613,
      "unloadtruckobj66tru4apt3": 4614,
      "unloadtruckobj66tru4apt2": 4615,
      "unloadtruckobj66tru4apt1": 4616,
      "unloadtruckobj66tru5apt3": 4617,
      "unloadtruckobj66tru5apt2": 4618,
      "unloadtruckobj66tru5apt1": 4619,
      "unloadtruckobj66tru3apt3": 4620,
      "unloadtruckobj66tru2apt2": 4621,
      "unloadtruckobj66tru1apt1": 4622,
      "unloadtruckobj66tru4apt4": 4623,
      "unloadtruckobj66tru5apt5": 4624,
      "unloadtruckobj66tru3pos23": 4625,
      "unloadtruckobj66tru3pos22": 4626,
      "unloadtruckobj66tru3pos21": 4627,
      "unloadtruckobj66tru3pos13": 4628,
      "unloadtruckobj66tru3pos12": 4629,
      "unloadtruckobj66tru3pos11": 4630,
      "unloadtruckobj66tru3pos33": 4631,
      "unloadtruckobj66tru2pos22": 4632,
      "unloadtruckobj66tru2pos21": 4633,
      "unloadtruckobj66tru2pos12": 4634,
      "unloadtruckobj66tru2pos11": 4635,
      "unloadtruckobj66tru2pos23": 4636,
      "unloadtruckobj66tru2pos13": 4637,
      "unloadtruckobj66tru2pos33": 4638,
      "unloadtruckobj66tru1pos22": 4639,
      "unloadtruckobj66tru1pos21": 4640,
      "unloadtruckobj66tru1pos12": 4641,
      "unloadtruckobj66tru1pos11": 4642,
      "unloadtruckobj66tru1pos23": 4643,
      "unloadtruckobj66tru1pos13": 4644,
      "unloadtruckobj66tru1pos33": 4645,
      "unloadtruckobj66tru4pos44": 4646,
      "unloadtruckobj66tru4pos77": 4647,
      "unloadtruckobj66tru4pos55": 4648,
      "unloadtruckobj66tru4pos66": 4649,
      "unloadtruckobj66tru4pos22": 4650,
      "unloadtruckobj66tru4pos21": 4651,
      "unloadtruckobj66tru4pos12": 4652,
      "unloadtruckobj66tru4pos11": 4653,
      "unloadtruckobj66tru4pos23": 4654,
      "unloadtruckobj66tru4pos13": 4655,
      "unloadtruckobj66tru4pos33": 4656,
      "unloadtruckobj66tru5pos44": 4657,
      "unloadtruckobj66tru5pos77": 4658,
      "unloadtruckobj66tru5pos55": 4659,
      "unloadtruckobj66tru5pos66": 4660,
      "unloadtruckobj66tru5pos22": 4661,
      "unloadtruckobj66tru5pos21": 4662,
      "unloadtruckobj66tru5pos12": 4663,
      "unloadtruckobj66tru5pos11": 4664,
      "unloadtruckobj66tru5pos23": 4665,
      "unloadtruckobj66tru5pos13": 4666,
      "unloadtruckobj66tru5pos33": 4667,
      "unloadtruckobj99tru3apt7": 4668,
      "unloadtruckobj99tru3apt5": 4669,
      "unloadtruckobj99tru3apt8": 4670,
      "unloadtruckobj99tru3apt6": 4671,
      "unloadtruckobj99tru3apt4": 4672,
      "unloadtruckobj99tru2apt4": 4673,
      "unloadtruckobj99tru2apt7": 4674,
      "unloadtruckobj99tru2apt5": 4675,
      "unloadtruckobj99tru2apt8": 4676,
      "unloadtruckobj99tru2apt6": 4677,
      "unloadtruckobj99tru1apt7": 4678,
      "unloadtruckobj99tru1apt5": 4679,
      "unloadtruckobj99tru1apt8": 4680,
      "unloadtruckobj99tru1apt6": 4681,
      "unloadtruckobj99tru1apt4": 4682,
      "unloadtruckobj99tru3pos44": 4683,
      "unloadtruckobj99tru3pos77": 4684,
      "unloadtruckobj99tru3pos55": 4685,
      "unloadtruckobj99tru3pos66": 4686,
      "unloadtruckobj99tru4apt7": 4687,
      "unloadtruckobj99tru4apt5": 4688,
      "unloadtruckobj99tru4apt8": 4689,
      "unloadtruckobj99tru4apt6": 4690,
      "unloadtruckobj99tru5apt7": 4691,
      "unloadtruckobj99tru5apt8": 4692,
      "unloadtruckobj99tru5apt6": 4693,
      "unloadtruckobj99tru5apt4": 4694,
      "unloadtruckobj99tru2pos44": 4695,
      "unloadtruckobj99tru2pos77": 4696,
      "unloadtruckobj99tru2pos55": 4697,
      "unloadtruckobj99tru2pos66": 4698,
      "unloadtruckobj99tru1pos44": 4699,
      "unloadtruckobj99tru1pos77": 4700,
      "unloadtruckobj99tru1pos55": 4701,
      "unloadtruckobj99tru1pos66": 4702,
      "unloadtruckobj99tru3apt2": 4703,
      "unloadtruckobj99tru3apt1": 4704,
      "unloadtruckobj99tru2apt3": 4705,
      "unloadtruckobj99tru2apt1": 4706,
      "unloadtruckobj99tru1apt3": 4707,
      "unloadtruckobj99tru1apt2": 4708,
      "unloadtruckobj99tru4apt3": 4709,
      "unloadtruckobj99tru4apt2": 4710,
      "unloadtruckobj99tru4apt1": 4711,
      "unloadtruckobj99tru5apt3": 4712,
      "unloadtruckobj99tru5apt2": 4713,
      "unloadtruckobj99tru5apt1": 4714,
      "unloadtruckobj99tru3apt3": 4715,
      "unloadtruckobj99tru2apt2": 4716,
      "unloadtruckobj99tru1apt1": 4717,
      "unloadtruckobj99tru4apt4": 4718,
      "unloadtruckobj99tru5apt5": 4719,
      "unloadtruckobj99tru3pos23": 4720,
      "unloadtruckobj99tru3pos22": 4721,
      "unloadtruckobj99tru3pos21": 4722,
      "unloadtruckobj99tru3pos13": 4723,
      "unloadtruckobj99tru3pos12": 4724,
      "unloadtruckobj99tru3pos11": 4725,
      "unloadtruckobj99tru3pos33": 4726,
      "unloadtruckobj99tru2pos22": 4727,
      "unloadtruckobj99tru2pos21": 4728,
      "unloadtruckobj99tru2pos12": 4729,
      "unloadtruckobj99tru2pos11": 4730,
      "unloadtruckobj99tru2pos23": 4731,
      "unloadtruckobj99tru2pos13": 4732,
      "unloadtruckobj99tru2pos33": 4733,
      "unloadtruckobj99tru1pos22": 4734,
      "unloadtruckobj99tru1pos21": 4735,
      "unloadtruckobj99tru1pos12": 4736,
      "unloadtruckobj99tru1pos11": 4737,
      "unloadtruckobj99tru1pos23": 4738,
      "unloadtruckobj99tru1pos13": 4739,
      "unloadtruckobj99tru1pos33": 4740,
      "unloadtruckobj99tru4pos44": 4741,
      "unloadtruckobj99tru4pos77": 4742,
      "unloadtruckobj99tru4pos55": 4743,
      "unloadtruckobj99tru4pos66": 4744,
      "unloadtruckobj99tru4pos22": 4745,
      "unloadtruckobj99tru4pos21": 4746,
      "unloadtruckobj99tru4pos12": 4747,
      "unloadtruckobj99tru4pos11": 4748,
      "unloadtruckobj99tru4pos23": 4749,
      "unloadtruckobj99tru4pos13": 4750,
      "unloadtruckobj99tru4pos33": 4751,
      "unloadtruckobj99tru5pos44": 4752,
      "unloadtruckobj99tru5pos77": 4753,
      "unloadtruckobj99tru5pos55": 4754,
      "unloadtruckobj99tru5pos66": 4755,
      "unloadtruckobj99tru5pos22": 4756,
      "unloadtruckobj99tru5pos21": 4757,
      "unloadtruckobj99tru5pos12": 4758,
      "unloadtruckobj99tru5pos11": 4759,
      "unloadtruckobj99tru5pos23": 4760,
      "unloadtruckobj99tru5pos13": 4761,
      "unloadtruckobj99tru5pos33": 4762,
      "unloadtruckobj88tru3apt7": 4763,
      "unloadtruckobj88tru3apt5": 4764,
      "unloadtruckobj88tru3apt8": 4765,
      "unloadtruckobj88tru3apt6": 4766,
      "unloadtruckobj88tru3apt4": 4767,
      "unloadtruckobj88tru2apt4": 4768,
      "unloadtruckobj88tru2apt7": 4769,
      "unloadtruckobj88tru2apt5": 4770,
      "unloadtruckobj88tru2apt8": 4771,
      "unloadtruckobj88tru2apt6": 4772,
      "unloadtruckobj88tru1apt7": 4773,
      "unloadtruckobj88tru1apt5": 4774,
      "unloadtruckobj88tru1apt8": 4775,
      "unloadtruckobj88tru1apt6": 4776,
      "unloadtruckobj88tru1apt4": 4777,
      "unloadtruckobj88tru3pos44": 4778,
      "unloadtruckobj88tru3pos77": 4779,
      "unloadtruckobj88tru3pos55": 4780,
      "unloadtruckobj88tru3pos66": 4781,
      "unloadtruckobj88tru4apt7": 4782,
      "unloadtruckobj88tru4apt5": 4783,
      "unloadtruckobj88tru4apt8": 4784,
      "unloadtruckobj88tru4apt6": 4785,
      "unloadtruckobj88tru5apt7": 4786,
      "unloadtruckobj88tru5apt8": 4787,
      "unloadtruckobj88tru5apt6": 4788,
      "unloadtruckobj88tru5apt4": 4789,
      "unloadtruckobj88tru2pos44": 4790,
      "unloadtruckobj88tru2pos77": 4791,
      "unloadtruckobj88tru2pos55": 4792,
      "unloadtruckobj88tru2pos66": 4793,
      "unloadtruckobj88tru1pos44": 4794,
      "unloadtruckobj88tru1pos77": 4795,
      "unloadtruckobj88tru1pos55": 4796,
      "unloadtruckobj88tru1pos66": 4797,
      "unloadtruckobj88tru3apt2": 4798,
      "unloadtruckobj88tru3apt1": 4799,
      "unloadtruckobj88tru2apt3": 4800,
      "unloadtruckobj88tru2apt1": 4801,
      "unloadtruckobj88tru1apt3": 4802,
      "unloadtruckobj88tru1apt2": 4803,
      "unloadtruckobj88tru4apt3": 4804,
      "unloadtruckobj88tru4apt2": 4805,
      "unloadtruckobj88tru4apt1": 4806,
      "unloadtruckobj88tru5apt3": 4807,
      "unloadtruckobj88tru5apt2": 4808,
      "unloadtruckobj88tru5apt1": 4809,
      "unloadtruckobj88tru3apt3": 4810,
      "unloadtruckobj88tru2apt2": 4811,
      "unloadtruckobj88tru1apt1": 4812,
      "unloadtruckobj88tru4apt4": 4813,
      "unloadtruckobj88tru5apt5": 4814,
      "unloadtruckobj88tru3pos23": 4815,
      "unloadtruckobj88tru3pos22": 4816,
      "unloadtruckobj88tru3pos21": 4817,
      "unloadtruckobj88tru3pos13": 4818,
      "unloadtruckobj88tru3pos12": 4819,
      "unloadtruckobj88tru3pos11": 4820,
      "unloadtruckobj88tru3pos33": 4821,
      "unloadtruckobj88tru2pos22": 4822,
      "unloadtruckobj88tru2pos21": 4823,
      "unloadtruckobj88tru2pos12": 4824,
      "unloadtruckobj88tru2pos11": 4825,
      "unloadtruckobj88tru2pos23": 4826,
      "unloadtruckobj88tru2pos13": 4827,
      "unloadtruckobj88tru2pos33": 4828,
      "unloadtruckobj88tru1pos22": 4829,
      "unloadtruckobj88tru1pos21": 4830,
      "unloadtruckobj88tru1pos12": 4831,
      "unloadtruckobj88tru1pos11": 4832,
      "unloadtruckobj88tru1pos23": 4833,
      "unloadtruckobj88tru1pos13": 4834,
      "unloadtruckobj88tru1pos33": 4835,
      "unloadtruckobj88tru4pos44": 4836,
      "unloadtruckobj88tru4pos77": 4837,
      "unloadtruckobj88tru4pos55": 4838,
      "unloadtruckobj88tru4pos66": 4839,
      "unloadtruckobj88tru4pos22": 4840,
      "unloadtruckobj88tru4pos21": 4841,
      "unloadtruckobj88tru4pos12": 4842,
      "unloadtruckobj88tru4pos11": 4843,
      "unloadtruckobj88tru4pos23": 4844,
      "unloadtruckobj88tru4pos13": 4845,
      "unloadtruckobj88tru4pos33": 4846,
      "unloadtruckobj88tru5pos44": 4847,
      "unloadtruckobj88tru5pos77": 4848,
      "unloadtruckobj88tru5pos55": 4849,
      "unloadtruckobj88tru5pos66": 4850,
      "unloadtruckobj88tru5pos22": 4851,
      "unloadtruckobj88tru5pos21": 4852,
      "unloadtruckobj88tru5pos12": 4853,
      "unloadtruckobj88tru5pos11": 4854,
      "unloadtruckobj88tru5pos23": 4855,
      "unloadtruckobj88tru5pos13": 4856,
      "unloadtruckobj88tru5pos33": 4857,
      "unloadtruckobj00tru3apt7": 4858,
      "unloadtruckobj00tru3apt5": 4859,
      "unloadtruckobj00tru3apt8": 4860,
      "unloadtruckobj00tru3apt6": 4861,
      "unloadtruckobj00tru3apt4": 4862,
      "unloadtruckobj00tru2apt4": 4863,
      "unloadtruckobj00tru2apt7": 4864,
      "unloadtruckobj00tru2apt5": 4865,
      "unloadtruckobj00tru2apt8": 4866,
      "unloadtruckobj00tru2apt6": 4867,
      "unloadtruckobj00tru1apt7": 4868,
      "unloadtruckobj00tru1apt5": 4869,
      "unloadtruckobj00tru1apt8": 4870,
      "unloadtruckobj00tru1apt6": 4871,
      "unloadtruckobj00tru1apt4": 4872,
      "unloadtruckobj00tru3pos44": 4873,
      "unloadtruckobj00tru3pos77": 4874,
      "unloadtruckobj00tru3pos55": 4875,
      "unloadtruckobj00tru3pos66": 4876,
      "unloadtruckobj00tru4apt7": 4877,
      "unloadtruckobj00tru4apt5": 4878,
      "unloadtruckobj00tru4apt8": 4879,
      "unloadtruckobj00tru4apt6": 4880,
      "unloadtruckobj00tru5apt7": 4881,
      "unloadtruckobj00tru5apt8": 4882,
      "unloadtruckobj00tru5apt6": 4883,
      "unloadtruckobj00tru5apt4": 4884,
      "unloadtruckobj00tru2pos44": 4885,
      "unloadtruckobj00tru2pos77": 4886,
      "unloadtruckobj00tru2pos55": 4887,
      "unloadtruckobj00tru2pos66": 4888,
      "unloadtruckobj00tru1pos44": 4889,
      "unloadtruckobj00tru1pos77": 4890,
      "unloadtruckobj00tru1pos55": 4891,
      "unloadtruckobj00tru1pos66": 4892,
      "unloadtruckobj00tru3apt2": 4893,
      "unloadtruckobj00tru3apt1": 4894,
      "unloadtruckobj00tru2apt3": 4895,
      "unloadtruckobj00tru2apt1": 4896,
      "unloadtruckobj00tru1apt3": 4897,
      "unloadtruckobj00tru1apt2": 4898,
      "unloadtruckobj00tru4apt3": 4899,
      "unloadtruckobj00tru4apt2": 4900,
      "unloadtruckobj00tru4apt1": 4901,
      "unloadtruckobj00tru5apt3": 4902,
      "unloadtruckobj00tru5apt2": 4903,
      "unloadtruckobj00tru5apt1": 4904,
      "unloadtruckobj00tru3apt3": 4905,
      "unloadtruckobj00tru2apt2": 4906,
      "unloadtruckobj00tru1apt1": 4907,
      "unloadtruckobj00tru4apt4": 4908,
      "unloadtruckobj00tru5apt5": 4909,
      "unloadtruckobj00tru3pos23": 4910,
      "unloadtruckobj00tru3pos22": 4911,
      "unloadtruckobj00tru3pos21": 4912,
      "unloadtruckobj00tru3pos13": 4913,
      "unloadtruckobj00tru3pos12": 4914,
      "unloadtruckobj00tru3pos11": 4915,
      "unloadtruckobj00tru3pos33": 4916,
      "unloadtruckobj00tru2pos22": 4917,
      "unloadtruckobj00tru2pos21": 4918,
      "unloadtruckobj00tru2pos12": 4919,
      "unloadtruckobj00tru2pos11": 4920,
      "unloadtruckobj00tru2pos23": 4921,
      "unloadtruckobj00tru2pos13": 4922,
      "unloadtruckobj00tru2pos33": 4923,
      "unloadtruckobj00tru1pos22": 4924,
      "unloadtruckobj00tru1pos21": 4925,
      "unloadtruckobj00tru1pos12": 4926,
      "unloadtruckobj00tru1pos11": 4927,
      "unloadtruckobj00tru1pos23": 4928,
      "unloadtruckobj00tru1pos13": 4929,
      "unloadtruckobj00tru1pos33": 4930,
      "unloadtruckobj00tru4pos44": 4931,
      "unloadtruckobj00tru4pos77": 4932,
      "unloadtruckobj00tru4pos55": 4933,
      "unloadtruckobj00tru4pos66": 4934,
      "unloadtruckobj00tru4pos22": 4935,
      "unloadtruckobj00tru4pos21": 4936,
      "unloadtruckobj00tru4pos12": 4937,
      "unloadtruckobj00tru4pos11": 4938,
      "unloadtruckobj00tru4pos23": 4939,
      "unloadtruckobj00tru4pos13": 4940,
      "unloadtruckobj00tru4pos33": 4941,
      "unloadtruckobj00tru5pos44": 4942,
      "unloadtruckobj00tru5pos77": 4943,
      "unloadtruckobj00tru5pos55": 4944,
      "unloadtruckobj00tru5pos66": 4945,
      "unloadtruckobj00tru5pos22": 4946,
      "unloadtruckobj00tru5pos21": 4947,
      "unloadtruckobj00tru5pos12": 4948,
      "unloadtruckobj00tru5pos11": 4949,
      "unloadtruckobj00tru5pos23": 4950,
      "unloadtruckobj00tru5pos13": 4951,
      "unloadtruckobj00tru5pos33": 4952,
      "loadtruckobj23tru3apt7": 4953,
      "loadtruckobj23tru3apt5": 4954,
      "loadtruckobj23tru3apt8": 4955,
      "loadtruckobj23tru3apt6": 4956,
      "loadtruckobj23tru3apt4": 4957,
      "loadtruckobj23tru2apt4": 4958,
      "loadtruckobj23tru2apt7": 4959,
      "loadtruckobj23tru2apt5": 4960,
      "loadtruckobj23tru2apt8": 4961,
      "loadtruckobj23tru2apt6": 4962,
      "loadtruckobj23tru1apt7": 4963,
      "loadtruckobj23tru1apt5": 4964,
      "loadtruckobj23tru1apt8": 4965,
      "loadtruckobj23tru1apt6": 4966,
      "loadtruckobj23tru1apt4": 4967,
      "loadtruckobj23tru3pos44": 4968,
      "loadtruckobj23tru3pos77": 4969,
      "loadtruckobj23tru3pos55": 4970,
      "loadtruckobj23tru3pos66": 4971,
      "loadtruckobj23tru4apt7": 4972,
      "loadtruckobj23tru4apt5": 4973,
      "loadtruckobj23tru4apt8": 4974,
      "loadtruckobj23tru4apt6": 4975,
      "loadtruckobj23tru5apt7": 4976,
      "loadtruckobj23tru5apt8": 4977,
      "loadtruckobj23tru5apt6": 4978,
      "loadtruckobj23tru5apt4": 4979,
      "loadtruckobj23tru2pos44": 4980,
      "loadtruckobj23tru2pos77": 4981,
      "loadtruckobj23tru2pos55": 4982,
      "loadtruckobj23tru2pos66": 4983,
      "loadtruckobj23tru1pos44": 4984,
      "loadtruckobj23tru1pos77": 4985,
      "loadtruckobj23tru1pos55": 4986,
      "loadtruckobj23tru1pos66": 4987,
      "loadtruckobj23tru3apt2": 4988,
      "loadtruckobj23tru3apt1": 4989,
      "loadtruckobj23tru2apt3": 4990,
      "loadtruckobj23tru2apt1": 4991,
      "loadtruckobj23tru1apt3": 4992,
      "loadtruckobj23tru1apt2": 4993,
      "loadtruckobj23tru4apt3": 4994,
      "loadtruckobj23tru4apt2": 4995,
      "loadtruckobj23tru4apt1": 4996,
      "loadtruckobj23tru5apt3": 4997,
      "loadtruckobj23tru5apt2": 4998,
      "loadtruckobj23tru5apt1": 4999,
      "loadtruckobj23tru3apt3": 5000,
      "loadtruckobj23tru2apt2": 5001,
      "loadtruckobj23tru1apt1": 5002,
      "loadtruckobj23tru4apt4": 5003,
      "loadtruckobj23tru5apt5": 5004,
      "loadtruckobj23tru3pos23": 5005,
      "loadtruckobj23tru3pos22": 5006,
      "loadtruckobj23tru3pos21": 5007,
      "loadtruckobj23tru3pos13": 5008,
      "loadtruckobj23tru3pos12": 5009,
      "loadtruckobj23tru3pos11": 5010,
      "loadtruckobj23tru3pos33": 5011,
      "loadtruckobj23tru2pos22": 5012,
      "loadtruckobj23tru2pos21": 5013,
      "loadtruckobj23tru2pos12": 5014,
      "loadtruckobj23tru2pos11": 5015,
      "loadtruckobj23tru2pos23": 5016,
      "loadtruckobj23tru2pos13": 5017,
      "loadtruckobj23tru2pos33": 5018,
      "loadtruckobj23tru1pos22": 5019,
      "loadtruckobj23tru1pos21": 5020,
      "loadtruckobj23tru1pos12": 5021,
      "loadtruckobj23tru1pos11": 5022,
      "loadtruckobj23tru1pos23": 5023,
      "loadtruckobj23tru1pos13": 5024,
      "loadtruckobj23tru1pos33": 5025,
      "loadtruckobj23tru4pos44": 5026,
      "loadtruckobj23tru4pos77": 5027,
      "loadtruckobj23tru4pos55": 5028,
      "loadtruckobj23tru4pos66": 5029,
      "loadtruckobj23tru4pos22": 5030,
      "loadtruckobj23tru4pos21": 5031,
      "loadtruckobj23tru4pos12": 5032,
      "loadtruckobj23tru4pos11": 5033,
      "loadtruckobj23tru4pos23": 5034,
      "loadtruckobj23tru4pos13": 5035,
      "loadtruckobj23tru4pos33": 5036,
      "loadtruckobj23tru5pos44": 5037,
      "loadtruckobj23tru5pos77": 5038,
      "loadtruckobj23tru5pos55": 5039,
      "loadtruckobj23tru5pos66": 5040,
      "loadtruckobj23tru5pos22": 5041,
      "loadtruckobj23tru5pos21": 5042,
      "loadtruckobj23tru5pos12": 5043,
      "loadtruckobj23tru5pos11": 5044,
      "loadtruckobj23tru5pos23": 5045,
      "loadtruckobj23tru5pos13": 5046,
      "loadtruckobj23tru5pos33": 5047,
      "loadtruckobj22tru3apt7": 5048,
      "loadtruckobj22tru3apt5": 5049,
[...]
