{
  "version": "1.0",
  "truncation": null,
  "padding": null,
  "added_tokens": [
    {
      "id": 0,
      "special": true,
      "content": "<|unknown|>",
      "single_word": false,
      "lstrip": false,
      "rstrip": false,
      "normalized": false
    },
    {
      "id": 1,
      "special": true,
      "content": "<|pad|>",
      "single_word": false,
      "lstrip": false,
      "rstrip": false,
      "normalized": false
    },
    {
      "id": 2,
      "special": true,
      "content": "<|startofplan|>",
      "single_word": false,
      "lstrip": false,
      "rstrip": false,
      "normalized": false
    },
    {
      "id": 3,
      "special": true,
      "content": "<|endofplan|>",
      "single_word": false,
      "lstrip": false,
      "rstrip": false,
      "normalized": false
    },
    {
      "id": 4,
      "special": true,
      "content": "<|goals|>",
      "single_word": false,
      "lstrip": false,
      "rstrip": false,
      "normalized": false
    },
    {
      "id": 5,
      "special": true,
      "content": "<|actions|>",
      "single_word": false,
      "lstrip": false,
      "rstrip": false,
      "normalized": false
    },
    {
      "id": 6,
      "special": true,
      "content": "<|mask|>",
      "single_word": false,
      "lstrip": false,
      "rstrip": false,
      "normalized": false
    }
  ],
  "normalizer": {
    "type": "BertNormalizer",
    "clean_text": true,
    "handle_chinese_chars": true,
    "strip_accents": null,
    "lowercase": true
  },
  "pre_tokenizer": {
    "type": "Split",
    "pattern": {
      "String": " "
    },
    "behavior": "Removed",
    "invert": false
  },
  "post_processor": {
    "type": "TemplateProcessing",
    "single": [
      {
        "SpecialToken": {
          "id": "<|startofplan|>",
          "type_id": 0
        }
      },
      {
        "Sequence": {
          "id": "A",
          "type_id": 0
        }
      }
    ],
    "pair": [
      {
        "SpecialToken": {
          "id": "<|startofplan|>",
          "type_id": 0
        }
      },
      {
        "Sequence": {
          "id": "A",
          "type_id": 0
        }
      },
      {
        "SpecialToken": {
          "id": "<|actions|>",
          "type_id": 0
        }
      },
      {
        "Sequence": {
          "id": "B",
          "type_id": 0
        }
      },
      {
        "SpecialToken": {
          "id": "<|endofplan|>",
          "type_id": 0
        }
      }
    ],
    "special_tokens": {
      "<|actions|>": {
        "id": "<|actions|>",
        "ids": [
          5
        ],
        "tokens": [
          "<|actions|>"
        ]
      },
      "<|endofplan|>": {
        "id": "<|endofplan|>",
        "ids": [
          3
        ],
        "tokens": [
          "<|endofplan|>"
        ]
      },
      "<|startofplan|>": {
        "id": "<|startofplan|>",
        "ids": [
          2
        ],
        "tokens": [
          "<|startofplan|>"
        ]
      }
    }
  },
  "decoder": null,
  "model": {
    "type": "WordPiece",
    "unk_token": "<|unknown|>",
    "continuing_subword_prefix": "##",
    "max_input_chars_per_word": 100,
    "vocab": {
      "<|unknown|>": 0,
      "<|pad|>": 1,
      "<|startofplan|>": 2,
      "<|endofplan|>": 3,
      "<|goals|>": 4,
      "<|actions|>": 5,
      "<|mask|>": 6,
      "0": 7,
      "1": 8,
      "2": 9,
      "3": 10,
      "4": 11,
      "5": 12,
      "6": 13,
      "7": 14,
      "8": 15,
      "9": 16,
      "a": 17,
      "b": 18,
      "c": 19,
      "d": 20,
      "e": 21,
      "f": 22,
      "i": 23,
      "j": 24,
      "k": 25,
      "l": 26,
      "n": 27,
      "o": 28,
      "p": 29,
      "r": 30,
      "s": 31,
      "t": 32,
      "u": 33,
      "v": 34,
      "y": 35,
      "##n": 36,
      "##l": 37,
      "##o": 38,
      "##a": 39,
      "##d": 40,
      "##i": 41,
      "##r": 42,
      "##p": 43,
      "##e": 44,
      "##b": 45,
      "##j": 46,
      "##0": 47,
      "##5": 48,
      "##t": 49,
      "##8": 50,
      "##v": 51,
      "##u": 52,
      "##c": 53,
      "##k": 54,
      "##4": 55,
      "##s": 56,
      "##2": 57,
      "##3": 58,
      "##1": 59,
      "##9": 60,
      "##6": 61,
      "##7": 62,
      "##y": 63,
      "##ru": 64,
      "##tru": 65,
      "##ap": 66,
      "##os": 67,
      "##pos": 68,
      "##ck": 69,
      "##truck": 70,
      "##apt": 71,
      "##it": 72,
      "##cit": 73,
      "dr": 74,
      "##iv": 75,
      "##etruck": 76,
      "driv": 77,
      "##etrucktru": 78,
      "drivetrucktru": 79,
      "##ob": 80,
      "##obj": 81,
      "##oa": 82,
      "##oad": 83,
      "##pos2": 84,
      "##pos1": 85,
      "##truckobj": 86,
      "##oadtruckobj": 87,
      "##3apt": 88,
      "##apn": 89,
      "##ne": 90,
      "##la": 91,
      "##ai": 92,
      "##rp": 93,
      "##lane": 94,
      "##airp": 95,
      "##airplane": 96,
      "un": 97,
      "unl": 98,
      "##3cit": 99,
      "##2apt": 100,
      "##1apt": 101,
      "drivetrucktru5": 102,
      "drivetrucktru4": 103,
      "##oadairplane": 104,
      "##oadairplaneobj": 105,
      "##2cit": 106,
      "##1cit": 107,
      "##55": 108,
      "##44": 109,
      "##66": 110,
      "##77": 111,
      "loadtruckobj": 112,
      "unloadtruckobj": 113,
      "##3pos": 114,
      "drivetrucktru2": 115,
      "drivetrucktru1": 116,
      "##pos3": 117,
      "##pos55": 118,
      "##pos44": 119,
      "##pos66": 120,
      "##pos77": 121,
      "loadairplaneobj": 122,
      "unloadairplaneobj": 123,
      "drivetrucktru2apt": 124,
      "drivetrucktru5apt": 125,
      "drivetrucktru1apt": 126,
      "drivetrucktru4apt": 127,
      "drivetrucktru3apt": 128,
      "##cit1": 129,
      "##cit5": 130,
      "##cit4": 131,
      "##cit2": 132,
      "##cit3": 133,
      "##cit6": 134,
      "##4apt": 135,
      "##5apt": 136,
      "##3pos2": 137,
      "##3pos1": 138,
      "##3tru": 139,
      "##7apt": 140,
      "##8apt": 141,
      "##6apt": 142,
      "drivetrucktru3pos": 143,
      "##pos23cit": 144,
      "##pos13cit": 145,
      "##pos33cit": 146,
      "fl": 147,
      "##yairplane": 148,
      "flyairplane": 149,
      "flyairplaneapn": 150,
      "##pos22cit": 151,
      "##pos21cit": 152,
      "##pos12cit": 153,
      "##pos11cit": 154,
      "##3apn": 155,
      "##2tru": 156,
      "##1tru": 157,
      "##pos22": 158,
      "##pos21": 159,
      "##pos12": 160,
      "##pos11": 161,
      "##00": 162,
      "##88": 163,
      "##99": 164,
      "drivetrucktru3pos2": 165,
      "drivetrucktru3pos1": 166,
      "loadtruckobj2": 167,
      "loadtruckobj1": 168,
      "unloadtruckobj2": 169,
      "unloadtruckobj1": 170,
      "at": 171,
      "##2apn": 172,
      "##1apn": 173,
      "drivetrucktru5pos2": 174,
      "drivetrucktru5pos1": 175,
      "drivetrucktru4pos2": 176,
      "drivetrucktru4pos1": 177,
      "drivetrucktru2pos2": 178,
      "drivetrucktru2pos1": 179,
      "drivetrucktru1pos2": 180,
      "drivetrucktru1pos1": 181,
      "##pos33apt": 182,
      "##pos55apt": 183,
      "##pos44apt": 184,
      "##pos66apt": 185,
      "##pos77apt": 186,
      "loadairplaneobj2": 187,
      "loadairplaneobj1": 188,
      "unloadairplaneobj2": 189,
      "unloadairplaneobj1": 190,
      "##33tru": 191,
      "##55tru": 192,
      "##44tru": 193,
      "##66tru": 194,
      "##77tru": 195,
      "##00tru": 196,
      "##88tru": 197,
      "##99tru": 198,
      "##3apt5": 199,
      "##3apt8": 200,
      "##3apt6": 201,
      "##3apt7": 202,
      "##3apt4": 203,
      "##2apt5": 204,
      "##2apt8": 205,
      "##2apt4": 206,
      "##2apt6": 207,
      "##2apt7": 208,
      "##1apt5": 209,
      "##1apt8": 210,
      "##1apt6": 211,
      "##1apt7": 212,
      "##1apt4": 213,
      "atobj": 214,
      "##3pos55": 215,
      "##3pos44": 216,
      "##3pos66": 217,
      "##3pos77": 218,
      "##3cit5": 219,
      "##3cit4": 220,
      "##3cit2": 221,
      "##3cit3": 222,
      "##3cit1": 223,
      "##3cit6": 224,
      "##2cit5": 225,
      "##2cit4": 226,
      "##2cit2": 227,
      "##2cit3": 228,
      "##2cit1": 229,
      "##2cit6": 230,
      "##1cit5": 231,
      "##1cit4": 232,
      "##1cit2": 233,
      "##1cit3": 234,
      "##1cit6": 235,
      "##1cit1": 236,
      "##33apn": 237,
      "##55apn": 238,
      "##44apn": 239,
      "##66apn": 240,
      "##77apn": 241,
      "##00apn": 242,
      "##88apn": 243,
      "##99apn": 244,
      "##pos23": 245,
      "##pos13": 246,
      "##pos33": 247,
      "##3pos3": 248,
      "in": 249,
      "##city": 250,
      "incity": 251,
      "drivetrucktru3pos3": 252,
      "drivetrucktru3pos55": 253,
      "drivetrucktru3pos44": 254,
      "drivetrucktru3pos66": 255,
      "drivetrucktru3pos77": 256,
      "loadtruckobj33tru": 257,
      "loadtruckobj55tru": 258,
      "loadtruckobj44tru": 259,
      "loadtruckobj66tru": 260,
      "loadtruckobj77tru": 261,
      "loadtruckobj00tru": 262,
      "loadtruckobj88tru": 263,
      "loadtruckobj99tru": 264,
      "unloadtruckobj33tru": 265,
      "unloadtruckobj55tru": 266,
      "unloadtruckobj44tru": 267,
      "unloadtruckobj66tru": 268,
      "unloadtruckobj77tru": 269,
      "unloadtruckobj00tru": 270,
      "unloadtruckobj88tru": 271,
      "unloadtruckobj99tru": 272,
      "##4apt5": 273,
      "##4apt8": 274,
      "##4apt6": 275,
      "##4apt7": 276,
      "##5apt8": 277,
      "##5apt6": 278,
      "##5apt7": 279,
      "loadtruckobj23tru": 280,
      "loadtruckobj22tru": 281,
      "loadtruckobj21tru": 282,
      "loadtruckobj13tru": 283,
      "loadtruckobj12tru": 284,
      "loadtruckobj11tru": 285,
      "unloadtruckobj23tru": 286,
      "unloadtruckobj22tru": 287,
      "unloadtruckobj21tru": 288,
      "unloadtruckobj13tru": 289,
      "unloadtruckobj12tru": 290,
      "unloadtruckobj11tru": 291,
      "##5apt4": 292,
      "##pos23cit5": 293,
      "##pos23cit4": 294,
      "##pos23cit2": 295,
      "##pos23cit3": 296,
      "##pos23cit1": 297,
      "##pos23cit6": 298,
      "##pos13cit5": 299,
      "##pos13cit4": 300,
      "##pos13cit2": 301,
      "##pos13cit3": 302,
      "##pos13cit1": 303,
      "##pos13cit6": 304,
      "##pos33cit5": 305,
      "##pos33cit4": 306,
      "##pos33cit2": 307,
      "##pos33cit3": 308,
      "##pos33cit1": 309,
      "##pos33cit6": 310,
      "##2pos55": 311,
      "##2pos44": 312,
      "##2pos66": 313,
      "##2pos77": 314,
      "##1pos55": 315,
      "##1pos44": 316,
      "##1pos66": 317,
      "##1pos77": 318,
      "##pos33pos2": 319,
      "##pos33pos1": 320,
      "##pos22cit5": 321,
      "##pos22cit4": 322,
      "##pos22cit2": 323,
      "##pos22cit3": 324,
      "##pos22cit1": 325,
      "##pos22cit6": 326,
      "##pos21cit5": 327,
      "##pos21cit4": 328,
      "##pos21cit2": 329,
      "##pos21cit3": 330,
      "##pos21cit1": 331,
      "##pos21cit6": 332,
      "##pos12cit5": 333,
      "##pos12cit4": 334,
      "##pos12cit2": 335,
      "##pos12cit3": 336,
      "##pos12cit1": 337,
      "##pos12cit6": 338,
      "##pos11cit5": 339,
      "##pos11cit4": 340,
      "##pos11cit2": 341,
      "##pos11cit3": 342,
      "##pos11cit1": 343,
      "##pos11cit6": 344,
      "##7apt5": 345,
      "##7apt8": 346,
      "##7apt4": 347,
      "##7apt6": 348,
      "##8apt4": 349,
      "##8apt6": 350,
      "##8apt7": 351,
      "##6apt5": 352,
      "##6apt8": 353,
      "##6apt4": 354,
      "##6apt7": 355,
      "drivetrucktru2apt5": 356,
      "drivetrucktru2apt8": 357,
      "drivetrucktru2apt4": 358,
      "drivetrucktru2apt6": 359,
      "drivetrucktru2apt7": 360,
      "drivetrucktru5apt5": 361,
      "drivetrucktru5apt8": 362,
      "drivetrucktru5apt4": 363,
      "drivetrucktru5apt6": 364,
      "drivetrucktru5apt7": 365,
      "drivetrucktru1apt5": 366,
      "drivetrucktru1apt8": 367,
      "drivetrucktru1apt4": 368,
      "drivetrucktru1apt6": 369,
      "drivetrucktru1apt7": 370,
      "drivetrucktru4apt5": 371,
      "drivetrucktru4apt8": 372,
      "drivetrucktru4apt4": 373,
      "drivetrucktru4apt6": 374,
      "drivetrucktru4apt7": 375,
      "drivetrucktru3apt5": 376,
      "drivetrucktru3apt8": 377,
      "drivetrucktru3apt4": 378,
      "drivetrucktru3apt6": 379,
      "drivetrucktru3apt7": 380,
      "##8apt5": 381,
      "##3apt2": 382,
      "##3apt1": 383,
      "##2apt3": 384,
      "##2apt1": 385,
      "##1apt2": 386,
      "##1apt3": 387,
      "##4apt2": 388,
      "##4apt3": 389,
      "##4apt1": 390,
      "##5apt2": 391,
      "##5apt3": 392,
      "##5apt1": 393,
      "loadairplaneobj33apn": 394,
      "loadairplaneobj55apn": 395,
      "loadairplaneobj44apn": 396,
      "loadairplaneobj66apn": 397,
      "loadairplaneobj77apn": 398,
      "loadairplaneobj00apn": 399,
      "loadairplaneobj88apn": 400,
      "loadairplaneobj99apn": 401,
      "unloadairplaneobj33apn": 402,
      "unloadairplaneobj55apn": 403,
      "unloadairplaneobj44apn": 404,
      "unloadairplaneobj66apn": 405,
      "unloadairplaneobj77apn": 406,
      "unloadairplaneobj00apn": 407,
      "unloadairplaneobj88apn": 408,
      "unloadairplaneobj99apn": 409,
      "atapn": 410,
      "loadairplaneobj23apn": 411,
      "loadairplaneobj22apn": 412,
      "loadairplaneobj21apn": 413,
      "loadairplaneobj13apn": 414,
      "loadairplaneobj12apn": 415,
      "loadairplaneobj11apn": 416,
      "unloadairplaneobj23apn": 417,
      "unloadairplaneobj22apn": 418,
      "unloadairplaneobj21apn": 419,
      "unloadairplaneobj13apn": 420,
      "unloadairplaneobj12apn": 421,
      "unloadairplaneobj11apn": 422,
      "drivetrucktru5pos55": 423,
      "drivetrucktru5pos44": 424,
      "drivetrucktru5pos66": 425,
      "drivetrucktru5pos77": 426,
      "drivetrucktru5pos22": 427,
      "drivetrucktru5pos21": 428,
      "drivetrucktru5pos12": 429,
      "drivetrucktru5pos11": 430,
      "drivetrucktru4pos55": 431,
      "drivetrucktru4pos44": 432,
      "drivetrucktru4pos66": 433,
      "drivetrucktru4pos77": 434,
      "drivetrucktru4pos22": 435,
      "drivetrucktru4pos21": 436,
      "drivetrucktru4pos12": 437,
      "drivetrucktru4pos11": 438,
      "drivetrucktru2pos55": 439,
      "drivetrucktru2pos44": 440,
      "drivetrucktru2pos66": 441,
      "drivetrucktru2pos77": 442,
      "drivetrucktru2pos22": 443,
      "drivetrucktru2pos21": 444,
      "drivetrucktru2pos12": 445,
      "drivetrucktru2pos11": 446,
      "drivetrucktru1pos55": 447,
      "drivetrucktru1pos44": 448,
      "drivetrucktru1pos66": 449,
      "drivetrucktru1pos77": 450,
      "drivetrucktru1pos22": 451,
      "drivetrucktru1pos21": 452,
      "drivetrucktru1pos12": 453,
      "drivetrucktru1pos11": 454,
      "##3apt3": 455,
      "##2apt2": 456,
      "##1apt1": 457,
      "##pos55cit1": 458,
      "##pos55cit5": 459,
      "##pos55cit4": 460,
      "##pos55cit2": 461,
      "##pos55cit3": 462,
      "##pos55cit6": 463,
      "##pos44cit1": 464,
      "##pos44cit5": 465,
      "##pos44cit4": 466,
      "##pos44cit2": 467,
      "##pos44cit3": 468,
      "##pos44cit6": 469,
      "##pos66cit1": 470,
      "##pos66cit5": 471,
      "##pos66cit4": 472,
      "##pos66cit2": 473,
      "##pos66cit3": 474,
      "##pos66cit6": 475,
      "##pos77cit1": 476,
      "##pos77cit5": 477,
      "##pos77cit4": 478,
      "##pos77cit2": 479,
      "##pos77cit3": 480,
      "##pos77cit6": 481,
      "##4apt4": 482,
      "##5apt5": 483,
      "flyairplaneapn3apt": 484,
      "flyairplaneapn2apt": 485,
      "flyairplaneapn1apt": 486,
      "flyairplaneapn4apt": 487,
      "flyairplaneapn5apt": 488,
      "flyairplaneapn7apt": 489,
      "flyairplaneapn8apt": 490,
      "flyairplaneapn6apt": 491,
      "attru": 492,
      "drivetrucktru5pos33apt": 493,
      "drivetrucktru5pos55apt": 494,
      "drivetrucktru5pos44apt": 495,
      "drivetrucktru5pos66apt": 496,
      "drivetrucktru5pos77apt": 497,
      "drivetrucktru4pos33apt": 498,
      "drivetrucktru4pos55apt": 499,
      "drivetrucktru4pos44apt": 500,
      "drivetrucktru4pos66apt": 501,
      "drivetrucktru4pos77apt": 502,
      "drivetrucktru2pos33apt": 503,
      "drivetrucktru2pos55apt": 504,
      "drivetrucktru2pos44apt": 505,
      "drivetrucktru2pos66apt": 506,
      "drivetrucktru2pos77apt": 507,
      "drivetrucktru1pos33apt": 508,
      "drivetrucktru1pos55apt": 509,
      "drivetrucktru1pos44apt": 510,
      "drivetrucktru1pos66apt": 511,
      "drivetrucktru1pos77apt": 512,
      "incityapt": 513,
      "drivetrucktru3pos55apt": 514,
      "drivetrucktru3pos44apt": 515,
      "drivetrucktru3pos66apt": 516,
      "drivetrucktru3pos77apt": 517,
      "drivetrucktru2apt2": 518,
      "drivetrucktru2apt1": 519,
      "drivetrucktru5apt2": 520,
      "drivetrucktru5apt1": 521,
      "drivetrucktru1apt2": 522,
      "drivetrucktru1apt1": 523,
      "drivetrucktru4apt2": 524,
      "drivetrucktru4apt1": 525,
      "drivetrucktru3apt2": 526,
      "drivetrucktru3apt1": 527,
      "##7apt2": 528,
      "##7apt3": 529,
      "##7apt1": 530,
      "##8apt2": 531,
      "##8apt3": 532,
      "##8apt1": 533,
      "##6apt2": 534,
      "##6apt3": 535,
      "##6apt1": 536,
      "drivetrucktru3pos22": 537,
      "drivetrucktru3pos21": 538,
      "drivetrucktru3pos12": 539,
      "drivetrucktru3pos11": 540,
      "atobj2": 541,
      "atobj1": 542,
      "##3pos22": 543,
      "##3pos23": 544,
      "##3pos21": 545,
      "##3pos12": 546,
      "##3pos13": 547,
      "##3pos11": 548,
      "##3pos33": 549,
      "##2pos22": 550,
      "##2pos21": 551,
      "##2pos12": 552,
      "##2pos11": 553,
      "##2pos23": 554,
      "##2pos13": 555,
      "##2pos33": 556,
      "##1pos22": 557,
      "##1pos21": 558,
      "##1pos12": 559,
      "##1pos11": 560,
      "##1pos23": 561,
      "##1pos13": 562,
      "##1pos33": 563,
      "##5pos55": 564,
      "##5pos44": 565,
      "##5pos66": 566,
      "##5pos77": 567,
      "##5pos22": 568,
      "##5pos21": 569,
      "##5pos12": 570,
      "##5pos11": 571,
      "##5pos23": 572,
      "##5pos13": 573,
      "##5pos33": 574,
      "##4pos55": 575,
      "##4pos44": 576,
      "##4pos66": 577,
      "##4pos77": 578,
      "##4pos22": 579,
      "##4pos21": 580,
      "##4pos12": 581,
      "##4pos11": 582,
      "##4pos23": 583,
      "##4pos13": 584,
      "##4pos33": 585,
      "##7apt7": 586,
      "##8apt8": 587,
      "##6apt6": 588,
      "##5cit1": 589,
      "##5cit5": 590,
      "##5cit4": 591,
      "##5cit2": 592,
      "##5cit3": 593,
      "##5cit6": 594,
      "##8cit1": 595,
      "##8cit5": 596,
      "##8cit4": 597,
      "##8cit2": 598,
      "##8cit3": 599,
      "##8cit6": 600,
      "##4cit1": 601,
      "##4cit5": 602,
      "##4cit4": 603,
      "##4cit2": 604,
      "##4cit3": 605,
      "##4cit6": 606,
      "##6cit1": 607,
      "##6cit5": 608,
      "##6cit4": 609,
      "##6cit2": 610,
      "##6cit3": 611,
      "##6cit6": 612,
      "##7cit1": 613,
      "##7cit5": 614,
      "##7cit4": 615,
      "##7cit2": 616,
      "##7cit3": 617,
      "##7cit6": 618,
      "drivetrucktru5pos3": 619,
      "drivetrucktru4pos3": 620,
      "drivetrucktru2pos3": 621,
      "drivetrucktru1pos3": 622,
      "##3pos55cit1": 623,
      "##3pos55cit5": 624,
      "##3pos55cit4": 625,
      "##3pos55cit2": 626,
      "##3pos55cit3": 627,
      "##3pos55cit6": 628,
      "##3pos44cit1": 629,
      "##3pos44cit5": 630,
      "##3pos44cit4": 631,
      "##3pos44cit2": 632,
      "##3pos44cit3": 633,
      "##3pos44cit6": 634,
      "##3pos66cit1": 635,
      "##3pos66cit5": 636,
      "##3pos66cit4": 637,
      "##3pos66cit2": 638,
      "##3pos66cit3": 639,
      "##3pos66cit6": 640,
      "##3pos77cit1": 641,
      "##3pos77cit5": 642,
      "##3pos77cit4": 643,
      "##3pos77cit2": 644,
      "##3pos77cit3": 645,
      "##3pos77cit6": 646,
      "drivetrucktru5pos33pos2": 647,
      "drivetrucktru5pos33pos1": 648,
      "drivetrucktru4pos33pos2": 649,
      "drivetrucktru4pos33pos1": 650,
      "drivetrucktru2pos33pos2": 651,
      "drivetrucktru2pos33pos1": 652,
      "drivetrucktru1pos33pos2": 653,
      "drivetrucktru1pos33pos1": 654,
      "drivetrucktru2apt4apt": 655,
      "drivetrucktru2apt5apt": 656,
      "drivetrucktru2apt3pos2": 657,
      "drivetrucktru2apt3pos1": 658,
      "drivetrucktru2apt7apt": 659,
      "drivetrucktru2apt8apt": 660,
      "drivetrucktru2apt6apt": 661,
      "drivetrucktru5apt4apt": 662,
      "drivetrucktru5apt5apt": 663,
      "drivetrucktru5apt3pos2": 664,
      "drivetrucktru5apt3pos1": 665,
      "drivetrucktru5apt7apt": 666,
      "drivetrucktru5apt8apt": 667,
      "drivetrucktru5apt6apt": 668,
      "drivetrucktru1apt4apt": 669,
      "drivetrucktru1apt5apt": 670,
      "drivetrucktru1apt3pos2": 671,
      "drivetrucktru1apt3pos1": 672,
      "drivetrucktru1apt7apt": 673,
      "drivetrucktru1apt8apt": 674,
      "drivetrucktru1apt6apt": 675,
      "drivetrucktru4apt4apt": 676,
      "drivetrucktru4apt5apt": 677,
      "drivetrucktru4apt3pos2": 678,
      "drivetrucktru4apt3pos1": 679,
      "drivetrucktru4apt7apt": 680,
      "drivetrucktru4apt8apt": 681,
      "drivetrucktru4apt6apt": 682,
      "drivetrucktru3apt4apt": 683,
      "drivetrucktru3apt5apt": 684,
      "drivetrucktru3apt3pos2": 685,
      "drivetrucktru3apt3pos1": 686,
      "drivetrucktru3apt7apt": 687,
      "drivetrucktru3apt8apt": 688,
      "drivetrucktru3pos23apt": 689,
      "drivetrucktru3pos22apt": 690,
      "drivetrucktru3pos21apt": 691,
      "drivetrucktru3pos23pos1": 692,
      "drivetrucktru3pos13apt": 693,
      "drivetrucktru3pos12apt": 694,
      "drivetrucktru3pos11apt": 695,
      "drivetrucktru3pos13pos2": 696,
      "drivetrucktru5pos23apt": 697,
      "drivetrucktru5pos22apt": 698,
      "drivetrucktru5pos21apt": 699,
      "drivetrucktru5pos23pos1": 700,
      "drivetrucktru5pos13apt": 701,
      "drivetrucktru5pos12apt": 702,
      "drivetrucktru5pos11apt": 703,
      "drivetrucktru5pos13pos2": 704,
      "drivetrucktru4pos23apt": 705,
      "drivetrucktru4pos22apt": 706,
      "drivetrucktru4pos21apt": 707,
      "drivetrucktru4pos23pos1": 708,
      "drivetrucktru4pos13apt": 709,
      "drivetrucktru4pos12apt": 710,
      "drivetrucktru4pos11apt": 711,
      "drivetrucktru4pos13pos2": 712,
      "drivetrucktru2pos23apt": 713,
      "drivetrucktru2pos22apt": 714,
      "drivetrucktru2pos21apt": 715,
      "drivetrucktru2pos23pos1": 716,
      "drivetrucktru2pos13apt": 717,
      "drivetrucktru2pos12apt": 718,
      "drivetrucktru2pos11apt": 719,
      "drivetrucktru2pos13pos2": 720,
      "drivetrucktru1pos23apt": 721,
      "drivetrucktru1pos22apt": 722,
      "drivetrucktru1pos21apt": 723,
      "drivetrucktru1pos23pos1": 724,
      "drivetrucktru1pos13apt": 725,
      "drivetrucktru1pos12apt": 726,
      "drivetrucktru1pos11apt": 727,
      "drivetrucktru1pos13pos2": 728,
      "drivetrucktru3pos33apt": 729,
      "drivetrucktru3pos33pos2": 730,
      "drivetrucktru3pos33pos1": 731,
      "drivetrucktru3apt6apt": 732,
      "##3apt5cit1": 733,
      "##3apt5cit5": 734,
      "##3apt5cit4": 735,
      "##3apt5cit2": 736,
      "##3apt5cit3": 737,
      "##3apt5cit6": 738,
      "##3apt8cit1": 739,
      "##3apt8cit5": 740,
      "##3apt8cit4": 741,
      "##3apt8cit2": 742,
      "##3apt8cit3": 743,
      "##3apt8cit6": 744,
      "##3apt6cit1": 745,
      "##3apt6cit5": 746,
      "##3apt6cit4": 747,
      "##3apt6cit2": 748,
      "##3apt6cit3": 749,
      "##3apt6cit6": 750,
      "##3apt7cit1": 751,
      "##3apt7cit5": 752,
      "##3apt7cit4": 753,
      "##3apt7cit2": 754,
      "##3apt7cit3": 755,
      "##3apt7cit6": 756,
      "##3apt4cit1": 757,
      "##3apt4cit4": 758,
      "##3apt4cit3": 759,
      "##3apt4cit6": 760,
      "##3apt4cit5": 761,
      "##3apt4cit2": 762,
      "##2apt5cit1": 763,
      "##2apt5cit5": 764,
      "##2apt5cit4": 765,
      "##2apt5cit2": 766,
      "##2apt5cit3": 767,
      "##2apt5cit6": 768,
      "##2apt8cit1": 769,
      "##2apt8cit5": 770,
      "##2apt8cit4": 771,
      "##2apt8cit2": 772,
      "##2apt8cit3": 773,
      "##2apt8cit6": 774,
      "##2apt4cit1": 775,
      "##2apt4cit5": 776,
      "##2apt4cit4": 777,
      "##2apt4cit2": 778,
      "##2apt4cit3": 779,
      "##2apt4cit6": 780,
      "##2apt6cit1": 781,
      "##2apt6cit5": 782,
      "##2apt6cit4": 783,
      "##2apt6cit2": 784,
      "##2apt6cit3": 785,
      "##2apt6cit6": 786,
      "##2apt7cit1": 787,
      "##2apt7cit5": 788,
      "##2apt7cit4": 789,
      "##2apt7cit2": 790,
      "##2apt7cit3": 791,
      "##2apt7cit6": 792,
      "##1apt5cit1": 793,
      "##1apt5cit5": 794,
      "##1apt5cit4": 795,
      "##1apt5cit2": 796,
      "##1apt5cit3": 797,
      "##1apt5cit6": 798,
      "##1apt8cit1": 799,
      "##1apt8cit5": 800,
      "##1apt8cit4": 801,
      "##1apt8cit2": 802,
      "##1apt8cit3": 803,
      "##1apt8cit6": 804,
      "##1apt6cit1": 805,
      "##1apt6cit5": 806,
      "##1apt6cit4": 807,
      "##1apt6cit2": 808,
      "##1apt6cit3": 809,
      "##1apt6cit6": 810,
      "##1apt7cit1": 811,
      "##1apt7cit5": 812,
      "##1apt7cit4": 813,
      "##1apt7cit2": 814,
      "##1apt7cit3": 815,
      "##1apt7cit6": 816,
      "##1apt4cit1": 817,
      "##1apt4cit5": 818,
      "##1apt4cit4": 819,
      "##1apt4cit2": 820,
      "##1apt4cit6": 821,
      "##3pos33cit5": 822,
      "##3pos33cit4": 823,
      "##3pos33cit2": 824,
      "##3pos33cit3": 825,
      "##3pos33cit1": 826,
      "##3pos33cit6": 827,
      "##1apt4cit3": 828,
      "drivetrucktru2apt3apt": 829,
      "drivetrucktru2apt2apt": 830,
      "drivetrucktru2apt1apt": 831,
      "drivetrucktru5apt3apt": 832,
      "drivetrucktru5apt2apt": 833,
      "drivetrucktru5apt1apt": 834,
      "drivetrucktru1apt3apt": 835,
      "drivetrucktru1apt2apt": 836,
      "drivetrucktru1apt1apt": 837,
      "drivetrucktru4apt3apt": 838,
      "drivetrucktru4apt2apt": 839,
      "drivetrucktru4apt1apt": 840,
      "drivetrucktru3apt3apt": 841,
      "drivetrucktru3apt2apt": 842,
      "drivetrucktru3apt1apt": 843,
      "drivetrucktru3pos23pos2": 844,
      "drivetrucktru3pos13pos1": 845,
      "drivetrucktru5pos23pos2": 846,
      "drivetrucktru5pos13pos1": 847,
      "drivetrucktru4pos23pos2": 848,
      "drivetrucktru4pos13pos1": 849,
      "drivetrucktru2pos23pos2": 850,
      "drivetrucktru2pos13pos1": 851,
      "drivetrucktru1pos23pos2": 852,
      "drivetrucktru1pos13pos1": 853,
      "atobj3": 854,
      "atobj55": 855,
      "atobj44": 856,
      "atobj66": 857,
      "atobj77": 858,
      "atobj00": 859,
      "atobj88": 860,
      "atobj99": 861,
      "##2pos55cit1": 862,
      "##2pos55cit5": 863,
      "##2pos55cit4": 864,
      "##2pos55cit2": 865,
      "##2pos55cit3": 866,
      "##2pos55cit6": 867,
      "##2pos44cit1": 868,
      "##2pos44cit5": 869,
      "##2pos44cit4": 870,
      "##2pos44cit2": 871,
      "##2pos44cit3": 872,
      "##2pos44cit6": 873,
      "##2pos66cit1": 874,
      "##2pos66cit5": 875,
      "##2pos66cit4": 876,
      "##2pos66cit2": 877,
      "##2pos66cit3": 878,
      "##2pos66cit6": 879,
      "##2pos77cit1": 880,
      "##2pos77cit5": 881,
      "##2pos77cit4": 882,
      "##2pos77cit2": 883,
      "##2pos77cit3": 884,
      "##2pos77cit6": 885,
      "##1pos55cit1": 886,
      "##1pos55cit5": 887,
      "##1pos55cit4": 888,
      "##1pos55cit2": 889,
      "##1pos55cit3": 890,
      "##1pos55cit6": 891,
      "##1pos44cit1": 892,
      "##1pos44cit5": 893,
      "##1pos44cit4": 894,
      "##1pos44cit2": 895,
      "##1pos44cit3": 896,
      "##1pos44cit6": 897,
      "##1pos66cit1": 898,
      "##1pos66cit5": 899,
      "##1pos66cit4": 900,
      "##1pos66cit2": 901,
      "##1pos66cit3": 902,
      "##1pos66cit6": 903,
      "##1pos77cit1": 904,
      "##1pos77cit5": 905,
      "##1pos77cit4": 906,
      "##1pos77cit2": 907,
      "##1pos77cit3": 908,
      "##1pos77cit6": 909,
      "drivetrucktru2apt4apt5": 910,
      "drivetrucktru2apt4apt8": 911,
      "drivetrucktru2apt4apt6": 912,
      "drivetrucktru2apt4apt7": 913,
      "drivetrucktru2apt5apt8": 914,
      "drivetrucktru2apt5apt6": 915,
      "drivetrucktru2apt5apt7": 916,
      "drivetrucktru2apt5apt4": 917,
      "drivetrucktru2apt7apt5": 918,
      "drivetrucktru2apt7apt8": 919,
      "drivetrucktru2apt7apt4": 920,
      "drivetrucktru2apt7apt6": 921,
      "drivetrucktru2apt8apt4": 922,
      "drivetrucktru2apt8apt6": 923,
      "drivetrucktru2apt8apt7": 924,
      "drivetrucktru2apt6apt5": 925,
      "drivetrucktru2apt6apt8": 926,
      "drivetrucktru2apt6apt4": 927,
      "drivetrucktru2apt6apt7": 928,
      "drivetrucktru2apt8apt5": 929,
      "drivetrucktru5apt4apt5": 930,
      "drivetrucktru5apt4apt8": 931,
      "drivetrucktru5apt4apt6": 932,
      "drivetrucktru5apt4apt7": 933,
      "drivetrucktru5apt5apt8": 934,
      "drivetrucktru5apt5apt6": 935,
      "drivetrucktru5apt5apt7": 936,
      "drivetrucktru5apt5apt4": 937,
      "drivetrucktru5apt7apt5": 938,
      "drivetrucktru5apt7apt8": 939,
      "drivetrucktru5apt7apt4": 940,
      "drivetrucktru5apt7apt6": 941,
      "drivetrucktru5apt8apt4": 942,
      "drivetrucktru5apt8apt6": 943,
      "drivetrucktru5apt8apt7": 944,
      "drivetrucktru5apt6apt5": 945,
      "drivetrucktru5apt6apt8": 946,
      "drivetrucktru5apt6apt4": 947,
      "drivetrucktru5apt6apt7": 948,
      "drivetrucktru5apt8apt5": 949,
      "drivetrucktru1apt4apt5": 950,
      "drivetrucktru1apt4apt8": 951,
      "drivetrucktru1apt4apt6": 952,
      "drivetrucktru1apt4apt7": 953,
      "drivetrucktru1apt5apt8": 954,
      "drivetrucktru1apt5apt6": 955,
      "drivetrucktru1apt5apt7": 956,
      "drivetrucktru1apt5apt4": 957,
      "drivetrucktru1apt7apt5": 958,
      "drivetrucktru1apt7apt8": 959,
      "drivetrucktru1apt7apt4": 960,
      "drivetrucktru1apt7apt6": 961,
      "drivetrucktru1apt8apt4": 962,
      "drivetrucktru1apt8apt6": 963,
      "drivetrucktru1apt8apt7": 964,
      "drivetrucktru1apt6apt5": 965,
      "drivetrucktru1apt6apt8": 966,
      "drivetrucktru1apt6apt4": 967,
      "drivetrucktru1apt6apt7": 968,
      "drivetrucktru1apt8apt5": 969,
      "drivetrucktru4apt4apt5": 970,
      "drivetrucktru4apt4apt8": 971,
      "drivetrucktru4apt4apt6": 972,
      "drivetrucktru4apt4apt7": 973,
      "drivetrucktru4apt5apt8": 974,
      "drivetrucktru4apt5apt6": 975,
      "drivetrucktru4apt5apt7": 976,
      "drivetrucktru4apt7apt5": 977,
      "drivetrucktru4apt7apt8": 978,
      "drivetrucktru4apt7apt4": 979,
      "drivetrucktru4apt7apt6": 980,
      "drivetrucktru4apt8apt4": 981,
      "drivetrucktru4apt8apt6": 982,
      "drivetrucktru4apt8apt7": 983,
      "drivetrucktru4apt6apt5": 984,
      "drivetrucktru4apt6apt8": 985,
      "drivetrucktru4apt6apt4": 986,
      "drivetrucktru4apt6apt7": 987,
      "drivetrucktru4apt8apt5": 988,
      "drivetrucktru3apt4apt5": 989,
      "drivetrucktru3apt4apt8": 990,
      "drivetrucktru3apt4apt6": 991,
      "drivetrucktru3apt4apt7": 992,
      "drivetrucktru3apt5apt8": 993,
      "drivetrucktru3apt5apt6": 994,
      "drivetrucktru3apt5apt7": 995,
      "drivetrucktru3apt5apt4": 996,
      "drivetrucktru3apt7apt5": 997,
      "drivetrucktru3apt7apt8": 998,
      "drivetrucktru3apt7apt4": 999,
      "drivetrucktru3apt7apt6": 1000,
      "drivetrucktru3apt8apt4": 1001,
      "drivetrucktru3apt8apt6": 1002,
      "drivetrucktru3apt8apt7": 1003,
      "drivetrucktru3apt6apt5": 1004,
      "drivetrucktru3apt6apt8": 1005,
      "drivetrucktru3apt6apt4": 1006,
      "drivetrucktru3apt6apt7": 1007,
      "drivetrucktru4apt5apt4": 1008,
      "drivetrucktru3apt8apt5": 1009,
      "drivetrucktru2apt3pos55cit1": 1010,
      "drivetrucktru2apt3pos55cit5": 1011,
      "drivetrucktru2apt3pos55cit4": 1012,
      "drivetrucktru2apt3pos55cit2": 1013,
      "drivetrucktru2apt3pos55cit3": 1014,
      "drivetrucktru2apt3pos55cit6": 1015,
      "drivetrucktru2apt3pos44cit1": 1016,
      "drivetrucktru2apt3pos44cit5": 1017,
      "drivetrucktru2apt3pos44cit4": 1018,
      "drivetrucktru2apt3pos44cit2": 1019,
      "drivetrucktru2apt3pos44cit3": 1020,
      "drivetrucktru2apt3pos44cit6": 1021,
      "drivetrucktru2apt3pos66cit1": 1022,
      "drivetrucktru2apt3pos66cit5": 1023,
      "drivetrucktru2apt3pos66cit4": 1024,
      "drivetrucktru2apt3pos66cit2": 1025,
      "drivetrucktru2apt3pos66cit3": 1026,
      "drivetrucktru2apt3pos66cit6": 1027,
      "drivetrucktru2apt3pos77cit1": 1028,
      "drivetrucktru2apt3pos77cit5": 1029,
      "drivetrucktru2apt3pos77cit4": 1030,
      "drivetrucktru2apt3pos77cit2": 1031,
      "drivetrucktru2apt3pos77cit3": 1032,
      "drivetrucktru2apt3pos77cit6": 1033,
      "drivetrucktru2apt3apt5cit1": 1034,
      "drivetrucktru2apt3apt5cit5": 1035,
      "drivetrucktru2apt3apt5cit4": 1036,
      "drivetrucktru2apt3apt5cit2": 1037,
      "drivetrucktru2apt3apt5cit3": 1038,
      "drivetrucktru2apt3apt5cit6": 1039,
      "drivetrucktru2apt3apt8cit1": 1040,
      "drivetrucktru2apt3apt8cit5": 1041,
      "drivetrucktru2apt3apt8cit4": 1042,
      "drivetrucktru2apt3apt8cit2": 1043,
      "drivetrucktru2apt3apt8cit3": 1044,
      "drivetrucktru2apt3apt8cit6": 1045,
      "drivetrucktru2apt3apt6cit1": 1046,
      "drivetrucktru2apt3apt6cit5": 1047,
      "drivetrucktru2apt3apt6cit4": 1048,
      "drivetrucktru2apt3apt6cit2": 1049,
      "drivetrucktru2apt3apt6cit3": 1050,
      "drivetrucktru2apt3apt6cit6": 1051,
      "drivetrucktru2apt3apt7cit1": 1052,
      "drivetrucktru2apt3apt7cit5": 1053,
      "drivetrucktru2apt3apt7cit4": 1054,
      "drivetrucktru2apt3apt7cit2": 1055,
      "drivetrucktru2apt3apt7cit3": 1056,
      "drivetrucktru2apt3apt7cit6": 1057,
      "drivetrucktru2apt3apt4cit1": 1058,
      "drivetrucktru2apt3apt4cit4": 1059,
      "drivetrucktru2apt3apt4cit3": 1060,
      "drivetrucktru2apt3apt4cit6": 1061,
      "drivetrucktru2apt3apt4cit5": 1062,
      "drivetrucktru2apt3apt4cit2": 1063,
      "drivetrucktru2apt2apt5cit1": 1064,
      "drivetrucktru2apt2apt5cit5": 1065,
      "drivetrucktru2apt2apt5cit4": 1066,
      "drivetrucktru2apt2apt5cit2": 1067,
      "drivetrucktru2apt2apt5cit3": 1068,
      "drivetrucktru2apt2apt5cit6": 1069,
      "drivetrucktru2apt2apt8cit1": 1070,
      "drivetrucktru2apt2apt8cit5": 1071,
      "drivetrucktru2apt2apt8cit4": 1072,
      "drivetrucktru2apt2apt8cit2": 1073,
      "drivetrucktru2apt2apt8cit3": 1074,
      "drivetrucktru2apt2apt8cit6": 1075,
      "drivetrucktru2apt2apt4cit1": 1076,
      "drivetrucktru2apt2apt4cit5": 1077,
      "drivetrucktru2apt2apt4cit4": 1078,
      "drivetrucktru2apt2apt4cit2": 1079,
      "drivetrucktru2apt2apt4cit3": 1080,
      "drivetrucktru2apt2apt4cit6": 1081,
      "drivetrucktru2apt2apt6cit1": 1082,
      "drivetrucktru2apt2apt6cit5": 1083,
      "drivetrucktru2apt2apt6cit4": 1084,
      "drivetrucktru2apt2apt6cit2": 1085,
      "drivetrucktru2apt2apt6cit3": 1086,
      "drivetrucktru2apt2apt6cit6": 1087,
      "drivetrucktru2apt2apt7cit1": 1088,
      "drivetrucktru2apt2apt7cit5": 1089,
      "drivetrucktru2apt2apt7cit4": 1090,
      "drivetrucktru2apt2apt7cit2": 1091,
      "drivetrucktru2apt2apt7cit3": 1092,
      "drivetrucktru2apt2apt7cit6": 1093,
      "drivetrucktru2apt1apt5cit1": 1094,
      "drivetrucktru2apt1apt5cit5": 1095,
      "drivetrucktru2apt1apt5cit4": 1096,
      "drivetrucktru2apt1apt5cit2": 1097,
      "drivetrucktru2apt1apt5cit3": 1098,
      "drivetrucktru2apt1apt5cit6": 1099,
      "drivetrucktru2apt1apt8cit1": 1100,
      "drivetrucktru2apt1apt8cit5": 1101,
      "drivetrucktru2apt1apt8cit4": 1102,
      "drivetrucktru2apt1apt8cit2": 1103,
      "drivetrucktru2apt1apt8cit3": 1104,
      "drivetrucktru2apt1apt8cit6": 1105,
      "drivetrucktru2apt1apt6cit1": 1106,
      "drivetrucktru2apt1apt6cit5": 1107,
      "drivetrucktru2apt1apt6cit4": 1108,
      "drivetrucktru2apt1apt6cit2": 1109,
      "drivetrucktru2apt1apt6cit3": 1110,
      "drivetrucktru2apt1apt6cit6": 1111,
      "drivetrucktru2apt1apt7cit1": 1112,
      "drivetrucktru2apt1apt7cit5": 1113,
      "drivetrucktru2apt1apt7cit4": 1114,
      "drivetrucktru2apt1apt7cit2": 1115,
      "drivetrucktru2apt1apt7cit3": 1116,
      "drivetrucktru2apt1apt7cit6": 1117,
      "drivetrucktru2apt1apt4cit1": 1118,
      "drivetrucktru2apt1apt4cit5": 1119,
      "drivetrucktru2apt1apt4cit4": 1120,
      "drivetrucktru2apt1apt4cit2": 1121,
      "drivetrucktru2apt1apt4cit6": 1122,
      "drivetrucktru2apt3pos33cit5": 1123,
      "drivetrucktru2apt3pos33cit4": 1124,
      "drivetrucktru2apt3pos33cit2": 1125,
      "drivetrucktru2apt3pos33cit3": 1126,
      "drivetrucktru2apt3pos33cit1": 1127,
      "drivetrucktru2apt3pos33cit6": 1128,
      "drivetrucktru2apt1apt4cit3": 1129,
      "drivetrucktru2apt2pos55cit1": 1130,
      "drivetrucktru2apt2pos55cit5": 1131,
      "drivetrucktru2apt2pos55cit4": 1132,
      "drivetrucktru2apt2pos55cit2": 1133,
      "drivetrucktru2apt2pos55cit3": 1134,
      "drivetrucktru2apt2pos55cit6": 1135,
      "drivetrucktru2apt2pos44cit1": 1136,
      "drivetrucktru2apt2pos44cit5": 1137,
      "drivetrucktru2apt2pos44cit4": 1138,
      "drivetrucktru2apt2pos44cit2": 1139,
      "drivetrucktru2apt2pos44cit3": 1140,
      "drivetrucktru2apt2pos44cit6": 1141,
      "drivetrucktru2apt2pos66cit1": 1142,
      "drivetrucktru2apt2pos66cit5": 1143,
      "drivetrucktru2apt2pos66cit4": 1144,
      "drivetrucktru2apt2pos66cit2": 1145,
      "drivetrucktru2apt2pos66cit3": 1146,
      "drivetrucktru2apt2pos66cit6": 1147,
      "drivetrucktru2apt2pos77cit1": 1148,
      "drivetrucktru2apt2pos77cit5": 1149,
      "drivetrucktru2apt2pos77cit4": 1150,
      "drivetrucktru2apt2pos77cit2": 1151,
      "drivetrucktru2apt2pos77cit3": 1152,
      "drivetrucktru2apt2pos77cit6": 1153,
      "drivetrucktru2apt1pos55cit1": 1154,
      "drivetrucktru2apt1pos55cit5": 1155,
      "drivetrucktru2apt1pos55cit4": 1156,
      "drivetrucktru2apt1pos55cit2": 1157,
      "drivetrucktru2apt1pos55cit3": 1158,
      "drivetrucktru2apt1pos55cit6": 1159,
      "drivetrucktru2apt1pos44cit1": 1160,
      "drivetrucktru2apt1pos44cit5": 1161,
      "drivetrucktru2apt1pos44cit4": 1162,
      "drivetrucktru2apt1pos44cit2": 1163,
      "drivetrucktru2apt1pos44cit3": 1164,
      "drivetrucktru2apt1pos44cit6": 1165,
      "drivetrucktru2apt1pos66cit1": 1166,
      "drivetrucktru2apt1pos66cit5": 1167,
      "drivetrucktru2apt1pos66cit4": 1168,
      "drivetrucktru2apt1pos66cit2": 1169,
      "drivetrucktru2apt1pos66cit3": 1170,
      "drivetrucktru2apt1pos66cit6": 1171,
      "drivetrucktru2apt1pos77cit1": 1172,
      "drivetrucktru2apt1pos77cit5": 1173,
      "drivetrucktru2apt1pos77cit4": 1174,
      "drivetrucktru2apt1pos77cit2": 1175,
      "drivetrucktru2apt1pos77cit3": 1176,
      "drivetrucktru2apt1pos77cit6": 1177,
      "drivetrucktru5apt3pos55cit1": 1178,
      "drivetrucktru5apt3pos55cit5": 1179,
      "drivetrucktru5apt3pos55cit4": 1180,
      "drivetrucktru5apt3pos55cit2": 1181,
      "drivetrucktru5apt3pos55cit3": 1182,
      "drivetrucktru5apt3pos55cit6": 1183,
      "drivetrucktru5apt3pos44cit1": 1184,
      "drivetrucktru5apt3pos44cit5": 1185,
      "drivetrucktru5apt3pos44cit4": 1186,
      "drivetrucktru5apt3pos44cit2": 1187,
      "drivetrucktru5apt3pos44cit3": 1188,
      "drivetrucktru5apt3pos44cit6": 1189,
      "drivetrucktru5apt3pos66cit1": 1190,
      "drivetrucktru5apt3pos66cit5": 1191,
      "drivetrucktru5apt3pos66cit4": 1192,
      "drivetrucktru5apt3pos66cit2": 1193,
      "drivetrucktru5apt3pos66cit3": 1194,
      "drivetrucktru5apt3pos66cit6": 1195,
      "drivetrucktru5apt3pos77cit1": 1196,
      "drivetrucktru5apt3pos77cit5": 1197,
      "drivetrucktru5apt3pos77cit4": 1198,
      "drivetrucktru5apt3pos77cit2": 1199,
      "drivetrucktru5apt3pos77cit3": 1200,
      "drivetrucktru5apt3pos77cit6": 1201,
      "drivetrucktru5apt3apt5cit1": 1202,
      "drivetrucktru5apt3apt5cit5": 1203,
      "drivetrucktru5apt3apt5cit4": 1204,
      "drivetrucktru5apt3apt5cit2": 1205,
      "drivetrucktru5apt3apt5cit3": 1206,
      "drivetrucktru5apt3apt5cit6": 1207,
      "drivetrucktru5apt3apt8cit1": 1208,
      "drivetrucktru5apt3apt8cit5": 1209,
      "drivetrucktru5apt3apt8cit4": 1210,
      "drivetrucktru5apt3apt8cit2": 1211,
      "drivetrucktru5apt3apt8cit3": 1212,
      "drivetrucktru5apt3apt8cit6": 1213,
      "drivetrucktru5apt3apt6cit1": 1214,
      "drivetrucktru5apt3apt6cit5": 1215,
      "drivetrucktru5apt3apt6cit4": 1216,
      "drivetrucktru5apt3apt6cit2": 1217,
      "drivetrucktru5apt3apt6cit3": 1218,
      "drivetrucktru5apt3apt6cit6": 1219,
      "drivetrucktru5apt3apt7cit1": 1220,
      "drivetrucktru5apt3apt7cit5": 1221,
      "drivetrucktru5apt3apt7cit4": 1222,
      "drivetrucktru5apt3apt7cit2": 1223,
      "drivetrucktru5apt3apt7cit3": 1224,
      "drivetrucktru5apt3apt7cit6": 1225,
      "drivetrucktru5apt3apt4cit1": 1226,
      "drivetrucktru5apt3apt4cit4": 1227,
      "drivetrucktru5apt3apt4cit3": 1228,
      "drivetrucktru5apt3apt4cit6": 1229,
      "drivetrucktru5apt3apt4cit5": 1230,
      "drivetrucktru5apt3apt4cit2": 1231,
      "drivetrucktru5apt2apt5cit1": 1232,
      "drivetrucktru5apt2apt5cit5": 1233,
      "drivetrucktru5apt2apt5cit4": 1234,
      "drivetrucktru5apt2apt5cit2": 1235,
      "drivetrucktru5apt2apt5cit3": 1236,
      "drivetrucktru5apt2apt5cit6": 1237,
      "drivetrucktru5apt2apt8cit1": 1238,
      "drivetrucktru5apt2apt8cit5": 1239,
      "drivetrucktru5apt2apt8cit4": 1240,
      "drivetrucktru5apt2apt8cit2": 1241,
      "drivetrucktru5apt2apt8cit3": 1242,
      "drivetrucktru5apt2apt8cit6": 1243,
      "drivetrucktru5apt2apt4cit1": 1244,
      "drivetrucktru5apt2apt4cit5": 1245,
      "drivetrucktru5apt2apt4cit4": 1246,
      "drivetrucktru5apt2apt4cit2": 1247,
      "drivetrucktru5apt2apt4cit3": 1248,
      "drivetrucktru5apt2apt4cit6": 1249,
      "drivetrucktru5apt2apt6cit1": 1250,
      "drivetrucktru5apt2apt6cit5": 1251,
      "drivetrucktru5apt2apt6cit4": 1252,
      "drivetrucktru5apt2apt6cit2": 1253,
      "drivetrucktru5apt2apt6cit3": 1254,
      "drivetrucktru5apt2apt6cit6": 1255,
      "drivetrucktru5apt2apt7cit1": 1256,
      "drivetrucktru5apt2apt7cit5": 1257,
      "drivetrucktru5apt2apt7cit4": 1258,
      "drivetrucktru5apt2apt7cit2": 1259,
      "drivetrucktru5apt2apt7cit3": 1260,
      "drivetrucktru5apt2apt7cit6": 1261,
      "drivetrucktru5apt1apt5cit1": 1262,
      "drivetrucktru5apt1apt5cit5": 1263,
      "drivetrucktru5apt1apt5cit4": 1264,
      "drivetrucktru5apt1apt5cit2": 1265,
      "drivetrucktru5apt1apt5cit3": 1266,
      "drivetrucktru5apt1apt5cit6": 1267,
      "drivetrucktru5apt1apt8cit1": 1268,
      "drivetrucktru5apt1apt8cit5": 1269,
      "drivetrucktru5apt1apt8cit4": 1270,
      "drivetrucktru5apt1apt8cit2": 1271,
      "drivetrucktru5apt1apt8cit3": 1272,
      "drivetrucktru5apt1apt8cit6": 1273,
      "drivetrucktru5apt1apt6cit1": 1274,
      "drivetrucktru5apt1apt6cit5": 1275,
      "drivetrucktru5apt1apt6cit4": 1276,
      "drivetrucktru5apt1apt6cit2": 1277,
      "drivetrucktru5apt1apt6cit3": 1278,
      "drivetrucktru5apt1apt6cit6": 1279,
      "drivetrucktru5apt1apt7cit1": 1280,
      "drivetrucktru5apt1apt7cit5": 1281,
      "drivetrucktru5apt1apt7cit4": 1282,
      "drivetrucktru5apt1apt7cit2": 1283,
      "drivetrucktru5apt1apt7cit3": 1284,
      "drivetrucktru5apt1apt7cit6": 1285,
      "drivetrucktru5apt1apt4cit1": 1286,
      "drivetrucktru5apt1apt4cit5": 1287,
      "drivetrucktru5apt1apt4cit4": 1288,
      "drivetrucktru5apt1apt4cit2": 1289,
      "drivetrucktru5apt1apt4cit6": 1290,
      "drivetrucktru5apt3pos33cit5": 1291,
      "drivetrucktru5apt3pos33cit4": 1292,
      "drivetrucktru5apt3pos33cit2": 1293,
      "drivetrucktru5apt3pos33cit3": 1294,
      "drivetrucktru5apt3pos33cit1": 1295,
      "drivetrucktru5apt3pos33cit6": 1296,
      "drivetrucktru5apt1apt4cit3": 1297,
      "drivetrucktru5apt2pos55cit1": 1298,
      "drivetrucktru5apt2pos55cit5": 1299,
      "drivetrucktru5apt2pos55cit4": 1300,
      "drivetrucktru5apt2pos55cit2": 1301,
      "drivetrucktru5apt2pos55cit3": 1302,
      "drivetrucktru5apt2pos55cit6": 1303,
      "drivetrucktru5apt2pos44cit1": 1304,
      "drivetrucktru5apt2pos44cit5": 1305,
      "drivetrucktru5apt2pos44cit4": 1306,
      "drivetrucktru5apt2pos44cit2": 1307,
      "drivetrucktru5apt2pos44cit3": 1308,
      "drivetrucktru5apt2pos44cit6": 1309,
      "drivetrucktru5apt2pos66cit1": 1310,
      "drivetrucktru5apt2pos66cit5": 1311,
      "drivetrucktru5apt2pos66cit4": 1312,
      "drivetrucktru5apt2pos66cit2": 1313,
      "drivetrucktru5apt2pos66cit3": 1314,
      "drivetrucktru5apt2pos66cit6": 1315,
      "drivetrucktru5apt2pos77cit1": 1316,
      "drivetrucktru5apt2pos77cit5": 1317,
      "drivetrucktru5apt2pos77cit4": 1318,
      "drivetrucktru5apt2pos77cit2": 1319,
      "drivetrucktru5apt2pos77cit3": 1320,
      "drivetrucktru5apt2pos77cit6": 1321,
      "drivetrucktru5apt1pos55cit1": 1322,
      "drivetrucktru5apt1pos55cit5": 1323,
      "drivetrucktru5apt1pos55cit4": 1324,
      "drivetrucktru5apt1pos55cit2": 1325,
      "drivetrucktru5apt1pos55cit3": 1326,
      "drivetrucktru5apt1pos55cit6": 1327,
      "drivetrucktru5apt1pos44cit1": 1328,
      "drivetrucktru5apt1pos44cit5": 1329,
      "drivetrucktru5apt1pos44cit4": 1330,
      "drivetrucktru5apt1pos44cit2": 1331,
      "drivetrucktru5apt1pos44cit3": 1332,
      "drivetrucktru5apt1pos44cit6": 1333,
      "drivetrucktru5apt1pos66cit1": 1334,
      "drivetrucktru5apt1pos66cit5": 1335,
      "drivetrucktru5apt1pos66cit4": 1336,
      "drivetrucktru5apt1pos66cit2": 1337,
      "drivetrucktru5apt1pos66cit3": 1338,
      "drivetrucktru5apt1pos66cit6": 1339,
      "drivetrucktru5apt1pos77cit1": 1340,
      "drivetrucktru5apt1pos77cit5": 1341,
      "drivetrucktru5apt1pos77cit4": 1342,
      "drivetrucktru5apt1pos77cit2": 1343,
      "drivetrucktru5apt1pos77cit3": 1344,
      "drivetrucktru5apt1pos77cit6": 1345,
      "drivetrucktru1apt3pos55cit1": 1346,
      "drivetrucktru1apt3pos55cit5": 1347,
      "drivetrucktru1apt3pos55cit4": 1348,
      "drivetrucktru1apt3pos55cit2": 1349,
      "drivetrucktru1apt3pos55cit3": 1350,
      "drivetrucktru1apt3pos55cit6": 1351,
      "drivetrucktru1apt3pos44cit1": 1352,
      "drivetrucktru1apt3pos44cit5": 1353,
      "drivetrucktru1apt3pos44cit4": 1354,
      "drivetrucktru1apt3pos44cit2": 1355,
      "drivetrucktru1apt3pos44cit3": 1356,
      "drivetrucktru1apt3pos44cit6": 1357,
      "drivetrucktru1apt3pos66cit1": 1358,
      "drivetrucktru1apt3pos66cit5": 1359,
      "drivetrucktru1apt3pos66cit4": 1360,
      "drivetrucktru1apt3pos66cit2": 1361,
      "drivetrucktru1apt3pos66cit3": 1362,
      "drivetrucktru1apt3pos66cit6": 1363,
      "drivetrucktru1apt3pos77cit1": 1364,
      "drivetrucktru1apt3pos77cit5": 1365,
      "drivetrucktru1apt3pos77cit4": 1366,
      "drivetrucktru1apt3pos77cit2": 1367,
      "drivetrucktru1apt3pos77cit3": 1368,
      "drivetrucktru1apt3pos77cit6": 1369,
      "drivetrucktru1apt3apt5cit1": 1370,
      "drivetrucktru1apt3apt5cit5": 1371,
      "drivetrucktru1apt3apt5cit4": 1372,
      "drivetrucktru1apt3apt5cit2": 1373,
      "drivetrucktru1apt3apt5cit3": 1374,
      "drivetrucktru1apt3apt5cit6": 1375,
      "drivetrucktru1apt3apt8cit1": 1376,
      "drivetrucktru1apt3apt8cit5": 1377,
      "drivetrucktru1apt3apt8cit4": 1378,
      "drivetrucktru1apt3apt8cit2": 1379,
      "drivetrucktru1apt3apt8cit3": 1380,
      "drivetrucktru1apt3apt8cit6": 1381,
      "drivetrucktru1apt3apt6cit1": 1382,
      "drivetrucktru1apt3apt6cit5": 1383,
      "drivetrucktru1apt3apt6cit4": 1384,
      "drivetrucktru1apt3apt6cit2": 1385,
      "drivetrucktru1apt3apt6cit3": 1386,
      "drivetrucktru1apt3apt6cit6": 1387,
      "drivetrucktru1apt3apt7cit1": 1388,
      "drivetrucktru1apt3apt7cit5": 1389,
      "drivetrucktru1apt3apt7cit4": 1390,
      "drivetrucktru1apt3apt7cit2": 1391,
      "drivetrucktru1apt3apt7cit3": 1392,
      "drivetrucktru1apt3apt7cit6": 1393,
      "drivetrucktru1apt3apt4cit1": 1394,
      "drivetrucktru1apt3apt4cit4": 1395,
      "drivetrucktru1apt3apt4cit3": 1396,
      "drivetrucktru1apt3apt4cit6": 1397,
      "drivetrucktru1apt3apt4cit2": 1398,
      "drivetrucktru1apt2apt5cit1": 1399,
      "drivetrucktru1apt2apt5cit5": 1400,
      "drivetrucktru1apt2apt5cit4": 1401,
      "drivetrucktru1apt2apt5cit2": 1402,
      "drivetrucktru1apt2apt5cit3": 1403,
      "drivetrucktru1apt2apt5cit6": 1404,
      "drivetrucktru1apt2apt8cit1": 1405,
      "drivetrucktru1apt2apt8cit5": 1406,
      "drivetrucktru1apt2apt8cit4": 1407,
      "drivetrucktru1apt2apt8cit2": 1408,
      "drivetrucktru1apt2apt8cit3": 1409,
      "drivetrucktru1apt2apt8cit6": 1410,
      "drivetrucktru1apt2apt4cit1": 1411,
      "drivetrucktru1apt2apt4cit5": 1412,
      "drivetrucktru1apt2apt4cit4": 1413,
      "drivetrucktru1apt2apt4cit2": 1414,
      "drivetrucktru1apt2apt4cit3": 1415,
      "drivetrucktru1apt2apt4cit6": 1416,
      "drivetrucktru1apt2apt6cit1": 1417,
      "drivetrucktru1apt2apt6cit5": 1418,
      "drivetrucktru1apt2apt6cit4": 1419,
      "drivetrucktru1apt2apt6cit2": 1420,
      "drivetrucktru1apt2apt6cit3": 1421,
      "drivetrucktru1apt2apt6cit6": 1422,
      "drivetrucktru1apt2apt7cit1": 1423,
      "drivetrucktru1apt2apt7cit5": 1424,
      "drivetrucktru1apt2apt7cit4": 1425,
      "drivetrucktru1apt2apt7cit2": 1426,
      "drivetrucktru1apt2apt7cit3": 1427,
      "drivetrucktru1apt2apt7cit6": 1428,
      "drivetrucktru1apt1apt5cit1": 1429,
      "drivetrucktru1apt1apt5cit5": 1430,
      "drivetrucktru1apt1apt5cit4": 1431,
      "drivetrucktru1apt1apt5cit2": 1432,
      "drivetrucktru1apt1apt5cit3": 1433,
      "drivetrucktru1apt1apt5cit6": 1434,
      "drivetrucktru1apt1apt8cit1": 1435,
      "drivetrucktru1apt1apt8cit5": 1436,
      "drivetrucktru1apt1apt8cit4": 1437,
      "drivetrucktru1apt1apt8cit2": 1438,
      "drivetrucktru1apt1apt8cit3": 1439,
      "drivetrucktru1apt1apt8cit6": 1440,
      "drivetrucktru1apt1apt6cit1": 1441,
      "drivetrucktru1apt1apt6cit5": 1442,
      "drivetrucktru1apt1apt6cit4": 1443,
      "drivetrucktru1apt1apt6cit2": 1444,
      "drivetrucktru1apt1apt6cit3": 1445,
      "drivetrucktru1apt1apt6cit6": 1446,
      "drivetrucktru1apt1apt7cit1": 1447,
      "drivetrucktru1apt1apt7cit5": 1448,
      "drivetrucktru1apt1apt7cit4": 1449,
      "drivetrucktru1apt1apt7cit2": 1450,
      "drivetrucktru1apt1apt7cit3": 1451,
      "drivetrucktru1apt1apt7cit6": 1452,
      "drivetrucktru1apt1apt4cit1": 1453,
      "drivetrucktru1apt1apt4cit5": 1454,
      "drivetrucktru1apt1apt4cit4": 1455,
      "drivetrucktru1apt1apt4cit2": 1456,
      "drivetrucktru1apt1apt4cit6": 1457,
      "drivetrucktru1apt3pos33cit5": 1458,
      "drivetrucktru1apt3pos33cit4": 1459,
      "drivetrucktru1apt3pos33cit2": 1460,
      "drivetrucktru1apt3pos33cit3": 1461,
      "drivetrucktru1apt3pos33cit1": 1462,
      "drivetrucktru1apt3pos33cit6": 1463,
      "drivetrucktru1apt1apt4cit3": 1464,
      "drivetrucktru1apt2pos55cit1": 1465,
      "drivetrucktru1apt2pos55cit5": 1466,
      "drivetrucktru1apt2pos55cit4": 1467,
      "drivetrucktru1apt2pos55cit2": 1468,
      "drivetrucktru1apt2pos55cit3": 1469,
      "drivetrucktru1apt2pos55cit6": 1470,
      "drivetrucktru1apt2pos44cit1": 1471,
      "drivetrucktru1apt2pos44cit5": 1472,
      "drivetrucktru1apt2pos44cit4": 1473,
      "drivetrucktru1apt2pos44cit2": 1474,
      "drivetrucktru1apt2pos44cit3": 1475,
      "drivetrucktru1apt2pos44cit6": 1476,
      "drivetrucktru1apt2pos66cit1": 1477,
      "drivetrucktru1apt2pos66cit5": 1478,
      "drivetrucktru1apt2pos66cit4": 1479,
      "drivetrucktru1apt2pos66cit2": 1480,
      "drivetrucktru1apt2pos66cit3": 1481,
      "drivetrucktru1apt2pos66cit6": 1482,
      "drivetrucktru1apt2pos77cit1": 1483,
      "drivetrucktru1apt2pos77cit5": 1484,
      "drivetrucktru1apt2pos77cit4": 1485,
      "drivetrucktru1apt2pos77cit2": 1486,
      "drivetrucktru1apt2pos77cit3": 1487,
      "drivetrucktru1apt2pos77cit6": 1488,
      "drivetrucktru1apt1pos55cit1": 1489,
      "drivetrucktru1apt1pos55cit5": 1490,
      "drivetrucktru1apt1pos55cit4": 1491,
      "drivetrucktru1apt1pos55cit2": 1492,
      "drivetrucktru1apt1pos55cit3": 1493,
      "drivetrucktru1apt1pos55cit6": 1494,
      "drivetrucktru1apt1pos44cit1": 1495,
      "drivetrucktru1apt1pos44cit5": 1496,
      "drivetrucktru1apt1pos44cit4": 1497,
      "drivetrucktru1apt1pos44cit2": 1498,
      "drivetrucktru1apt1pos44cit3": 1499,
      "drivetrucktru1apt1pos44cit6": 1500,
      "drivetrucktru1apt1pos66cit1": 1501,
      "drivetrucktru1apt1pos66cit5": 1502,
      "drivetrucktru1apt1pos66cit4": 1503,
      "drivetrucktru1apt1pos66cit2": 1504,
      "drivetrucktru1apt1pos66cit3": 1505,
      "drivetrucktru1apt1pos66cit6": 1506,
      "drivetrucktru1apt1pos77cit1": 1507,
      "drivetrucktru1apt1pos77cit5": 1508,
      "drivetrucktru1apt1pos77cit4": 1509,
      "drivetrucktru1apt1pos77cit2": 1510,
      "drivetrucktru1apt1pos77cit3": 1511,
      "drivetrucktru1apt1pos77cit6": 1512,
      "drivetrucktru4apt3pos55cit1": 1513,
      "drivetrucktru4apt3pos55cit5": 1514,
      "drivetrucktru4apt3pos55cit4": 1515,
      "drivetrucktru4apt3pos55cit2": 1516,
      "drivetrucktru4apt3pos55cit3": 1517,
      "drivetrucktru4apt3pos55cit6": 1518,
      "drivetrucktru4apt3pos44cit1": 1519,
      "drivetrucktru4apt3pos44cit5": 1520,
      "drivetrucktru4apt3pos44cit4": 1521,
      "drivetrucktru4apt3pos44cit2": 1522,
      "drivetrucktru4apt3pos44cit3": 1523,
      "drivetrucktru4apt3pos44cit6": 1524,
      "drivetrucktru4apt3pos66cit1": 1525,
      "drivetrucktru4apt3pos66cit5": 1526,
      "drivetrucktru4apt3pos66cit4": 1527,
      "drivetrucktru4apt3pos66cit2": 1528,
      "drivetrucktru4apt3pos66cit3": 1529,
      "drivetrucktru4apt3pos66cit6": 1530,
      "drivetrucktru4apt3pos77cit1": 1531,
      "drivetrucktru4apt3pos77cit5": 1532,
      "drivetrucktru4apt3pos77cit4": 1533,
      "drivetrucktru4apt3pos77cit2": 1534,
      "drivetrucktru4apt3pos77cit3": 1535,
      "drivetrucktru4apt3pos77cit6": 1536,
      "drivetrucktru4apt3apt5cit1": 1537,
      "drivetrucktru4apt3apt5cit5": 1538,
      "drivetrucktru4apt3apt5cit4": 1539,
      "drivetrucktru4apt3apt5cit2": 1540,
      "drivetrucktru4apt3apt5cit3": 1541,
      "drivetrucktru4apt3apt5cit6": 1542,
      "drivetrucktru4apt3apt8cit1": 1543,
      "drivetrucktru4apt3apt8cit5": 1544,
      "drivetrucktru4apt3apt8cit4": 1545,
      "drivetrucktru4apt3apt8cit2": 1546,
      "drivetrucktru4apt3apt8cit3": 1547,
      "drivetrucktru4apt3apt8cit6": 1548,
      "drivetrucktru4apt3apt6cit1": 1549,
      "drivetrucktru4apt3apt6cit5": 1550,
      "drivetrucktru4apt3apt6cit4": 1551,
      "drivetrucktru4apt3apt6cit2": 1552,
      "drivetrucktru4apt3apt6cit3": 1553,
      "drivetrucktru4apt3apt6cit6": 1554,
      "drivetrucktru4apt3apt7cit1": 1555,
      "drivetrucktru4apt3apt7cit5": 1556,
      "drivetrucktru4apt3apt7cit4": 1557,
      "drivetrucktru4apt3apt7cit2": 1558,
      "drivetrucktru4apt3apt7cit3": 1559,
      "drivetrucktru4apt3apt7cit6": 1560,
      "drivetrucktru4apt3apt4cit1": 1561,
      "drivetrucktru4apt3apt4cit4": 1562,
      "drivetrucktru4apt3apt4cit3": 1563,
      "drivetrucktru4apt3apt4cit6": 1564,
      "drivetrucktru4apt3apt4cit5": 1565,
      "drivetrucktru4apt2apt5cit1": 1566,
      "drivetrucktru4apt2apt5cit5": 1567,
      "drivetrucktru4apt2apt5cit4": 1568,
      "drivetrucktru4apt2apt5cit2": 1569,
      "drivetrucktru4apt2apt5cit3": 1570,
      "drivetrucktru4apt2apt5cit6": 1571,
      "drivetrucktru4apt2apt8cit1": 1572,
      "drivetrucktru4apt2apt8cit5": 1573,
      "drivetrucktru4apt2apt8cit4": 1574,
      "drivetrucktru4apt2apt8cit2": 1575,
      "drivetrucktru4apt2apt8cit3": 1576,
      "drivetrucktru4apt2apt8cit6": 1577,
      "drivetrucktru4apt2apt4cit1": 1578,
      "drivetrucktru4apt2apt4cit5": 1579,
      "drivetrucktru4apt2apt4cit4": 1580,
      "drivetrucktru4apt2apt4cit2": 1581,
      "drivetrucktru4apt2apt4cit3": 1582,
      "drivetrucktru4apt2apt4cit6": 1583,
      "drivetrucktru4apt2apt6cit1": 1584,
      "drivetrucktru4apt2apt6cit5": 1585,
      "drivetrucktru4apt2apt6cit4": 1586,
      "drivetrucktru4apt2apt6cit2": 1587,
      "drivetrucktru4apt2apt6cit3": 1588,
      "drivetrucktru4apt2apt6cit6": 1589,
      "drivetrucktru4apt2apt7cit1": 1590,
      "drivetrucktru4apt2apt7cit5": 1591,
      "drivetrucktru4apt2apt7cit4": 1592,
      "drivetrucktru4apt2apt7cit2": 1593,
      "drivetrucktru4apt2apt7cit3": 1594,
      "drivetrucktru4apt2apt7cit6": 1595,
      "drivetrucktru4apt1apt5cit1": 1596,
      "drivetrucktru4apt1apt5cit5": 1597,
      "drivetrucktru4apt1apt5cit4": 1598,
      "drivetrucktru4apt1apt5cit2": 1599,
      "drivetrucktru4apt1apt5cit3": 1600,
      "drivetrucktru4apt1apt5cit6": 1601,
      "drivetrucktru4apt1apt8cit1": 1602,
      "drivetrucktru4apt1apt8cit5": 1603,
      "drivetrucktru4apt1apt8cit4": 1604,
      "drivetrucktru4apt1apt8cit2": 1605,
      "drivetrucktru4apt1apt8cit3": 1606,
      "drivetrucktru4apt1apt8cit6": 1607,
      "drivetrucktru4apt1apt6cit1": 1608,
      "drivetrucktru4apt1apt6cit5": 1609,
      "drivetrucktru4apt1apt6cit4": 1610,
      "drivetrucktru4apt1apt6cit2": 1611,
      "drivetrucktru4apt1apt6cit3": 1612,
      "drivetrucktru4apt1apt6cit6": 1613,
      "drivetrucktru4apt1apt7cit1": 1614,
      "drivetrucktru4apt1apt7cit5": 1615,
      "drivetrucktru4apt1apt7cit4": 1616,
      "drivetrucktru4apt1apt7cit2": 1617,
      "drivetrucktru4apt1apt7cit3": 1618,
      "drivetrucktru4apt1apt7cit6": 1619,
      "drivetrucktru4apt1apt4cit1": 1620,
      "drivetrucktru4apt1apt4cit5": 1621,
      "drivetrucktru4apt1apt4cit4": 1622,
      "drivetrucktru4apt1apt4cit2": 1623,
      "drivetrucktru4apt1apt4cit6": 1624,
      "drivetrucktru4apt3pos33cit5": 1625,
      "drivetrucktru4apt3pos33cit4": 1626,
      "drivetrucktru4apt3pos33cit2": 1627,
      "drivetrucktru4apt3pos33cit3": 1628,
      "drivetrucktru4apt3pos33cit1": 1629,
      "drivetrucktru4apt3pos33cit6": 1630,
      "drivetrucktru4apt1apt4cit3": 1631,
      "drivetrucktru4apt2pos55cit1": 1632,
      "drivetrucktru4apt2pos55cit5": 1633,
      "drivetrucktru4apt2pos55cit4": 1634,
      "drivetrucktru4apt2pos55cit2": 1635,
      "drivetrucktru4apt2pos55cit3": 1636,
      "drivetrucktru4apt2pos55cit6": 1637,
      "drivetrucktru4apt2pos44cit1": 1638,
      "drivetrucktru4apt2pos44cit5": 1639,
      "drivetrucktru4apt2pos44cit4": 1640,
      "drivetrucktru4apt2pos44cit2": 1641,
      "drivetrucktru4apt2pos44cit3": 1642,
      "drivetrucktru4apt2pos44cit6": 1643,
      "drivetrucktru4apt2pos66cit1": 1644,
      "drivetrucktru4apt2pos66cit5": 1645,
      "drivetrucktru4apt2pos66cit4": 1646,
      "drivetrucktru4apt2pos66cit2": 1647,
      "drivetrucktru4apt2pos66cit3": 1648,
      "drivetrucktru4apt2pos66cit6": 1649,
      "drivetrucktru4apt2pos77cit1": 1650,
      "drivetrucktru4apt2pos77cit5": 1651,
      "drivetrucktru4apt2pos77cit4": 1652,
      "drivetrucktru4apt2pos77cit2": 1653,
      "drivetrucktru4apt2pos77cit3": 1654,
      "drivetrucktru4apt2pos77cit6": 1655,
      "drivetrucktru4apt1pos55cit1": 1656,
      "drivetrucktru4apt1pos55cit5": 1657,
      "drivetrucktru4apt1pos55cit4": 1658,
      "drivetrucktru4apt1pos55cit2": 1659,
      "drivetrucktru4apt1pos55cit3": 1660,
      "drivetrucktru4apt1pos55cit6": 1661,
      "drivetrucktru4apt1pos44cit1": 1662,
      "drivetrucktru4apt1pos44cit5": 1663,
      "drivetrucktru4apt1pos44cit4": 1664,
      "drivetrucktru4apt1pos44cit2": 1665,
      "drivetrucktru4apt1pos44cit3": 1666,
      "drivetrucktru4apt1pos44cit6": 1667,
      "drivetrucktru4apt1pos66cit1": 1668,
      "drivetrucktru4apt1pos66cit5": 1669,
      "drivetrucktru4apt1pos66cit4": 1670,
      "drivetrucktru4apt1pos66cit2": 1671,
      "drivetrucktru4apt1pos66cit3": 1672,
      "drivetrucktru4apt1pos66cit6": 1673,
      "drivetrucktru4apt1pos77cit1": 1674,
      "drivetrucktru4apt1pos77cit5": 1675,
      "drivetrucktru4apt1pos77cit4": 1676,
      "drivetrucktru4apt1pos77cit2": 1677,
      "drivetrucktru4apt1pos77cit3": 1678,
      "drivetrucktru4apt1pos77cit6": 1679,
      "drivetrucktru3apt3pos55cit1": 1680,
      "drivetrucktru3apt3pos55cit5": 1681,
      "drivetrucktru3apt3pos55cit4": 1682,
      "drivetrucktru3apt3pos55cit2": 1683,
      "drivetrucktru3apt3pos55cit3": 1684,
      "drivetrucktru3apt3pos55cit6": 1685,
      "drivetrucktru3apt3pos44cit1": 1686,
      "drivetrucktru3apt3pos44cit5": 1687,
      "drivetrucktru3apt3pos44cit4": 1688,
      "drivetrucktru3apt3pos44cit2": 1689,
      "drivetrucktru3apt3pos44cit3": 1690,
      "drivetrucktru3apt3pos44cit6": 1691,
      "drivetrucktru3apt3pos66cit1": 1692,
      "drivetrucktru3apt3pos66cit5": 1693,
      "drivetrucktru3apt3pos66cit4": 1694,
      "drivetrucktru3apt3pos66cit2": 1695,
      "drivetrucktru3apt3pos66cit3": 1696,
      "drivetrucktru3apt3pos66cit6": 1697,
      "drivetrucktru3apt3pos77cit1": 1698,
      "drivetrucktru3apt3pos77cit5": 1699,
      "drivetrucktru3apt3pos77cit4": 1700,
      "drivetrucktru3apt3pos77cit2": 1701,
      "drivetrucktru3apt3pos77cit3": 1702,
      "drivetrucktru3apt3pos77cit6": 1703,
      "drivetrucktru3apt3apt5cit1": 1704,
      "drivetrucktru3apt3apt5cit5": 1705,
      "drivetrucktru3apt3apt5cit4": 1706,
      "drivetrucktru3apt3apt5cit2": 1707,
      "drivetrucktru3apt3apt5cit3": 1708,
      "drivetrucktru3apt3apt5cit6": 1709,
      "drivetrucktru3apt3apt8cit1": 1710,
      "drivetrucktru3apt3apt8cit5": 1711,
      "drivetrucktru3apt3apt8cit4": 1712,
      "drivetrucktru3apt3apt8cit2": 1713,
      "drivetrucktru3apt3apt8cit3": 1714,
      "drivetrucktru3apt3apt8cit6": 1715,
      "drivetrucktru3apt3apt6cit1": 1716,
      "drivetrucktru3apt3apt6cit5": 1717,
      "drivetrucktru3apt3apt6cit4": 1718,
      "drivetrucktru3apt3apt6cit2": 1719,
      "drivetrucktru3apt3apt6cit3": 1720,
      "drivetrucktru3apt3apt6cit6": 1721,
      "drivetrucktru3apt3apt7cit1": 1722,
      "drivetrucktru3apt3apt7cit5": 1723,
      "drivetrucktru3apt3apt7cit4": 1724,
      "drivetrucktru3apt3apt7cit2": 1725,
      "drivetrucktru3apt3apt7cit3": 1726,
      "drivetrucktru3apt3apt7cit6": 1727,
      "drivetrucktru3apt3apt4cit1": 1728,
      "drivetrucktru3apt3apt4cit4": 1729,
      "drivetrucktru3apt3apt4cit3": 1730,
      "drivetrucktru3apt3apt4cit6": 1731,
      "drivetrucktru3apt3apt4cit5": 1732,
      "drivetrucktru3apt3apt4cit2": 1733,
      "drivetrucktru3apt2apt5cit1": 1734,
      "drivetrucktru3apt2apt5cit5": 1735,
      "drivetrucktru3apt2apt5cit4": 1736,
      "drivetrucktru3apt2apt5cit2": 1737,
      "drivetrucktru3apt2apt5cit3": 1738,
      "drivetrucktru3apt2apt5cit6": 1739,
      "drivetrucktru3apt2apt8cit1": 1740,
      "drivetrucktru3apt2apt8cit5": 1741,
      "drivetrucktru3apt2apt8cit4": 1742,
      "drivetrucktru3apt2apt8cit2": 1743,
      "drivetrucktru3apt2apt8cit3": 1744,
      "drivetrucktru3apt2apt8cit6": 1745,
      "drivetrucktru3apt2apt4cit1": 1746,
      "drivetrucktru3apt2apt4cit5": 1747,
      "drivetrucktru3apt2apt4cit4": 1748,
      "drivetrucktru3apt2apt4cit2": 1749,
      "drivetrucktru3apt2apt4cit3": 1750,
      "drivetrucktru3apt2apt4cit6": 1751,
      "drivetrucktru3apt2apt6cit1": 1752,
      "drivetrucktru3apt2apt6cit5": 1753,
      "drivetrucktru3apt2apt6cit4": 1754,
      "drivetrucktru3apt2apt6cit2": 1755,
      "drivetrucktru3apt2apt6cit3": 1756,
      "drivetrucktru3apt2apt6cit6": 1757,
      "drivetrucktru3apt2apt7cit1": 1758,
      "drivetrucktru3apt2apt7cit5": 1759,
      "drivetrucktru3apt2apt7cit4": 1760,
      "drivetrucktru3apt2apt7cit2": 1761,
      "drivetrucktru3apt2apt7cit3": 1762,
      "drivetrucktru3apt2apt7cit6": 1763,
      "drivetrucktru3apt1apt5cit1": 1764,
      "drivetrucktru3apt1apt5cit5": 1765,
      "drivetrucktru3apt1apt5cit4": 1766,
      "drivetrucktru3apt1apt5cit2": 1767,
      "drivetrucktru3apt1apt5cit3": 1768,
      "drivetrucktru3apt1apt5cit6": 1769,
      "drivetrucktru3apt1apt8cit1": 1770,
      "drivetrucktru3apt1apt8cit5": 1771,
      "drivetrucktru3apt1apt8cit4": 1772,
      "drivetrucktru3apt1apt8cit2": 1773,
      "drivetrucktru3apt1apt8cit3": 1774,
      "drivetrucktru3apt1apt8cit6": 1775,
      "drivetrucktru3apt1apt6cit1": 1776,
      "drivetrucktru3apt1apt6cit5": 1777,
      "drivetrucktru3apt1apt6cit4": 1778,
      "drivetrucktru3apt1apt6cit2": 1779,
      "drivetrucktru3apt1apt6cit3": 1780,
      "drivetrucktru3apt1apt6cit6": 1781,
      "drivetrucktru3apt1apt7cit1": 1782,
      "drivetrucktru3apt1apt7cit5": 1783,
      "drivetrucktru3apt1apt7cit4": 1784,
      "drivetrucktru3apt1apt7cit2": 1785,
      "drivetrucktru3apt1apt7cit3": 1786,
      "drivetrucktru3apt1apt7cit6": 1787,
      "drivetrucktru3apt1apt4cit1": 1788,
      "drivetrucktru3apt1apt4cit5": 1789,
      "drivetrucktru3apt1apt4cit4": 1790,
      "drivetrucktru3apt1apt4cit2": 1791,
      "drivetrucktru3apt1apt4cit6": 1792,
      "drivetrucktru3apt3pos33cit5": 1793,
      "drivetrucktru3apt3pos33cit4": 1794,
      "drivetrucktru3apt3pos33cit2": 1795,
      "drivetrucktru3apt3pos33cit3": 1796,
      "drivetrucktru3apt3pos33cit1": 1797,
      "drivetrucktru3apt3pos33cit6": 1798,
      "drivetrucktru3apt2pos55cit1": 1799,
      "drivetrucktru3apt2pos55cit5": 1800,
      "drivetrucktru3apt2pos55cit4": 1801,
      "drivetrucktru3apt2pos55cit2": 1802,
      "drivetrucktru3apt2pos55cit3": 1803,
      "drivetrucktru3apt2pos55cit6": 1804,
      "drivetrucktru3apt2pos44cit1": 1805,
      "drivetrucktru3apt2pos44cit5": 1806,
      "drivetrucktru3apt2pos44cit4": 1807,
      "drivetrucktru3apt2pos44cit2": 1808,
      "drivetrucktru3apt2pos44cit3": 1809,
      "drivetrucktru3apt2pos44cit6": 1810,
      "drivetrucktru3apt2pos66cit1": 1811,
      "drivetrucktru3apt2pos66cit5": 1812,
      "drivetrucktru3apt2pos66cit4": 1813,
      "drivetrucktru3apt2pos66cit2": 1814,
      "drivetrucktru3apt2pos66cit3": 1815,
      "drivetrucktru3apt2pos66cit6": 1816,
      "drivetrucktru3apt2pos77cit1": 1817,
      "drivetrucktru3apt2pos77cit5": 1818,
      "drivetrucktru3apt2pos77cit4": 1819,
      "drivetrucktru3apt2pos77cit2": 1820,
      "drivetrucktru3apt2pos77cit3": 1821,
      "drivetrucktru3apt2pos77cit6": 1822,
      "drivetrucktru3apt1pos55cit1": 1823,
      "drivetrucktru3apt1pos55cit5": 1824,
      "drivetrucktru3apt1pos55cit4": 1825,
      "drivetrucktru3apt1pos55cit2": 1826,
      "drivetrucktru3apt1pos55cit3": 1827,
      "drivetrucktru3apt1pos55cit6": 1828,
      "drivetrucktru3apt1pos44cit1": 1829,
      "drivetrucktru3apt1pos44cit5": 1830,
      "drivetrucktru3apt1pos44cit4": 1831,
      "drivetrucktru3apt1pos44cit2": 1832,
      "drivetrucktru3apt1pos44cit3": 1833,
      "drivetrucktru3apt1pos44cit6": 1834,
      "drivetrucktru3apt1pos66cit1": 1835,
      "drivetrucktru3apt1pos66cit5": 1836,
      "drivetrucktru3apt1pos66cit4": 1837,
      "drivetrucktru3apt1pos66cit2": 1838,
      "drivetrucktru3apt1pos66cit3": 1839,
      "drivetrucktru3apt1pos66cit6": 1840,
      "drivetrucktru3apt1pos77cit1": 1841,
      "drivetrucktru3apt1pos77cit5": 1842,
      "drivetrucktru3apt1pos77cit4": 1843,
      "drivetrucktru3apt1pos77cit2": 1844,
      "drivetrucktru3apt1pos77cit3": 1845,
      "drivetrucktru3apt1pos77cit6": 1846,
      "drivetrucktru3pos23pos55cit1": 1847,
      "drivetrucktru3pos23pos55cit5": 1848,
      "drivetrucktru3pos23pos55cit4": 1849,
      "drivetrucktru3pos23pos55cit2": 1850,
      "drivetrucktru3pos23pos55cit3": 1851,
      "drivetrucktru3pos23pos55cit6": 1852,
      "drivetrucktru3pos23pos44cit1": 1853,
      "drivetrucktru3pos23pos44cit5": 1854,
      "drivetrucktru3pos23pos44cit4": 1855,
      "drivetrucktru3pos23pos44cit2": 1856,
      "drivetrucktru3pos23pos44cit3": 1857,
      "drivetrucktru3pos23pos44cit6": 1858,
      "drivetrucktru3pos23pos66cit1": 1859,
      "drivetrucktru3pos23pos66cit5": 1860,
      "drivetrucktru3pos23pos66cit4": 1861,
      "drivetrucktru3pos23pos66cit2": 1862,
      "drivetrucktru3pos23pos66cit3": 1863,
      "drivetrucktru3pos23pos66cit6": 1864,
      "drivetrucktru3pos23pos77cit1": 1865,
      "drivetrucktru3pos23pos77cit5": 1866,
      "drivetrucktru3pos23pos77cit4": 1867,
      "drivetrucktru3pos23pos77cit2": 1868,
      "drivetrucktru3pos23pos77cit3": 1869,
      "drivetrucktru3pos23pos77cit6": 1870,
      "drivetrucktru3pos23apt5cit1": 1871,
      "drivetrucktru3pos23apt5cit5": 1872,
      "drivetrucktru3pos23apt5cit4": 1873,
      "drivetrucktru3pos23apt5cit2": 1874,
      "drivetrucktru3pos23apt5cit3": 1875,
      "drivetrucktru3pos23apt5cit6": 1876,
      "drivetrucktru3pos23apt8cit1": 1877,
      "drivetrucktru3pos23apt8cit5": 1878,
      "drivetrucktru3pos23apt8cit4": 1879,
      "drivetrucktru3pos23apt8cit2": 1880,
      "drivetrucktru3pos23apt8cit3": 1881,
      "drivetrucktru3pos23apt8cit6": 1882,
      "drivetrucktru3pos23apt6cit1": 1883,
      "drivetrucktru3pos23apt6cit5": 1884,
      "drivetrucktru3pos23apt6cit4": 1885,
      "drivetrucktru3pos23apt6cit2": 1886,
      "drivetrucktru3pos23apt6cit3": 1887,
      "drivetrucktru3pos23apt6cit6": 1888,
      "drivetrucktru3pos23apt7cit1": 1889,
      "drivetrucktru3pos23apt7cit5": 1890,
      "drivetrucktru3pos23apt7cit4": 1891,
      "drivetrucktru3pos23apt7cit2": 1892,
      "drivetrucktru3pos23apt7cit3": 1893,
      "drivetrucktru3pos23apt7cit6": 1894,
      "drivetrucktru3pos23apt4cit1": 1895,
      "drivetrucktru3pos23apt4cit4": 1896,
      "drivetrucktru3pos23apt4cit3": 1897,
      "drivetrucktru3pos23apt4cit6": 1898,
      "drivetrucktru3pos23apt4cit5": 1899,
      "drivetrucktru3pos23apt4cit2": 1900,
      "drivetrucktru3pos22apt5cit1": 1901,
      "drivetrucktru3pos22apt5cit5": 1902,
      "drivetrucktru3pos22apt5cit4": 1903,
      "drivetrucktru3pos22apt5cit2": 1904,
      "drivetrucktru3pos22apt5cit3": 1905,
      "drivetrucktru3pos22apt5cit6": 1906,
      "drivetrucktru3pos22apt8cit1": 1907,
      "drivetrucktru3pos22apt8cit5": 1908,
      "drivetrucktru3pos22apt8cit4": 1909,
      "drivetrucktru3pos22apt8cit2": 1910,
      "drivetrucktru3pos22apt8cit3": 1911,
      "drivetrucktru3pos22apt8cit6": 1912,
      "drivetrucktru3pos22apt4cit1": 1913,
      "drivetrucktru3pos22apt4cit5": 1914,
      "drivetrucktru3pos22apt4cit4": 1915,
      "drivetrucktru3pos22apt4cit2": 1916,
      "drivetrucktru3pos22apt4cit3": 1917,
      "drivetrucktru3pos22apt4cit6": 1918,
      "drivetrucktru3pos22apt6cit1": 1919,
      "drivetrucktru3pos22apt6cit5": 1920,
      "drivetrucktru3pos22apt6cit4": 1921,
      "drivetrucktru3pos22apt6cit2": 1922,
      "drivetrucktru3pos22apt6cit3": 1923,
      "drivetrucktru3pos22apt6cit6": 1924,
      "drivetrucktru3pos22apt7cit1": 1925,
      "drivetrucktru3pos22apt7cit5": 1926,
      "drivetrucktru3pos22apt7cit4": 1927,
      "drivetrucktru3pos22apt7cit2": 1928,
      "drivetrucktru3pos22apt7cit3": 1929,
      "drivetrucktru3pos22apt7cit6": 1930,
      "drivetrucktru3pos21apt5cit1": 1931,
      "drivetrucktru3pos21apt5cit5": 1932,
      "drivetrucktru3pos21apt5cit4": 1933,
      "drivetrucktru3pos21apt5cit2": 1934,
      "drivetrucktru3pos21apt5cit3": 1935,
      "drivetrucktru3pos21apt5cit6": 1936,
      "drivetrucktru3pos21apt8cit1": 1937,
      "drivetrucktru3pos21apt8cit5": 1938,
      "drivetrucktru3pos21apt8cit4": 1939,
      "drivetrucktru3pos21apt8cit2": 1940,
      "drivetrucktru3pos21apt8cit3": 1941,
      "drivetrucktru3pos21apt8cit6": 1942,
      "drivetrucktru3pos21apt6cit1": 1943,
      "drivetrucktru3pos21apt6cit5": 1944,
      "drivetrucktru3pos21apt6cit4": 1945,
      "drivetrucktru3pos21apt6cit2": 1946,
      "drivetrucktru3pos21apt6cit3": 1947,
      "drivetrucktru3pos21apt6cit6": 1948,
      "drivetrucktru3pos21apt7cit1": 1949,
      "drivetrucktru3pos21apt7cit5": 1950,
      "drivetrucktru3pos21apt7cit4": 1951,
      "drivetrucktru3pos21apt7cit2": 1952,
      "drivetrucktru3pos21apt7cit3": 1953,
      "drivetrucktru3pos21apt7cit6": 1954,
      "drivetrucktru3pos21apt4cit1": 1955,
      "drivetrucktru3pos21apt4cit5": 1956,
      "drivetrucktru3pos21apt4cit4": 1957,
      "drivetrucktru3pos21apt4cit2": 1958,
      "drivetrucktru3pos21apt4cit6": 1959,
      "drivetrucktru3pos23pos33cit5": 1960,
      "drivetrucktru3pos23pos33cit4": 1961,
      "drivetrucktru3pos23pos33cit2": 1962,
      "drivetrucktru3pos23pos33cit3": 1963,
      "drivetrucktru3pos23pos33cit1": 1964,
      "drivetrucktru3pos23pos33cit6": 1965,
      "drivetrucktru3pos21apt4cit3": 1966,
      "drivetrucktru3pos22pos55cit1": 1967,
      "drivetrucktru3pos22pos55cit5": 1968,
      "drivetrucktru3pos22pos55cit4": 1969,
      "drivetrucktru3pos22pos55cit2": 1970,
      "drivetrucktru3pos22pos55cit3": 1971,
      "drivetrucktru3pos22pos55cit6": 1972,
      "drivetrucktru3pos22pos44cit1": 1973,
      "drivetrucktru3pos22pos44cit5": 1974,
      "drivetrucktru3pos22pos44cit4": 1975,
      "drivetrucktru3pos22pos44cit2": 1976,
      "drivetrucktru3pos22pos44cit3": 1977,
      "drivetrucktru3pos22pos44cit6": 1978,
      "drivetrucktru3pos22pos66cit1": 1979,
      "drivetrucktru3pos22pos66cit5": 1980,
      "drivetrucktru3pos22pos66cit4": 1981,
      "drivetrucktru3pos22pos66cit2": 1982,
      "drivetrucktru3pos22pos66cit3": 1983,
      "drivetrucktru3pos22pos66cit6": 1984,
      "drivetrucktru3pos22pos77cit1": 1985,
      "drivetrucktru3pos22pos77cit5": 1986,
      "drivetrucktru3pos22pos77cit4": 1987,
      "drivetrucktru3pos22pos77cit2": 1988,
      "drivetrucktru3pos22pos77cit3": 1989,
      "drivetrucktru3pos22pos77cit6": 1990,
      "drivetrucktru3pos21pos55cit1": 1991,
      "drivetrucktru3pos21pos55cit5": 1992,
      "drivetrucktru3pos21pos55cit4": 1993,
      "drivetrucktru3pos21pos55cit2": 1994,
      "drivetrucktru3pos21pos55cit3": 1995,
      "drivetrucktru3pos21pos55cit6": 1996,
      "drivetrucktru3pos21pos44cit1": 1997,
      "drivetrucktru3pos21pos44cit5": 1998,
      "drivetrucktru3pos21pos44cit4": 1999,
      "drivetrucktru3pos21pos44cit2": 2000,
      "drivetrucktru3pos21pos44cit3": 2001,
      "drivetrucktru3pos21pos44cit6": 2002,
      "drivetrucktru3pos21pos66cit1": 2003,
      "drivetrucktru3pos21pos66cit5": 2004,
      "drivetrucktru3pos21pos66cit4": 2005,
      "drivetrucktru3pos21pos66cit2": 2006,
      "drivetrucktru3pos21pos66cit3": 2007,
      "drivetrucktru3pos21pos66cit6": 2008,
      "drivetrucktru3pos21pos77cit1": 2009,
      "drivetrucktru3pos21pos77cit5": 2010,
      "drivetrucktru3pos21pos77cit4": 2011,
      "drivetrucktru3pos21pos77cit2": 2012,
      "drivetrucktru3pos21pos77cit3": 2013,
      "drivetrucktru3pos21pos77cit6": 2014,
      "drivetrucktru3pos13pos55cit1": 2015,
      "drivetrucktru3pos13pos55cit5": 2016,
      "drivetrucktru3pos13pos55cit4": 2017,
      "drivetrucktru3pos13pos55cit2": 2018,
      "drivetrucktru3pos13pos55cit3": 2019,
      "drivetrucktru3pos13pos55cit6": 2020,
      "drivetrucktru3pos13pos44cit1": 2021,
      "drivetrucktru3pos13pos44cit5": 2022,
      "drivetrucktru3pos13pos44cit4": 2023,
      "drivetrucktru3pos13pos44cit2": 2024,
      "drivetrucktru3pos13pos44cit3": 2025,
      "drivetrucktru3pos13pos44cit6": 2026,
      "drivetrucktru3pos13pos66cit1": 2027,
      "drivetrucktru3pos13pos66cit5": 2028,
      "drivetrucktru3pos13pos66cit4": 2029,
      "drivetrucktru3pos13pos66cit2": 2030,
      "drivetrucktru3pos13pos66cit3": 2031,
      "drivetrucktru3pos13pos66cit6": 2032,
      "drivetrucktru3pos13pos77cit1": 2033,
      "drivetrucktru3pos13pos77cit5": 2034,
      "drivetrucktru3pos13pos77cit4": 2035,
      "drivetrucktru3pos13pos77cit2": 2036,
      "drivetrucktru3pos13pos77cit3": 2037,
      "drivetrucktru3pos13pos77cit6": 2038,
      "drivetrucktru3pos13apt5cit1": 2039,
      "drivetrucktru3pos13apt5cit5": 2040,
      "drivetrucktru3pos13apt5cit4": 2041,
      "drivetrucktru3pos13apt5cit2": 2042,
      "drivetrucktru3pos13apt5cit3": 2043,
      "drivetrucktru3pos13apt5cit6": 2044,
      "drivetrucktru3pos13apt8cit1": 2045,
      "drivetrucktru3pos13apt8cit5": 2046,
      "drivetrucktru3pos13apt8cit4": 2047,
      "drivetrucktru3pos13apt8cit2": 2048,
      "drivetrucktru3pos13apt8cit3": 2049,
      "drivetrucktru3pos13apt8cit6": 2050,
      "drivetrucktru3pos13apt6cit1": 2051,
      "drivetrucktru3pos13apt6cit5": 2052,
      "drivetrucktru3pos13apt6cit4": 2053,
      "drivetrucktru3pos13apt6cit2": 2054,
      "drivetrucktru3pos13apt6cit3": 2055,
      "drivetrucktru3pos13apt6cit6": 2056,
      "drivetrucktru3pos13apt7cit1": 2057,
      "drivetrucktru3pos13apt7cit5": 2058,
      "drivetrucktru3pos13apt7cit4": 2059,
      "drivetrucktru3pos13apt7cit2": 2060,
      "drivetrucktru3pos13apt7cit3": 2061,
      "drivetrucktru3pos13apt7cit6": 2062,
      "drivetrucktru3pos13apt4cit1": 2063,
      "drivetrucktru3pos13apt4cit4": 2064,
      "drivetrucktru3pos13apt4cit3": 2065,
      "drivetrucktru3pos13apt4cit6": 2066,
      "drivetrucktru3pos13apt4cit5": 2067,
      "drivetrucktru3pos13apt4cit2": 2068,
      "drivetrucktru3pos12apt5cit1": 2069,
      "drivetrucktru3pos12apt5cit5": 2070,
      "drivetrucktru3pos12apt5cit4": 2071,
      "drivetrucktru3pos12apt5cit2": 2072,
      "drivetrucktru3pos12apt5cit3": 2073,
      "drivetrucktru3pos12apt5cit6": 2074,
      "drivetrucktru3pos12apt8cit1": 2075,
      "drivetrucktru3pos12apt8cit5": 2076,
      "drivetrucktru3pos12apt8cit4": 2077,
      "drivetrucktru3pos12apt8cit2": 2078,
      "drivetrucktru3pos12apt8cit3": 2079,
      "drivetrucktru3pos12apt8cit6": 2080,
      "drivetrucktru3pos12apt4cit1": 2081,
      "drivetrucktru3pos12apt4cit5": 2082,
      "drivetrucktru3pos12apt4cit4": 2083,
      "drivetrucktru3pos12apt4cit2": 2084,
      "drivetrucktru3pos12apt4cit3": 2085,
      "drivetrucktru3pos12apt4cit6": 2086,
      "drivetrucktru3pos12apt6cit1": 2087,
      "drivetrucktru3pos12apt6cit5": 2088,
      "drivetrucktru3pos12apt6cit4": 2089,
      "drivetrucktru3pos12apt6cit2": 2090,
      "drivetrucktru3pos12apt6cit3": 2091,
      "drivetrucktru3pos12apt6cit6": 2092,
      "drivetrucktru3pos12apt7cit1": 2093,
      "drivetrucktru3pos12apt7cit5": 2094,
      "drivetrucktru3pos12apt7cit4": 2095,
      "drivetrucktru3pos12apt7cit2": 2096,
      "drivetrucktru3pos12apt7cit3": 2097,
      "drivetrucktru3pos12apt7cit6": 2098,
      "drivetrucktru3pos11apt5cit1": 2099,
      "drivetrucktru3pos11apt5cit5": 2100,
      "drivetrucktru3pos11apt5cit4": 2101,
      "drivetrucktru3pos11apt5cit2": 2102,
      "drivetrucktru3pos11apt5cit3": 2103,
      "drivetrucktru3pos11apt5cit6": 2104,
      "drivetrucktru3pos11apt8cit1": 2105,
      "drivetrucktru3pos11apt8cit5": 2106,
      "drivetrucktru3pos11apt8cit4": 2107,
      "drivetrucktru3pos11apt8cit2": 2108,
      "drivetrucktru3pos11apt8cit3": 2109,
      "drivetrucktru3pos11apt8cit6": 2110,
      "drivetrucktru3pos11apt6cit1": 2111,
      "drivetrucktru3pos11apt6cit5": 2112,
      "drivetrucktru3pos11apt6cit4": 2113,
      "drivetrucktru3pos11apt6cit2": 2114,
      "drivetrucktru3pos11apt6cit3": 2115,
      "drivetrucktru3pos11apt6cit6": 2116,
      "drivetrucktru3pos11apt7cit1": 2117,
      "drivetrucktru3pos11apt7cit5": 2118,
      "drivetrucktru3pos11apt7cit4": 2119,
      "drivetrucktru3pos11apt7cit2": 2120,
      "drivetrucktru3pos11apt7cit3": 2121,
      "drivetrucktru3pos11apt7cit6": 2122,
      "drivetrucktru3pos11apt4cit1": 2123,
      "drivetrucktru3pos11apt4cit5": 2124,
      "drivetrucktru3pos11apt4cit4": 2125,
      "drivetrucktru3pos11apt4cit2": 2126,
      "drivetrucktru3pos11apt4cit6": 2127,
      "drivetrucktru3pos13pos33cit5": 2128,
      "drivetrucktru3pos13pos33cit4": 2129,
      "drivetrucktru3pos13pos33cit2": 2130,
      "drivetrucktru3pos13pos33cit3": 2131,
      "drivetrucktru3pos13pos33cit1": 2132,
      "drivetrucktru3pos13pos33cit6": 2133,
      "drivetrucktru3pos11apt4cit3": 2134,
      "drivetrucktru3pos12pos55cit1": 2135,
      "drivetrucktru3pos12pos55cit5": 2136,
      "drivetrucktru3pos12pos55cit4": 2137,
      "drivetrucktru3pos12pos55cit2": 2138,
      "drivetrucktru3pos12pos55cit3": 2139,
      "drivetrucktru3pos12pos55cit6": 2140,
      "drivetrucktru3pos12pos44cit1": 2141,
      "drivetrucktru3pos12pos44cit5": 2142,
      "drivetrucktru3pos12pos44cit4": 2143,
      "drivetrucktru3pos12pos44cit2": 2144,
      "drivetrucktru3pos12pos44cit3": 2145,
      "drivetrucktru3pos12pos44cit6": 2146,
      "drivetrucktru3pos12pos66cit1": 2147,
      "drivetrucktru3pos12pos66cit5": 2148,
      "drivetrucktru3pos12pos66cit4": 2149,
      "drivetrucktru3pos12pos66cit2": 2150,
      "drivetrucktru3pos12pos66cit3": 2151,
      "drivetrucktru3pos12pos66cit6": 2152,
      "drivetrucktru3pos12pos77cit1": 2153,
      "drivetrucktru3pos12pos77cit5": 2154,
      "drivetrucktru3pos12pos77cit4": 2155,
      "drivetrucktru3pos12pos77cit2": 2156,
      "drivetrucktru3pos12pos77cit3": 2157,
      "drivetrucktru3pos12pos77cit6": 2158,
      "drivetrucktru3pos11pos55cit1": 2159,
      "drivetrucktru3pos11pos55cit5": 2160,
      "drivetrucktru3pos11pos55cit4": 2161,
      "drivetrucktru3pos11pos55cit2": 2162,
      "drivetrucktru3pos11pos55cit3": 2163,
      "drivetrucktru3pos11pos55cit6": 2164,
      "drivetrucktru3pos11pos44cit1": 2165,
      "drivetrucktru3pos11pos44cit5": 2166,
      "drivetrucktru3pos11pos44cit4": 2167,
      "drivetrucktru3pos11pos44cit2": 2168,
      "drivetrucktru3pos11pos44cit3": 2169,
      "drivetrucktru3pos11pos44cit6": 2170,
      "drivetrucktru3pos11pos66cit1": 2171,
      "drivetrucktru3pos11pos66cit5": 2172,
      "drivetrucktru3pos11pos66cit4": 2173,
      "drivetrucktru3pos11pos66cit2": 2174,
      "drivetrucktru3pos11pos66cit3": 2175,
      "drivetrucktru3pos11pos66cit6": 2176,
      "drivetrucktru3pos11pos77cit1": 2177,
      "drivetrucktru3pos11pos77cit5": 2178,
      "drivetrucktru3pos11pos77cit4": 2179,
      "drivetrucktru3pos11pos77cit2": 2180,
      "drivetrucktru3pos11pos77cit3": 2181,
      "drivetrucktru3pos11pos77cit6": 2182,
      "drivetrucktru5pos23pos55cit1": 2183,
      "drivetrucktru5pos23pos55cit5": 2184,
      "drivetrucktru5pos23pos55cit4": 2185,
      "drivetrucktru5pos23pos55cit2": 2186,
      "drivetrucktru5pos23pos55cit3": 2187,
      "drivetrucktru5pos23pos55cit6": 2188,
      "drivetrucktru5pos23pos44cit1": 2189,
      "drivetrucktru5pos23pos44cit5": 2190,
      "drivetrucktru5pos23pos44cit4": 2191,
      "drivetrucktru5pos23pos44cit2": 2192,
      "drivetrucktru5pos23pos44cit3": 2193,
      "drivetrucktru5pos23pos44cit6": 2194,
      "drivetrucktru5pos23pos66cit1": 2195,
      "drivetrucktru5pos23pos66cit5": 2196,
      "drivetrucktru5pos23pos66cit4": 2197,
      "drivetrucktru5pos23pos66cit2": 2198,
      "drivetrucktru5pos23pos66cit3": 2199,
      "drivetrucktru5pos23pos66cit6": 2200,
      "drivetrucktru5pos23pos77cit1": 2201,
      "drivetrucktru5pos23pos77cit5": 2202,
      "drivetrucktru5pos23pos77cit4": 2203,
      "drivetrucktru5pos23pos77cit2": 2204,
      "drivetrucktru5pos23pos77cit3": 2205,
      "drivetrucktru5pos23pos77cit6": 2206,
      "drivetrucktru5pos23apt5cit1": 2207,
      "drivetrucktru5pos23apt5cit5": 2208,
      "drivetrucktru5pos23apt5cit4": 2209,
      "drivetrucktru5pos23apt5cit2": 2210,
      "drivetrucktru5pos23apt5cit3": 2211,
      "drivetrucktru5pos23apt5cit6": 2212,
      "drivetrucktru5pos23apt8cit1": 2213,
      "drivetrucktru5pos23apt8cit5": 2214,
      "drivetrucktru5pos23apt8cit4": 2215,
      "drivetrucktru5pos23apt8cit2": 2216,
      "drivetrucktru5pos23apt8cit3": 2217,
      "drivetrucktru5pos23apt8cit6": 2218,
      "drivetrucktru5pos23apt6cit1": 2219,
      "drivetrucktru5pos23apt6cit5": 2220,
      "drivetrucktru5pos23apt6cit4": 2221,
      "drivetrucktru5pos23apt6cit2": 2222,
      "drivetrucktru5pos23apt6cit3": 2223,
      "drivetrucktru5pos23apt6cit6": 2224,
      "drivetrucktru5pos23apt7cit1": 2225,
      "drivetrucktru5pos23apt7cit5": 2226,
      "drivetrucktru5pos23apt7cit4": 2227,
      "drivetrucktru5pos23apt7cit2": 2228,
      "drivetrucktru5pos23apt7cit3": 2229,
      "drivetrucktru5pos23apt7cit6": 2230,
      "drivetrucktru5pos23apt4cit1": 2231,
      "drivetrucktru5pos23apt4cit4": 2232,
      "drivetrucktru5pos23apt4cit3": 2233,
      "drivetrucktru5pos23apt4cit6": 2234,
      "drivetrucktru5pos23apt4cit5": 2235,
      "drivetrucktru5pos23apt4cit2": 2236,
      "drivetrucktru5pos22apt5cit1": 2237,
      "drivetrucktru5pos22apt5cit5": 2238,
      "drivetrucktru5pos22apt5cit4": 2239,
      "drivetrucktru5pos22apt5cit2": 2240,
      "drivetrucktru5pos22apt5cit3": 2241,
      "drivetrucktru5pos22apt5cit6": 2242,
      "drivetrucktru5pos22apt8cit1": 2243,
      "drivetrucktru5pos22apt8cit5": 2244,
      "drivetrucktru5pos22apt8cit4": 2245,
      "drivetrucktru5pos22apt8cit2": 2246,
      "drivetrucktru5pos22apt8cit3": 2247,
      "drivetrucktru5pos22apt8cit6": 2248,
      "drivetrucktru5pos22apt4cit1": 2249,
      "drivetrucktru5pos22apt4cit5": 2250,
      "drivetrucktru5pos22apt4cit4": 2251,
      "drivetrucktru5pos22apt4cit2": 2252,
      "drivetrucktru5pos22apt4cit3": 2253,
      "drivetrucktru5pos22apt4cit6": 2254,
      "drivetrucktru5pos22apt6cit1": 2255,
      "drivetrucktru5pos22apt6cit5": 2256,
      "drivetrucktru5pos22apt6cit4": 2257,
      "drivetrucktru5pos22apt6cit2": 2258,
      "drivetrucktru5pos22apt6cit3": 2259,
      "drivetrucktru5pos22apt6cit6": 2260,
      "drivetrucktru5pos22apt7cit1": 2261,
      "drivetrucktru5pos22apt7cit5": 2262,
      "drivetrucktru5pos22apt7cit4": 2263,
      "drivetrucktru5pos22apt7cit2": 2264,
      "drivetrucktru5pos22apt7cit3": 2265,
      "drivetrucktru5pos22apt7cit6": 2266,
      "drivetrucktru5pos21apt5cit1": 2267,
      "drivetrucktru5pos21apt5cit5": 2268,
      "drivetrucktru5pos21apt5cit4": 2269,
      "drivetrucktru5pos21apt5cit2": 2270,
      "drivetrucktru5pos21apt5cit3": 2271,
      "drivetrucktru5pos21apt5cit6": 2272,
      "drivetrucktru5pos21apt8cit1": 2273,
      "drivetrucktru5pos21apt8cit5": 2274,
      "drivetrucktru5pos21apt8cit4": 2275,
      "drivetrucktru5pos21apt8cit2": 2276,
      "drivetrucktru5pos21apt8cit3": 2277,
      "drivetrucktru5pos21apt8cit6": 2278,
      "drivetrucktru5pos21apt6cit1": 2279,
      "drivetrucktru5pos21apt6cit5": 2280,
      "drivetrucktru5pos21apt6cit4": 2281,
      "drivetrucktru5pos21apt6cit2": 2282,
      "drivetrucktru5pos21apt6cit3": 2283,
      "drivetrucktru5pos21apt6cit6": 2284,
      "drivetrucktru5pos21apt7cit1": 2285,
      "drivetrucktru5pos21apt7cit5": 2286,
      "drivetrucktru5pos21apt7cit4": 2287,
      "drivetrucktru5pos21apt7cit2": 2288,
      "drivetrucktru5pos21apt7cit3": 2289,
      "drivetrucktru5pos21apt7cit6": 2290,
      "drivetrucktru5pos21apt4cit1": 2291,
      "drivetrucktru5pos21apt4cit5": 2292,
      "drivetrucktru5pos21apt4cit4": 2293,
      "drivetrucktru5pos21apt4cit2": 2294,
      "drivetrucktru5pos21apt4cit6": 2295,
      "drivetrucktru5pos23pos33cit5": 2296,
      "drivetrucktru5pos23pos33cit4": 2297,
      "drivetrucktru5pos23pos33cit2": 2298,
      "drivetrucktru5pos23pos33cit3": 2299,
      "drivetrucktru5pos23pos33cit1": 2300,
      "drivetrucktru5pos23pos33cit6": 2301,
      "drivetrucktru5pos21apt4cit3": 2302,
      "drivetrucktru5pos13pos55cit1": 2303,
      "drivetrucktru5pos13pos55cit5": 2304,
      "drivetrucktru5pos13pos55cit4": 2305,
      "drivetrucktru5pos13pos55cit2": 2306,
      "drivetrucktru5pos13pos55cit3": 2307,
      "drivetrucktru5pos13pos55cit6": 2308,
      "drivetrucktru5pos13pos44cit1": 2309,
      "drivetrucktru5pos13pos44cit5": 2310,
      "drivetrucktru5pos13pos44cit4": 2311,
      "drivetrucktru5pos13pos44cit2": 2312,
      "drivetrucktru5pos13pos44cit3": 2313,
      "drivetrucktru5pos13pos44cit6": 2314,
      "drivetrucktru5pos13pos66cit1": 2315,
      "drivetrucktru5pos13pos66cit5": 2316,
      "drivetrucktru5pos13pos66cit4": 2317,
      "drivetrucktru5pos13pos66cit2": 2318,
      "drivetrucktru5pos13pos66cit3": 2319,
      "drivetrucktru5pos13pos66cit6": 2320,
      "drivetrucktru5pos13pos77cit1": 2321,
      "drivetrucktru5pos13pos77cit5": 2322,
      "drivetrucktru5pos13pos77cit4": 2323,
      "drivetrucktru5pos13pos77cit2": 2324,
      "drivetrucktru5pos13pos77cit3": 2325,
      "drivetrucktru5pos13pos77cit6": 2326,
      "drivetrucktru5pos13apt5cit1": 2327,
      "drivetrucktru5pos13apt5cit5": 2328,
      "drivetrucktru5pos13apt5cit4": 2329,
      "drivetrucktru5pos13apt5cit2": 2330,
      "drivetrucktru5pos13apt5cit3": 2331,
      "drivetrucktru5pos13apt5cit6": 2332,
      "drivetrucktru5pos13apt8cit1": 2333,
      "drivetrucktru5pos13apt8cit5": 2334,
      "drivetrucktru5pos13apt8cit4": 2335,
      "drivetrucktru5pos13apt8cit2": 2336,
      "drivetrucktru5pos13apt8cit3": 2337,
      "drivetrucktru5pos13apt8cit6": 2338,
      "drivetrucktru5pos13apt6cit1": 2339,
      "drivetrucktru5pos13apt6cit5": 2340,
      "drivetrucktru5pos13apt6cit4": 2341,
      "drivetrucktru5pos13apt6cit2": 2342,
      "drivetrucktru5pos13apt6cit3": 2343,
      "drivetrucktru5pos13apt6cit6": 2344,
      "drivetrucktru5pos13apt7cit1": 2345,
      "drivetrucktru5pos13apt7cit5": 2346,
      "drivetrucktru5pos13apt7cit4": 2347,
      "drivetrucktru5pos13apt7cit2": 2348,
      "drivetrucktru5pos13apt7cit3": 2349,
      "drivetrucktru5pos13apt7cit6": 2350,
      "drivetrucktru5pos13apt4cit1": 2351,
      "drivetrucktru5pos13apt4cit4": 2352,
      "drivetrucktru5pos13apt4cit3": 2353,
      "drivetrucktru5pos13apt4cit6": 2354,
      "drivetrucktru5pos13apt4cit5": 2355,
      "drivetrucktru5pos13apt4cit2": 2356,
      "drivetrucktru5pos12apt5cit1": 2357,
      "drivetrucktru5pos12apt5cit5": 2358,
      "drivetrucktru5pos12apt5cit4": 2359,
      "drivetrucktru5pos12apt5cit2": 2360,
      "drivetrucktru5pos12apt5cit3": 2361,
      "drivetrucktru5pos12apt5cit6": 2362,
      "drivetrucktru5pos12apt8cit1": 2363,
      "drivetrucktru5pos12apt8cit5": 2364,
      "drivetrucktru5pos12apt8cit4": 2365,
      "drivetrucktru5pos12apt8cit2": 2366,
      "drivetrucktru5pos12apt8cit3": 2367,
      "drivetrucktru5pos12apt8cit6": 2368,
      "drivetrucktru5pos12apt4cit1": 2369,
      "drivetrucktru5pos12apt4cit5": 2370,
      "drivetrucktru5pos12apt4cit4": 2371,
      "drivetrucktru5pos12apt4cit2": 2372,
      "drivetrucktru5pos12apt4cit3": 2373,
      "drivetrucktru5pos12apt4cit6": 2374,
      "drivetrucktru5pos12apt6cit1": 2375,
      "drivetrucktru5pos12apt6cit5": 2376,
      "drivetrucktru5pos12apt6cit4": 2377,
      "drivetrucktru5pos12apt6cit2": 2378,
      "drivetrucktru5pos12apt6cit3": 2379,
      "drivetrucktru5pos12apt6cit6": 2380,
      "drivetrucktru5pos12apt7cit1": 2381,
      "drivetrucktru5pos12apt7cit5": 2382,
      "drivetrucktru5pos12apt7cit4": 2383,
      "drivetrucktru5pos12apt7cit2": 2384,
      "drivetrucktru5pos12apt7cit3": 2385,
      "drivetrucktru5pos12apt7cit6": 2386,
      "drivetrucktru5pos11apt5cit1": 2387,
      "drivetrucktru5pos11apt5cit5": 2388,
      "drivetrucktru5pos11apt5cit4": 2389,
      "drivetrucktru5pos11apt5cit2": 2390,
      "drivetrucktru5pos11apt5cit3": 2391,
      "drivetrucktru5pos11apt5cit6": 2392,
      "drivetrucktru5pos11apt8cit1": 2393,
      "drivetrucktru5pos11apt8cit5": 2394,
      "drivetrucktru5pos11apt8cit4": 2395,
      "drivetrucktru5pos11apt8cit2": 2396,
      "drivetrucktru5pos11apt8cit3": 2397,
      "drivetrucktru5pos11apt8cit6": 2398,
      "drivetrucktru5pos11apt6cit1": 2399,
      "drivetrucktru5pos11apt6cit5": 2400,
      "drivetrucktru5pos11apt6cit4": 2401,
      "drivetrucktru5pos11apt6cit2": 2402,
      "drivetrucktru5pos11apt6cit3": 2403,
      "drivetrucktru5pos11apt6cit6": 2404,
      "drivetrucktru5pos11apt7cit1": 2405,
      "drivetrucktru5pos11apt7cit5": 2406,
      "drivetrucktru5pos11apt7cit4": 2407,
      "drivetrucktru5pos11apt7cit2": 2408,
      "drivetrucktru5pos11apt7cit3": 2409,
      "drivetrucktru5pos11apt7cit6": 2410,
      "drivetrucktru5pos11apt4cit1": 2411,
      "drivetrucktru5pos11apt4cit5": 2412,
      "drivetrucktru5pos11apt4cit4": 2413,
      "drivetrucktru5pos11apt4cit2": 2414,
      "drivetrucktru5pos11apt4cit6": 2415,
      "drivetrucktru5pos13pos33cit5": 2416,
      "drivetrucktru5pos13pos33cit4": 2417,
      "drivetrucktru5pos13pos33cit2": 2418,
      "drivetrucktru5pos13pos33cit3": 2419,
      "drivetrucktru5pos13pos33cit1": 2420,
      "drivetrucktru5pos13pos33cit6": 2421,
      "drivetrucktru5pos11apt4cit3": 2422,
      "drivetrucktru4pos23pos55cit1": 2423,
      "drivetrucktru4pos23pos55cit5": 2424,
      "drivetrucktru4pos23pos55cit4": 2425,
      "drivetrucktru4pos23pos55cit2": 2426,
      "drivetrucktru4pos23pos55cit3": 2427,
      "drivetrucktru4pos23pos55cit6": 2428,
      "drivetrucktru4pos23pos44cit1": 2429,
      "drivetrucktru4pos23pos44cit5": 2430,
      "drivetrucktru4pos23pos44cit4": 2431,
      "drivetrucktru4pos23pos44cit2": 2432,
      "drivetrucktru4pos23pos44cit3": 2433,
      "drivetrucktru4pos23pos44cit6": 2434,
      "drivetrucktru4pos23pos66cit1": 2435,
      "drivetrucktru4pos23pos66cit5": 2436,
      "drivetrucktru4pos23pos66cit4": 2437,
      "drivetrucktru4pos23pos66cit2": 2438,
      "drivetrucktru4pos23pos66cit3": 2439,
      "drivetrucktru4pos23pos66cit6": 2440,
      "drivetrucktru4pos23pos77cit1": 2441,
      "drivetrucktru4pos23pos77cit5": 2442,
      "drivetrucktru4pos23pos77cit4": 2443,
      "drivetrucktru4pos23pos77cit2": 2444,
      "drivetrucktru4pos23pos77cit3": 2445,
      "drivetrucktru4pos23pos77cit6": 2446,
      "drivetrucktru4pos23apt5cit1": 2447,
      "drivetrucktru4pos23apt5cit5": 2448,
      "drivetrucktru4pos23apt5cit4": 2449,
      "drivetrucktru4pos23apt5cit2": 2450,
      "drivetrucktru4pos23apt5cit3": 2451,
      "drivetrucktru4pos23apt5cit6": 2452,
      "drivetrucktru4pos23apt8cit1": 2453,
      "drivetrucktru4pos23apt8cit5": 2454,
      "drivetrucktru4pos23apt8cit4": 2455,
      "drivetrucktru4pos23apt8cit2": 2456,
      "drivetrucktru4pos23apt8cit3": 2457,
      "drivetrucktru4pos23apt8cit6": 2458,
      "drivetrucktru4pos23apt6cit1": 2459,
      "drivetrucktru4pos23apt6cit5": 2460,
      "drivetrucktru4pos23apt6cit4": 2461,
      "drivetrucktru4pos23apt6cit2": 2462,
      "drivetrucktru4pos23apt6cit3": 2463,
      "drivetrucktru4pos23apt6cit6": 2464,
      "drivetrucktru4pos23apt7cit1": 2465,
      "drivetrucktru4pos23apt7cit5": 2466,
      "drivetrucktru4pos23apt7cit4": 2467,
      "drivetrucktru4pos23apt7cit2": 2468,
      "drivetrucktru4pos23apt7cit3": 2469,
      "drivetrucktru4pos23apt7cit6": 2470,
      "drivetrucktru4pos23apt4cit1": 2471,
      "drivetrucktru4pos23apt4cit4": 2472,
      "drivetrucktru4pos23apt4cit3": 2473,
      "drivetrucktru4pos23apt4cit6": 2474,
      "drivetrucktru4pos23apt4cit5": 2475,
      "drivetrucktru4pos23apt4cit2": 2476,
      "drivetrucktru4pos22apt5cit1": 2477,
      "drivetrucktru4pos22apt5cit5": 2478,
      "drivetrucktru4pos22apt5cit4": 2479,
      "drivetrucktru4pos22apt5cit2": 2480,
      "drivetrucktru4pos22apt5cit3": 2481,
      "drivetrucktru4pos22apt5cit6": 2482,
      "drivetrucktru4pos22apt8cit1": 2483,
      "drivetrucktru4pos22apt8cit5": 2484,
      "drivetrucktru4pos22apt8cit4": 2485,
      "drivetrucktru4pos22apt8cit2": 2486,
      "drivetrucktru4pos22apt8cit3": 2487,
      "drivetrucktru4pos22apt8cit6": 2488,
      "drivetrucktru4pos22apt4cit1": 2489,
      "drivetrucktru4pos22apt4cit5": 2490,
      "drivetrucktru4pos22apt4cit4": 2491,
      "drivetrucktru4pos22apt4cit2": 2492,
      "drivetrucktru4pos22apt4cit3": 2493,
      "drivetrucktru4pos22apt4cit6": 2494,
      "drivetrucktru4pos22apt6cit1": 2495,
      "drivetrucktru4pos22apt6cit5": 2496,
      "drivetrucktru4pos22apt6cit4": 2497,
      "drivetrucktru4pos22apt6cit2": 2498,
      "drivetrucktru4pos22apt6cit3": 2499,
      "drivetrucktru4pos22apt6cit6": 2500,
      "drivetrucktru4pos22apt7cit1": 2501,
      "drivetrucktru4pos22apt7cit5": 2502,
      "drivetrucktru4pos22apt7cit4": 2503,
      "drivetrucktru4pos22apt7cit2": 2504,
      "drivetrucktru4pos22apt7cit3": 2505,
      "drivetrucktru4pos22apt7cit6": 2506,
      "drivetrucktru4pos21apt5cit1": 2507,
      "drivetrucktru4pos21apt5cit5": 2508,
      "drivetrucktru4pos21apt5cit4": 2509,
      "drivetrucktru4pos21apt5cit2": 2510,
      "drivetrucktru4pos21apt5cit3": 2511,
      "drivetrucktru4pos21apt5cit6": 2512,
      "drivetrucktru4pos21apt8cit1": 2513,
      "drivetrucktru4pos21apt8cit5": 2514,
      "drivetrucktru4pos21apt8cit4": 2515,
      "drivetrucktru4pos21apt8cit2": 2516,
      "drivetrucktru4pos21apt8cit3": 2517,
      "drivetrucktru4pos21apt8cit6": 2518,
      "drivetrucktru4pos21apt6cit1": 2519,
      "drivetrucktru4pos21apt6cit5": 2520,
      "drivetrucktru4pos21apt6cit4": 2521,
      "drivetrucktru4pos21apt6cit2": 2522,
      "drivetrucktru4pos21apt6cit3": 2523,
      "drivetrucktru4pos21apt6cit6": 2524,
      "drivetrucktru4pos21apt7cit1": 2525,
      "drivetrucktru4pos21apt7cit5": 2526,
      "drivetrucktru4pos21apt7cit4": 2527,
      "drivetrucktru4pos21apt7cit2": 2528,
      "drivetrucktru4pos21apt7cit3": 2529,
      "drivetrucktru4pos21apt7cit6": 2530,
      "drivetrucktru4pos21apt4cit1": 2531,
      "drivetrucktru4pos21apt4cit5": 2532,
      "drivetrucktru4pos21apt4cit4": 2533,
      "drivetrucktru4pos21apt4cit2": 2534,
      "drivetrucktru4pos21apt4cit6": 2535,
      "drivetrucktru4pos23pos33cit5": 2536,
      "drivetrucktru4pos23pos33cit4": 2537,
      "drivetrucktru4pos23pos33cit2": 2538,
      "drivetrucktru4pos23pos33cit3": 2539,
      "drivetrucktru4pos23pos33cit1": 2540,
      "drivetrucktru4pos23pos33cit6": 2541,
      "drivetrucktru4pos21apt4cit3": 2542,
      "drivetrucktru4pos13pos55cit1": 2543,
      "drivetrucktru4pos13pos55cit5": 2544,
      "drivetrucktru4pos13pos55cit4": 2545,
      "drivetrucktru4pos13pos55cit2": 2546,
      "drivetrucktru4pos13pos55cit3": 2547,
      "drivetrucktru4pos13pos55cit6": 2548,
      "drivetrucktru4pos13pos44cit1": 2549,
      "drivetrucktru4pos13pos44cit5": 2550,
      "drivetrucktru4pos13pos44cit4": 2551,
      "drivetrucktru4pos13pos44cit2": 2552,
      "drivetrucktru4pos13pos44cit3": 2553,
      "drivetrucktru4pos13pos44cit6": 2554,
      "drivetrucktru4pos13pos66cit1": 2555,
      "drivetrucktru4pos13pos66cit5": 2556,
      "drivetrucktru4pos13pos66cit4": 2557,
      "drivetrucktru4pos13pos66cit2": 2558,
      "drivetrucktru4pos13pos66cit3": 2559,
      "drivetrucktru4pos13pos66cit6": 2560,
      "drivetrucktru4pos13pos77cit1": 2561,
      "drivetrucktru4pos13pos77cit5": 2562,
      "drivetrucktru4pos13pos77cit4": 2563,
      "drivetrucktru4pos13pos77cit2": 2564,
      "drivetrucktru4pos13pos77cit3": 2565,
      "drivetrucktru4pos13pos77cit6": 2566,
      "drivetrucktru4pos13apt5cit1": 2567,
      "drivetrucktru4pos13apt5cit5": 2568,
      "drivetrucktru4pos13apt5cit4": 2569,
      "drivetrucktru4pos13apt5cit2": 2570,
      "drivetrucktru4pos13apt5cit3": 2571,
      "drivetrucktru4pos13apt5cit6": 2572,
      "drivetrucktru4pos13apt8cit1": 2573,
      "drivetrucktru4pos13apt8cit5": 2574,
      "drivetrucktru4pos13apt8cit4": 2575,
      "drivetrucktru4pos13apt8cit2": 2576,
      "drivetrucktru4pos13apt8cit3": 2577,
      "drivetrucktru4pos13apt8cit6": 2578,
      "drivetrucktru4pos13apt6cit1": 2579,
      "drivetrucktru4pos13apt6cit5": 2580,
      "drivetrucktru4pos13apt6cit4": 2581,
      "drivetrucktru4pos13apt6cit2": 2582,
      "drivetrucktru4pos13apt6cit3": 2583,
      "drivetrucktru4pos13apt6cit6": 2584,
      "drivetrucktru4pos13apt7cit1": 2585,
      "drivetrucktru4pos13apt7cit5": 2586,
      "drivetrucktru4pos13apt7cit4": 2587,
      "drivetrucktru4pos13apt7cit2": 2588,
      "drivetrucktru4pos13apt7cit3": 2589,
      "drivetrucktru4pos13apt7cit6": 2590,
      "drivetrucktru4pos13apt4cit1": 2591,
      "drivetrucktru4pos13apt4cit4": 2592,
      "drivetrucktru4pos13apt4cit3": 2593,
      "drivetrucktru4pos13apt4cit6": 2594,
      "drivetrucktru4pos13apt4cit5": 2595,
      "drivetrucktru4pos13apt4cit2": 2596,
      "drivetrucktru4pos12apt5cit1": 2597,
      "drivetrucktru4pos12apt5cit5": 2598,
      "drivetrucktru4pos12apt5cit4": 2599,
      "drivetrucktru4pos12apt5cit2": 2600,
      "drivetrucktru4pos12apt5cit3": 2601,
      "drivetrucktru4pos12apt5cit6": 2602,
      "drivetrucktru4pos12apt8cit1": 2603,
      "drivetrucktru4pos12apt8cit5": 2604,
      "drivetrucktru4pos12apt8cit4": 2605,
      "drivetrucktru4pos12apt8cit2": 2606,
      "drivetrucktru4pos12apt8cit3": 2607,
      "drivetrucktru4pos12apt8cit6": 2608,
      "drivetrucktru4pos12apt4cit1": 2609,
      "drivetrucktru4pos12apt4cit5": 2610,
      "drivetrucktru4pos12apt4cit4": 2611,
      "drivetrucktru4pos12apt4cit2": 2612,
      "drivetrucktru4pos12apt4cit3": 2613,
      "drivetrucktru4pos12apt4cit6": 2614,
      "drivetrucktru4pos12apt6cit1": 2615,
      "drivetrucktru4pos12apt6cit5": 2616,
      "drivetrucktru4pos12apt6cit4": 2617,
      "drivetrucktru4pos12apt6cit2": 2618,
      "drivetrucktru4pos12apt6cit3": 2619,
      "drivetrucktru4pos12apt6cit6": 2620,
      "drivetrucktru4pos12apt7cit1": 2621,
      "drivetrucktru4pos12apt7cit5": 2622,
      "drivetrucktru4pos12apt7cit4": 2623,
      "drivetrucktru4pos12apt7cit2": 2624,
      "drivetrucktru4pos12apt7cit3": 2625,
      "drivetrucktru4pos12apt7cit6": 2626,
      "drivetrucktru4pos11apt5cit1": 2627,
      "drivetrucktru4pos11apt5cit5": 2628,
      "drivetrucktru4pos11apt5cit4": 2629,
      "drivetrucktru4pos11apt5cit2": 2630,
      "drivetrucktru4pos11apt5cit3": 2631,
      "drivetrucktru4pos11apt5cit6": 2632,
      "drivetrucktru4pos11apt8cit1": 2633,
      "drivetrucktru4pos11apt8cit5": 2634,
      "drivetrucktru4pos11apt8cit4": 2635,
      "drivetrucktru4pos11apt8cit2": 2636,
      "drivetrucktru4pos11apt8cit3": 2637,
      "drivetrucktru4pos11apt8cit6": 2638,
      "drivetrucktru4pos11apt6cit1": 2639,
      "drivetrucktru4pos11apt6cit5": 2640,
      "drivetrucktru4pos11apt6cit4": 2641,
      "drivetrucktru4pos11apt6cit2": 2642,
      "drivetrucktru4pos11apt6cit3": 2643,
      "drivetrucktru4pos11apt6cit6": 2644,
      "drivetrucktru4pos11apt7cit1": 2645,
      "drivetrucktru4pos11apt7cit5": 2646,
      "drivetrucktru4pos11apt7cit4": 2647,
      "drivetrucktru4pos11apt7cit2": 2648,
      "drivetrucktru4pos11apt7cit3": 2649,
      "drivetrucktru4pos11apt7cit6": 2650,
      "drivetrucktru4pos11apt4cit1": 2651,
      "drivetrucktru4pos11apt4cit5": 2652,
      "drivetrucktru4pos11apt4cit4": 2653,
      "drivetrucktru4pos11apt4cit2": 2654,
      "drivetrucktru4pos11apt4cit6": 2655,
      "drivetrucktru4pos13pos33cit5": 2656,
      "drivetrucktru4pos13pos33cit4": 2657,
      "drivetrucktru4pos13pos33cit2": 2658,
      "drivetrucktru4pos13pos33cit3": 2659,
      "drivetrucktru4pos13pos33cit1": 2660,
      "drivetrucktru4pos13pos33cit6": 2661,
      "drivetrucktru4pos11apt4cit3": 2662,
      "drivetrucktru2pos23pos55cit1": 2663,
      "drivetrucktru2pos23pos55cit5": 2664,
      "drivetrucktru2pos23pos55cit4": 2665,
      "drivetrucktru2pos23pos55cit2": 2666,
      "drivetrucktru2pos23pos55cit3": 2667,
      "drivetrucktru2pos23pos55cit6": 2668,
      "drivetrucktru2pos23pos44cit1": 2669,
      "drivetrucktru2pos23pos44cit5": 2670,
      "drivetrucktru2pos23pos44cit4": 2671,
      "drivetrucktru2pos23pos44cit2": 2672,
      "drivetrucktru2pos23pos44cit3": 2673,
      "drivetrucktru2pos23pos44cit6": 2674,
      "drivetrucktru2pos23pos66cit1": 2675,
      "drivetrucktru2pos23pos66cit5": 2676,
      "drivetrucktru2pos23pos66cit4": 2677,
      "drivetrucktru2pos23pos66cit2": 2678,
      "drivetrucktru2pos23pos66cit3": 2679,
      "drivetrucktru2pos23pos66cit6": 2680,
      "drivetrucktru2pos23pos77cit1": 2681,
      "drivetrucktru2pos23pos77cit5": 2682,
      "drivetrucktru2pos23pos77cit4": 2683,
      "drivetrucktru2pos23pos77cit2": 2684,
      "drivetrucktru2pos23pos77cit3": 2685,
      "drivetrucktru2pos23pos77cit6": 2686,
      "drivetrucktru2pos23apt5cit1": 2687,
      "drivetrucktru2pos23apt5cit5": 2688,
      "drivetrucktru2pos23apt5cit4": 2689,
      "drivetrucktru2pos23apt5cit2": 2690,
      "drivetrucktru2pos23apt5cit3": 2691,
      "drivetrucktru2pos23apt5cit6": 2692,
      "drivetrucktru2pos23apt8cit1": 2693,
      "drivetrucktru2pos23apt8cit5": 2694,
      "drivetrucktru2pos23apt8cit4": 2695,
      "drivetrucktru2pos23apt8cit2": 2696,
      "drivetrucktru2pos23apt8cit3": 2697,
      "drivetrucktru2pos23apt8cit6": 2698,
      "drivetrucktru2pos23apt6cit1": 2699,
      "drivetrucktru2pos23apt6cit5": 2700,
      "drivetrucktru2pos23apt6cit4": 2701,
      "drivetrucktru2pos23apt6cit2": 2702,
      "drivetrucktru2pos23apt6cit3": 2703,
      "drivetrucktru2pos23apt6cit6": 2704,
      "drivetrucktru2pos23apt7cit1": 2705,
      "drivetrucktru2pos23apt7cit5": 2706,
      "drivetrucktru2pos23apt7cit4": 2707,
      "drivetrucktru2pos23apt7cit2": 2708,
      "drivetrucktru2pos23apt7cit3": 2709,
      "drivetrucktru2pos23apt7cit6": 2710,
      "drivetrucktru2pos23apt4cit1": 2711,
      "drivetrucktru2pos23apt4cit4": 2712,
      "drivetrucktru2pos23apt4cit3": 2713,
      "drivetrucktru2pos23apt4cit6": 2714,
      "drivetrucktru2pos23apt4cit5": 2715,
      "drivetrucktru2pos23apt4cit2": 2716,
      "drivetrucktru2pos22apt5cit1": 2717,
      "drivetrucktru2pos22apt5cit5": 2718,
      "drivetrucktru2pos22apt5cit4": 2719,
      "drivetrucktru2pos22apt5cit2": 2720,
      "drivetrucktru2pos22apt5cit3": 2721,
      "drivetrucktru2pos22apt5cit6": 2722,
      "drivetrucktru2pos22apt8cit1": 2723,
      "drivetrucktru2pos22apt8cit5": 2724,
      "drivetrucktru2pos22apt8cit4": 2725,
      "drivetrucktru2pos22apt8cit2": 2726,
      "drivetrucktru2pos22apt8cit3": 2727,
      "drivetrucktru2pos22apt8cit6": 2728,
      "drivetrucktru2pos22apt4cit1": 2729,
      "drivetrucktru2pos22apt4cit5": 2730,
      "drivetrucktru2pos22apt4cit4": 2731,
      "drivetrucktru2pos22apt4cit2": 2732,
      "drivetrucktru2pos22apt4cit3": 2733,
      "drivetrucktru2pos22apt4cit6": 2734,
      "drivetrucktru2pos22apt6cit1": 2735,
      "drivetrucktru2pos22apt6cit5": 2736,
      "drivetrucktru2pos22apt6cit4": 2737,
      "drivetrucktru2pos22apt6cit2": 2738,
      "drivetrucktru2pos22apt6cit3": 2739,
      "drivetrucktru2pos22apt6cit6": 2740,
      "drivetrucktru2pos22apt7cit1": 2741,
      "drivetrucktru2pos22apt7cit5": 2742,
      "drivetrucktru2pos22apt7cit4": 2743,
      "drivetrucktru2pos22apt7cit2": 2744,
      "drivetrucktru2pos22apt7cit3": 2745,
      "drivetrucktru2pos22apt7cit6": 2746,
      "drivetrucktru2pos21apt5cit1": 2747,
      "drivetrucktru2pos21apt5cit5": 2748,
      "drivetrucktru2pos21apt5cit4": 2749,
      "drivetrucktru2pos21apt5cit2": 2750,
      "drivetrucktru2pos21apt5cit3": 2751,
      "drivetrucktru2pos21apt5cit6": 2752,
      "drivetrucktru2pos21apt8cit1": 2753,
      "drivetrucktru2pos21apt8cit5": 2754,
      "drivetrucktru2pos21apt8cit4": 2755,
      "drivetrucktru2pos21apt8cit2": 2756,
      "drivetrucktru2pos21apt8cit3": 2757,
      "drivetrucktru2pos21apt8cit6": 2758,
      "drivetrucktru2pos21apt6cit1": 2759,
      "drivetrucktru2pos21apt6cit5": 2760,
      "drivetrucktru2pos21apt6cit4": 2761,
      "drivetrucktru2pos21apt6cit2": 2762,
      "drivetrucktru2pos21apt6cit3": 2763,
      "drivetrucktru2pos21apt6cit6": 2764,
      "drivetrucktru2pos21apt7cit1": 2765,
      "drivetrucktru2pos21apt7cit5": 2766,
      "drivetrucktru2pos21apt7cit4": 2767,
      "drivetrucktru2pos21apt7cit2": 2768,
      "drivetrucktru2pos21apt7cit3": 2769,
      "drivetrucktru2pos21apt7cit6": 2770,
      "drivetrucktru2pos21apt4cit1": 2771,
      "drivetrucktru2pos21apt4cit5": 2772,
      "drivetrucktru2pos21apt4cit4": 2773,
      "drivetrucktru2pos21apt4cit2": 2774,
      "drivetrucktru2pos21apt4cit6": 2775,
      "drivetrucktru2pos23pos33cit5": 2776,
      "drivetrucktru2pos23pos33cit4": 2777,
      "drivetrucktru2pos23pos33cit2": 2778,
      "drivetrucktru2pos23pos33cit3": 2779,
      "drivetrucktru2pos23pos33cit1": 2780,
      "drivetrucktru2pos23pos33cit6": 2781,
      "drivetrucktru2pos21apt4cit3": 2782,
      "drivetrucktru2pos13pos55cit1": 2783,
      "drivetrucktru2pos13pos55cit5": 2784,
      "drivetrucktru2pos13pos55cit4": 2785,
      "drivetrucktru2pos13pos55cit2": 2786,
      "drivetrucktru2pos13pos55cit3": 2787,
      "drivetrucktru2pos13pos55cit6": 2788,
      "drivetrucktru2pos13pos44cit1": 2789,
      "drivetrucktru2pos13pos44cit5": 2790,
      "drivetrucktru2pos13pos44cit4": 2791,
      "drivetrucktru2pos13pos44cit2": 2792,
      "drivetrucktru2pos13pos44cit3": 2793,
      "drivetrucktru2pos13pos44cit6": 2794,
      "drivetrucktru2pos13pos66cit1": 2795,
      "drivetrucktru2pos13pos66cit5": 2796,
      "drivetrucktru2pos13pos66cit4": 2797,
      "drivetrucktru2pos13pos66cit2": 2798,
      "drivetrucktru2pos13pos66cit3": 2799,
      "drivetrucktru2pos13pos66cit6": 2800,
      "drivetrucktru2pos13pos77cit1": 2801,
      "drivetrucktru2pos13pos77cit5": 2802,
      "drivetrucktru2pos13pos77cit4": 2803,
      "drivetrucktru2pos13pos77cit2": 2804,
      "drivetrucktru2pos13pos77cit3": 2805,
      "drivetrucktru2pos13pos77cit6": 2806,
      "drivetrucktru2pos13apt5cit1": 2807,
      "drivetrucktru2pos13apt5cit5": 2808,
      "drivetrucktru2pos13apt5cit4": 2809,
      "drivetrucktru2pos13apt5cit2": 2810,
      "drivetrucktru2pos13apt5cit3": 2811,
      "drivetrucktru2pos13apt5cit6": 2812,
      "drivetrucktru2pos13apt8cit1": 2813,
      "drivetrucktru2pos13apt8cit5": 2814,
      "drivetrucktru2pos13apt8cit4": 2815,
      "drivetrucktru2pos13apt8cit2": 2816,
      "drivetrucktru2pos13apt8cit3": 2817,
      "drivetrucktru2pos13apt8cit6": 2818,
      "drivetrucktru2pos13apt6cit1": 2819,
      "drivetrucktru2pos13apt6cit5": 2820,
      "drivetrucktru2pos13apt6cit4": 2821,
      "drivetrucktru2pos13apt6cit2": 2822,
      "drivetrucktru2pos13apt6cit3": 2823,
      "drivetrucktru2pos13apt6cit6": 2824,
      "drivetrucktru2pos13apt7cit1": 2825,
      "drivetrucktru2pos13apt7cit5": 2826,
      "drivetrucktru2pos13apt7cit4": 2827,
      "drivetrucktru2pos13apt7cit2": 2828,
      "drivetrucktru2pos13apt7cit3": 2829,
      "drivetrucktru2pos13apt7cit6": 2830,
      "drivetrucktru2pos13apt4cit1": 2831,
      "drivetrucktru2pos13apt4cit4": 2832,
      "drivetrucktru2pos13apt4cit3": 2833,
      "drivetrucktru2pos13apt4cit6": 2834,
      "drivetrucktru2pos13apt4cit5": 2835,
      "drivetrucktru2pos13apt4cit2": 2836,
      "drivetrucktru2pos12apt5cit1": 2837,
      "drivetrucktru2pos12apt5cit5": 2838,
      "drivetrucktru2pos12apt5cit4": 2839,
      "drivetrucktru2pos12apt5cit2": 2840,
      "drivetrucktru2pos12apt5cit3": 2841,
      "drivetrucktru2pos12apt5cit6": 2842,
      "drivetrucktru2pos12apt8cit1": 2843,
      "drivetrucktru2pos12apt8cit5": 2844,
      "drivetrucktru2pos12apt8cit4": 2845,
      "drivetrucktru2pos12apt8cit2": 2846,
      "drivetrucktru2pos12apt8cit3": 2847,
      "drivetrucktru2pos12apt8cit6": 2848,
      "drivetrucktru2pos12apt4cit1": 2849,
      "drivetrucktru2pos12apt4cit5": 2850,
      "drivetrucktru2pos12apt4cit4": 2851,
      "drivetrucktru2pos12apt4cit2": 2852,
      "drivetrucktru2pos12apt4cit3": 2853,
      "drivetrucktru2pos12apt4cit6": 2854,
      "drivetrucktru2pos12apt6cit1": 2855,
      "drivetrucktru2pos12apt6cit5": 2856,
      "drivetrucktru2pos12apt6cit4": 2857,
      "drivetrucktru2pos12apt6cit2": 2858,
      "drivetrucktru2pos12apt6cit3": 2859,
      "drivetrucktru2pos12apt6cit6": 2860,
      "drivetrucktru2pos12apt7cit1": 2861,
      "drivetrucktru2pos12apt7cit5": 2862,
      "drivetrucktru2pos12apt7cit4": 2863,
      "drivetrucktru2pos12apt7cit2": 2864,
      "drivetrucktru2pos12apt7cit3": 2865,
      "drivetrucktru2pos12apt7cit6": 2866,
      "drivetrucktru2pos11apt5cit1": 2867,
      "drivetrucktru2pos11apt5cit5": 2868,
      "drivetrucktru2pos11apt5cit4": 2869,
      "drivetrucktru2pos11apt5cit2": 2870,
      "drivetrucktru2pos11apt5cit3": 2871,
      "drivetrucktru2pos11apt5cit6": 2872,
      "drivetrucktru2pos11apt8cit1": 2873,
      "drivetrucktru2pos11apt8cit5": 2874,
      "drivetrucktru2pos11apt8cit4": 2875,
      "drivetrucktru2pos11apt8cit2": 2876,
      "drivetrucktru2pos11apt8cit3": 2877,
      "drivetrucktru2pos11apt8cit6": 2878,
      "drivetrucktru2pos11apt6cit1": 2879,
      "drivetrucktru2pos11apt6cit5": 2880,
      "drivetrucktru2pos11apt6cit4": 2881,
      "drivetrucktru2pos11apt6cit2": 2882,
      "drivetrucktru2pos11apt6cit3": 2883,
      "drivetrucktru2pos11apt6cit6": 2884,
      "drivetrucktru2pos11apt7cit1": 2885,
      "drivetrucktru2pos11apt7cit5": 2886,
      "drivetrucktru2pos11apt7cit4": 2887,
      "drivetrucktru2pos11apt7cit2": 2888,
      "drivetrucktru2pos11apt7cit3": 2889,
      "drivetrucktru2pos11apt7cit6": 2890,
      "drivetrucktru2pos11apt4cit1": 2891,
      "drivetrucktru2pos11apt4cit5": 2892,
      "drivetrucktru2pos11apt4cit4": 2893,
      "drivetrucktru2pos11apt4cit2": 2894,
      "drivetrucktru2pos11apt4cit6": 2895,
      "drivetrucktru2pos13pos33cit5": 2896,
      "drivetrucktru2pos13pos33cit4": 2897,
      "drivetrucktru2pos13pos33cit2": 2898,
      "drivetrucktru2pos13pos33cit3": 2899,
      "drivetrucktru2pos13pos33cit1": 2900,
      "drivetrucktru2pos13pos33cit6": 2901,
      "drivetrucktru2pos11apt4cit3": 2902,
      "drivetrucktru1pos23pos55cit1": 2903,
      "drivetrucktru1pos23pos55cit5": 2904,
      "drivetrucktru1pos23pos55cit4": 2905,
      "drivetrucktru1pos23pos55cit2": 2906,
      "drivetrucktru1pos23pos55cit3": 2907,
      "drivetrucktru1pos23pos55cit6": 2908,
      "drivetrucktru1pos23pos44cit1": 2909,
      "drivetrucktru1pos23pos44cit5": 2910,
      "drivetrucktru1pos23pos44cit4": 2911,
      "drivetrucktru1pos23pos44cit2": 2912,
      "drivetrucktru1pos23pos44cit3": 2913,
      "drivetrucktru1pos23pos44cit6": 2914,
      "drivetrucktru1pos23pos66cit1": 2915,
      "drivetrucktru1pos23pos66cit5": 2916,
      "drivetrucktru1pos23pos66cit4": 2917,
      "drivetrucktru1pos23pos66cit2": 2918,
      "drivetrucktru1pos23pos66cit3": 2919,
      "drivetrucktru1pos23pos66cit6": 2920,
      "drivetrucktru1pos23pos77cit1": 2921,
      "drivetrucktru1pos23pos77cit5": 2922,
      "drivetrucktru1pos23pos77cit4": 2923,
      "drivetrucktru1pos23pos77cit2": 2924,
      "drivetrucktru1pos23pos77cit3": 2925,
      "drivetrucktru1pos23pos77cit6": 2926,
      "drivetrucktru1pos23apt5cit1": 2927,
      "drivetrucktru1pos23apt5cit5": 2928,
      "drivetrucktru1pos23apt5cit4": 2929,
      "drivetrucktru1pos23apt5cit2": 2930,
      "drivetrucktru1pos23apt5cit3": 2931,
      "drivetrucktru1pos23apt5cit6": 2932,
      "drivetrucktru1pos23apt8cit1": 2933,
      "drivetrucktru1pos23apt8cit5": 2934,
      "drivetrucktru1pos23apt8cit4": 2935,
      "drivetrucktru1pos23apt8cit2": 2936,
      "drivetrucktru1pos23apt8cit3": 2937,
      "drivetrucktru1pos23apt8cit6": 2938,
      "drivetrucktru1pos23apt6cit1": 2939,
      "drivetrucktru1pos23apt6cit5": 2940,
      "drivetrucktru1pos23apt6cit4": 2941,
      "drivetrucktru1pos23apt6cit2": 2942,
      "drivetrucktru1pos23apt6cit3": 2943,
      "drivetrucktru1pos23apt6cit6": 2944,
      "drivetrucktru1pos23apt7cit1": 2945,
      "drivetrucktru1pos23apt7cit5": 2946,
      "drivetrucktru1pos23apt7cit4": 2947,
      "drivetrucktru1pos23apt7cit2": 2948,
      "drivetrucktru1pos23apt7cit3": 2949,
      "drivetrucktru1pos23apt7cit6": 2950,
      "drivetrucktru1pos23apt4cit1": 2951,
      "drivetrucktru1pos23apt4cit4": 2952,
      "drivetrucktru1pos23apt4cit3": 2953,
      "drivetrucktru1pos23apt4cit6": 2954,
      "drivetrucktru1pos23apt4cit5": 2955,
      "drivetrucktru1pos23apt4cit2": 2956,
      "drivetrucktru1pos22apt5cit1": 2957,
      "drivetrucktru1pos22apt5cit5": 2958,
      "drivetrucktru1pos22apt5cit4": 2959,
      "drivetrucktru1pos22apt5cit2": 2960,
      "drivetrucktru1pos22apt5cit3": 2961,
      "drivetrucktru1pos22apt5cit6": 2962,
      "drivetrucktru1pos22apt8cit1": 2963,
      "drivetrucktru1pos22apt8cit5": 2964,
      "drivetrucktru1pos22apt8cit4": 2965,
      "drivetrucktru1pos22apt8cit2": 2966,
      "drivetrucktru1pos22apt8cit3": 2967,
      "drivetrucktru1pos22apt8cit6": 2968,
      "drivetrucktru1pos22apt4cit1": 2969,
      "drivetrucktru1pos22apt4cit5": 2970,
      "drivetrucktru1pos22apt4cit4": 2971,
      "drivetrucktru1pos22apt4cit2": 2972,
      "drivetrucktru1pos22apt4cit3": 2973,
      "drivetrucktru1pos22apt4cit6": 2974,
      "drivetrucktru1pos22apt6cit1": 2975,
      "drivetrucktru1pos22apt6cit5": 2976,
      "drivetrucktru1pos22apt6cit4": 2977,
      "drivetrucktru1pos22apt6cit2": 2978,
      "drivetrucktru1pos22apt6cit3": 2979,
      "drivetrucktru1pos22apt6cit6": 2980,
      "drivetrucktru1pos22apt7cit1": 2981,
      "drivetrucktru1pos22apt7cit5": 2982,
      "drivetrucktru1pos22apt7cit4": 2983,
      "drivetrucktru1pos22apt7cit2": 2984,
      "drivetrucktru1pos22apt7cit3": 2985,
      "drivetrucktru1pos22apt7cit6": 2986,
      "drivetrucktru1pos21apt5cit1": 2987,
      "drivetrucktru1pos21apt5cit5": 2988,
      "drivetrucktru1pos21apt5cit4": 2989,
      "drivetrucktru1pos21apt5cit2": 2990,
      "drivetrucktru1pos21apt5cit3": 2991,
      "drivetrucktru1pos21apt5cit6": 2992,
      "drivetrucktru1pos21apt8cit1": 2993,
      "drivetrucktru1pos21apt8cit5": 2994,
      "drivetrucktru1pos21apt8cit4": 2995,
      "drivetrucktru1pos21apt8cit2": 2996,
      "drivetrucktru1pos21apt8cit3": 2997,
      "drivetrucktru1pos21apt8cit6": 2998,
      "drivetrucktru1pos21apt6cit1": 2999,
      "drivetrucktru1pos21apt6cit5": 3000,
      "drivetrucktru1pos21apt6cit4": 3001,
      "drivetrucktru1pos21apt6cit2": 3002,
      "drivetrucktru1pos21apt6cit3": 3003,
      "drivetrucktru1pos21apt6cit6": 3004,
      "drivetrucktru1pos21apt7cit1": 3005,
      "drivetrucktru1pos21apt7cit5": 3006,
      "drivetrucktru1pos21apt7cit4": 3007,
      "drivetrucktru1pos21apt7cit2": 3008,
      "drivetrucktru1pos21apt7cit3": 3009,
      "drivetrucktru1pos21apt7cit6": 3010,
      "drivetrucktru1pos21apt4cit1": 3011,
      "drivetrucktru1pos21apt4cit5": 3012,
      "drivetrucktru1pos21apt4cit4": 3013,
      "drivetrucktru1pos21apt4cit2": 3014,
      "drivetrucktru1pos21apt4cit6": 3015,
      "drivetrucktru1pos23pos33cit5": 3016,
      "drivetrucktru1pos23pos33cit4": 3017,
      "drivetrucktru1pos23pos33cit2": 3018,
      "drivetrucktru1pos23pos33cit3": 3019,
      "drivetrucktru1pos23pos33cit1": 3020,
      "drivetrucktru1pos23pos33cit6": 3021,
      "drivetrucktru1pos21apt4cit3": 3022,
      "drivetrucktru1pos13pos55cit1": 3023,
      "drivetrucktru1pos13pos55cit5": 3024,
      "drivetrucktru1pos13pos55cit4": 3025,
      "drivetrucktru1pos13pos55cit2": 3026,
      "drivetrucktru1pos13pos55cit3": 3027,
      "drivetrucktru1pos13pos55cit6": 3028,
      "drivetrucktru1pos13pos44cit1": 3029,
      "drivetrucktru1pos13pos44cit5": 3030,
      "drivetrucktru1pos13pos44cit4": 3031,
      "drivetrucktru1pos13pos44cit2": 3032,
      "drivetrucktru1pos13pos44cit3": 3033,
      "drivetrucktru1pos13pos44cit6": 3034,
      "drivetrucktru1pos13pos66cit1": 3035,
      "drivetrucktru1pos13pos66cit5": 3036,
      "drivetrucktru1pos13pos66cit4": 3037,
      "drivetrucktru1pos13pos66cit2": 3038,
      "drivetrucktru1pos13pos66cit3": 3039,
      "drivetrucktru1pos13pos66cit6": 3040,
      "drivetrucktru1pos13pos77cit1": 3041,
      "drivetrucktru1pos13pos77cit5": 3042,
      "drivetrucktru1pos13pos77cit4": 3043,
      "drivetrucktru1pos13pos77cit2": 3044,
      "drivetrucktru1pos13pos77cit3": 3045,
      "drivetrucktru1pos13pos77cit6": 3046,
      "drivetrucktru1pos13apt5cit1": 3047,
      "drivetrucktru1pos13apt5cit5": 3048,
      "drivetrucktru1pos13apt5cit4": 3049,
      "drivetrucktru1pos13apt5cit2": 3050,
      "drivetrucktru1pos13apt5cit3": 3051,
      "drivetrucktru1pos13apt5cit6": 3052,
      "drivetrucktru1pos13apt8cit1": 3053,
      "drivetrucktru1pos13apt8cit5": 3054,
      "drivetrucktru1pos13apt8cit4": 3055,
      "drivetrucktru1pos13apt8cit2": 3056,
      "drivetrucktru1pos13apt8cit3": 3057,
      "drivetrucktru1pos13apt8cit6": 3058,
      "drivetrucktru1pos13apt6cit1": 3059,
      "drivetrucktru1pos13apt6cit5": 3060,
      "drivetrucktru1pos13apt6cit4": 3061,
      "drivetrucktru1pos13apt6cit2": 3062,
      "drivetrucktru1pos13apt6cit3": 3063,
      "drivetrucktru1pos13apt6cit6": 3064,
      "drivetrucktru1pos13apt7cit1": 3065,
      "drivetrucktru1pos13apt7cit5": 3066,
      "drivetrucktru1pos13apt7cit4": 3067,
      "drivetrucktru1pos13apt7cit2": 3068,
      "drivetrucktru1pos13apt7cit3": 3069,
      "drivetrucktru1pos13apt7cit6": 3070,
      "drivetrucktru1pos13apt4cit1": 3071,
      "drivetrucktru1pos13apt4cit4": 3072,
      "drivetrucktru1pos13apt4cit3": 3073,
      "drivetrucktru1pos13apt4cit6": 3074,
      "drivetrucktru1pos13apt4cit5": 3075,
      "drivetrucktru1pos13apt4cit2": 3076,
      "drivetrucktru1pos12apt5cit1": 3077,
      "drivetrucktru1pos12apt5cit5": 3078,
      "drivetrucktru1pos12apt5cit4": 3079,
      "drivetrucktru1pos12apt5cit2": 3080,
      "drivetrucktru1pos12apt5cit3": 3081,
      "drivetrucktru1pos12apt5cit6": 3082,
      "drivetrucktru1pos12apt8cit1": 3083,
      "drivetrucktru1pos12apt8cit5": 3084,
      "drivetrucktru1pos12apt8cit4": 3085,
      "drivetrucktru1pos12apt8cit2": 3086,
      "drivetrucktru1pos12apt8cit3": 3087,
      "drivetrucktru1pos12apt8cit6": 3088,
      "drivetrucktru1pos12apt4cit1": 3089,
      "drivetrucktru1pos12apt4cit5": 3090,
      "drivetrucktru1pos12apt4cit4": 3091,
      "drivetrucktru1pos12apt4cit2": 3092,
      "drivetrucktru1pos12apt4cit3": 3093,
      "drivetrucktru1pos12apt4cit6": 3094,
      "drivetrucktru1pos12apt6cit1": 3095,
      "drivetrucktru1pos12apt6cit5": 3096,
      "drivetrucktru1pos12apt6cit4": 3097,
      "drivetrucktru1pos12apt6cit2": 3098,
      "drivetrucktru1pos12apt6cit3": 3099,
      "drivetrucktru1pos12apt6cit6": 3100,
      "drivetrucktru1pos12apt7cit1": 3101,
      "drivetrucktru1pos12apt7cit5": 3102,
      "drivetrucktru1pos12apt7cit4": 3103,
      "drivetrucktru1pos12apt7cit2": 3104,
      "drivetrucktru1pos12apt7cit3": 3105,
      "drivetrucktru1pos12apt7cit6": 3106,
      "drivetrucktru1pos11apt5cit1": 3107,
      "drivetrucktru1pos11apt5cit5": 3108,
      "drivetrucktru1pos11apt5cit4": 3109,
      "drivetrucktru1pos11apt5cit2": 3110,
      "drivetrucktru1pos11apt5cit3": 3111,
      "drivetrucktru1pos11apt5cit6": 3112,
      "drivetrucktru1pos11apt8cit1": 3113,
      "drivetrucktru1pos11apt8cit5": 3114,
      "drivetrucktru1pos11apt8cit4": 3115,
      "drivetrucktru1pos11apt8cit2": 3116,
      "drivetrucktru1pos11apt8cit3": 3117,
      "drivetrucktru1pos11apt8cit6": 3118,
      "drivetrucktru1pos11apt6cit1": 3119,
      "drivetrucktru1pos11apt6cit5": 3120,
      "drivetrucktru1pos11apt6cit4": 3121,
      "drivetrucktru1pos11apt6cit2": 3122,
      "drivetrucktru1pos11apt6cit3": 3123,
      "drivetrucktru1pos11apt6cit6": 3124,
      "drivetrucktru1pos11apt7cit1": 3125,
      "drivetrucktru1pos11apt7cit5": 3126,
      "drivetrucktru1pos11apt7cit4": 3127,
      "drivetrucktru1pos11apt7cit2": 3128,
      "drivetrucktru1pos11apt7cit3": 3129,
      "drivetrucktru1pos11apt7cit6": 3130,
      "drivetrucktru1pos11apt4cit1": 3131,
      "drivetrucktru1pos11apt4cit5": 3132,
      "drivetrucktru1pos11apt4cit4": 3133,
      "drivetrucktru1pos11apt4cit2": 3134,
      "drivetrucktru1pos11apt4cit6": 3135,
      "drivetrucktru1pos13pos33cit5": 3136,
      "drivetrucktru1pos13pos33cit4": 3137,
      "drivetrucktru1pos13pos33cit2": 3138,
      "drivetrucktru1pos13pos33cit3": 3139,
      "drivetrucktru1pos13pos33cit1": 3140,
      "drivetrucktru1pos13pos33cit6": 3141,
      "drivetrucktru1pos11apt4cit3": 3142,
      "incitypos23cit5": 3143,
      "incitypos23cit4": 3144,
      "incitypos23cit2": 3145,
      "incitypos23cit3": 3146,
      "incitypos23cit1": 3147,
      "incitypos23cit6": 3148,
      "incitypos13cit5": 3149,
      "incitypos13cit4": 3150,
      "incitypos13cit2": 3151,
      "incitypos13cit3": 3152,
      "incitypos13cit1": 3153,
      "incitypos13cit6": 3154,
      "incitypos33cit5": 3155,
      "incitypos33cit4": 3156,
      "incitypos33cit2": 3157,
      "incitypos33cit3": 3158,
      "incitypos33cit1": 3159,
      "incitypos33cit6": 3160,
      "incitypos22cit5": 3161,
      "incitypos22cit4": 3162,
      "incitypos22cit2": 3163,
      "incitypos22cit3": 3164,
      "incitypos22cit1": 3165,
      "incitypos22cit6": 3166,
      "incitypos21cit5": 3167,
      "incitypos21cit4": 3168,
      "incitypos21cit2": 3169,
      "incitypos21cit3": 3170,
      "incitypos21cit1": 3171,
      "incitypos21cit6": 3172,
      "incitypos12cit5": 3173,
      "incitypos12cit4": 3174,
      "incitypos12cit2": 3175,
      "incitypos12cit3": 3176,
      "incitypos12cit1": 3177,
      "incitypos12cit6": 3178,
      "incitypos11cit5": 3179,
      "incitypos11cit4": 3180,
      "incitypos11cit2": 3181,
      "incitypos11cit3": 3182,
      "incitypos11cit1": 3183,
      "incitypos11cit6": 3184,
      "incitypos55cit1": 3185,
      "incitypos55cit5": 3186,
      "incitypos55cit4": 3187,
      "incitypos55cit2": 3188,
      "incitypos55cit3": 3189,
      "incitypos55cit6": 3190,
      "incitypos44cit1": 3191,
      "incitypos44cit5": 3192,
      "incitypos44cit4": 3193,
      "incitypos44cit2": 3194,
      "incitypos44cit3": 3195,
      "incitypos44cit6": 3196,
      "incitypos66cit1": 3197,
      "incitypos66cit5": 3198,
      "incitypos66cit4": 3199,
      "incitypos66cit2": 3200,
      "incitypos66cit3": 3201,
      "incitypos66cit6": 3202,
      "incitypos77cit1": 3203,
      "incitypos77cit5": 3204,
      "incitypos77cit4": 3205,
      "incitypos77cit2": 3206,
      "incitypos77cit3": 3207,
      "incitypos77cit6": 3208,
      "drivetrucktru3pos33pos55cit1": 3209,
      "drivetrucktru3pos33pos55cit5": 3210,
      "drivetrucktru3pos33pos55cit4": 3211,
      "drivetrucktru3pos33pos55cit2": 3212,
      "drivetrucktru3pos33pos55cit3": 3213,
      "drivetrucktru3pos33pos55cit6": 3214,
      "drivetrucktru3pos33pos44cit1": 3215,
      "drivetrucktru3pos33pos44cit5": 3216,
      "drivetrucktru3pos33pos44cit4": 3217,
      "drivetrucktru3pos33pos44cit2": 3218,
      "drivetrucktru3pos33pos44cit3": 3219,
      "drivetrucktru3pos33pos44cit6": 3220,
      "drivetrucktru3pos33pos66cit1": 3221,
      "drivetrucktru3pos33pos66cit5": 3222,
      "drivetrucktru3pos33pos66cit4": 3223,
      "drivetrucktru3pos33pos66cit2": 3224,
      "drivetrucktru3pos33pos66cit3": 3225,
      "drivetrucktru3pos33pos66cit6": 3226,
      "drivetrucktru3pos33pos77cit1": 3227,
      "drivetrucktru3pos33pos77cit5": 3228,
      "drivetrucktru3pos33pos77cit4": 3229,
      "drivetrucktru3pos33pos77cit2": 3230,
      "drivetrucktru3pos33pos77cit3": 3231,
      "drivetrucktru3pos33pos77cit6": 3232,
      "drivetrucktru3pos33apt5cit1": 3233,
      "drivetrucktru3pos33apt5cit5": 3234,
      "drivetrucktru3pos33apt5cit4": 3235,
      "drivetrucktru3pos33apt5cit2": 3236,
      "drivetrucktru3pos33apt5cit3": 3237,
      "drivetrucktru3pos33apt5cit6": 3238,
      "drivetrucktru3pos33apt8cit1": 3239,
      "drivetrucktru3pos33apt8cit5": 3240,
      "drivetrucktru3pos33apt8cit4": 3241,
      "drivetrucktru3pos33apt8cit2": 3242,
      "drivetrucktru3pos33apt8cit3": 3243,
      "drivetrucktru3pos33apt8cit6": 3244,
      "drivetrucktru3pos33apt6cit1": 3245,
      "drivetrucktru3pos33apt6cit5": 3246,
      "drivetrucktru3pos33apt6cit4": 3247,
      "drivetrucktru3pos33apt6cit2": 3248,
      "drivetrucktru3pos33apt6cit3": 3249,
      "drivetrucktru3pos33apt6cit6": 3250,
      "drivetrucktru3pos33apt7cit1": 3251,
      "drivetrucktru3pos33apt7cit5": 3252,
      "drivetrucktru3pos33apt7cit4": 3253,
      "drivetrucktru3pos33apt7cit2": 3254,
      "drivetrucktru3pos33apt7cit3": 3255,
      "drivetrucktru3pos33apt7cit6": 3256,
      "drivetrucktru3pos33apt4cit1": 3257,
      "drivetrucktru3pos33apt4cit4": 3258,
      "drivetrucktru3pos33apt4cit3": 3259,
      "drivetrucktru3pos33apt4cit6": 3260,
      "drivetrucktru3pos33apt4cit5": 3261,
      "drivetrucktru3pos33apt4cit2": 3262,
      "drivetrucktru3pos55pos23cit5": 3263,
      "drivetrucktru3pos55pos23cit4": 3264,
      "drivetrucktru3pos55pos23cit2": 3265,
      "drivetrucktru3pos55pos23cit3": 3266,
      "drivetrucktru3pos55pos23cit1": 3267,
      "drivetrucktru3pos55pos23cit6": 3268,
      "drivetrucktru3pos55pos13cit5": 3269,
      "drivetrucktru3pos55pos13cit4": 3270,
      "drivetrucktru3pos55pos13cit2": 3271,
      "drivetrucktru3pos55pos13cit3": 3272,
      "drivetrucktru3pos55pos13cit1": 3273,
      "drivetrucktru3pos55pos13cit6": 3274,
      "drivetrucktru3pos55pos33cit5": 3275,
      "drivetrucktru3pos55pos33cit4": 3276,
      "drivetrucktru3pos55pos33cit2": 3277,
      "drivetrucktru3pos55pos33cit3": 3278,
      "drivetrucktru3pos55pos33cit1": 3279,
      "drivetrucktru3pos55pos33cit6": 3280,
      "drivetrucktru3pos55pos22cit5": 3281,
      "drivetrucktru3pos55pos22cit4": 3282,
      "drivetrucktru3pos55pos22cit2": 3283,
      "drivetrucktru3pos55pos22cit3": 3284,
      "drivetrucktru3pos55pos22cit1": 3285,
      "drivetrucktru3pos55pos22cit6": 3286,
      "drivetrucktru3pos55pos21cit5": 3287,
      "drivetrucktru3pos55pos21cit4": 3288,
      "drivetrucktru3pos55pos21cit2": 3289,
      "drivetrucktru3pos55pos21cit3": 3290,
      "drivetrucktru3pos55pos21cit1": 3291,
      "drivetrucktru3pos55pos21cit6": 3292,
      "drivetrucktru3pos55pos12cit5": 3293,
      "drivetrucktru3pos55pos12cit4": 3294,
      "drivetrucktru3pos55pos12cit2": 3295,
      "drivetrucktru3pos55pos12cit3": 3296,
      "drivetrucktru3pos55pos12cit1": 3297,
      "drivetrucktru3pos55pos12cit6": 3298,
      "drivetrucktru3pos55pos11cit5": 3299,
      "drivetrucktru3pos55pos11cit4": 3300,
      "drivetrucktru3pos55pos11cit2": 3301,
      "drivetrucktru3pos55pos11cit3": 3302,
      "drivetrucktru3pos55pos11cit1": 3303,
      "drivetrucktru3pos55pos11cit6": 3304,
      "drivetrucktru3pos55pos44cit1": 3305,
      "drivetrucktru3pos55pos44cit5": 3306,
      "drivetrucktru3pos55pos44cit4": 3307,
      "drivetrucktru3pos55pos44cit2": 3308,
      "drivetrucktru3pos55pos44cit3": 3309,
      "drivetrucktru3pos55pos44cit6": 3310,
      "drivetrucktru3pos55pos66cit1": 3311,
      "drivetrucktru3pos55pos66cit5": 3312,
      "drivetrucktru3pos55pos66cit4": 3313,
      "drivetrucktru3pos55pos66cit2": 3314,
      "drivetrucktru3pos55pos66cit3": 3315,
      "drivetrucktru3pos55pos66cit6": 3316,
      "drivetrucktru3pos55pos77cit1": 3317,
      "drivetrucktru3pos55pos77cit5": 3318,
      "drivetrucktru3pos55pos77cit4": 3319,
      "drivetrucktru3pos55pos77cit2": 3320,
      "drivetrucktru3pos55pos77cit3": 3321,
      "drivetrucktru3pos55pos77cit6": 3322,
      "drivetrucktru3pos44pos23cit5": 3323,
      "drivetrucktru3pos44pos23cit4": 3324,
      "drivetrucktru3pos44pos23cit2": 3325,
      "drivetrucktru3pos44pos23cit3": 3326,
      "drivetrucktru3pos44pos23cit1": 3327,
      "drivetrucktru3pos44pos23cit6": 3328,
      "drivetrucktru3pos44pos13cit5": 3329,
      "drivetrucktru3pos44pos13cit4": 3330,
      "drivetrucktru3pos44pos13cit2": 3331,
      "drivetrucktru3pos44pos13cit3": 3332,
      "drivetrucktru3pos44pos13cit1": 3333,
      "drivetrucktru3pos44pos13cit6": 3334,
      "drivetrucktru3pos44pos33cit5": 3335,
      "drivetrucktru3pos44pos33cit4": 3336,
      "drivetrucktru3pos44pos33cit2": 3337,
      "drivetrucktru3pos44pos33cit3": 3338,
      "drivetrucktru3pos44pos33cit1": 3339,
      "drivetrucktru3pos44pos33cit6": 3340,
      "drivetrucktru3pos44pos22cit5": 3341,
      "drivetrucktru3pos44pos22cit4": 3342,
      "drivetrucktru3pos44pos22cit2": 3343,
      "drivetrucktru3pos44pos22cit3": 3344,
      "drivetrucktru3pos44pos22cit1": 3345,
      "drivetrucktru3pos44pos22cit6": 3346,
      "drivetrucktru3pos44pos21cit5": 3347,
      "drivetrucktru3pos44pos21cit4": 3348,
      "drivetrucktru3pos44pos21cit2": 3349,
      "drivetrucktru3pos44pos21cit3": 3350,
      "drivetrucktru3pos44pos21cit1": 3351,
      "drivetrucktru3pos44pos21cit6": 3352,
      "drivetrucktru3pos44pos12cit5": 3353,
      "drivetrucktru3pos44pos12cit4": 3354,
      "drivetrucktru3pos44pos12cit2": 3355,
      "drivetrucktru3pos44pos12cit3": 3356,
      "drivetrucktru3pos44pos12cit1": 3357,
      "drivetrucktru3pos44pos12cit6": 3358,
      "drivetrucktru3pos44pos11cit5": 3359,
      "drivetrucktru3pos44pos11cit4": 3360,
      "drivetrucktru3pos44pos11cit2": 3361,
      "drivetrucktru3pos44pos11cit3": 3362,
      "drivetrucktru3pos44pos11cit1": 3363,
      "drivetrucktru3pos44pos11cit6": 3364,
      "drivetrucktru3pos44pos55cit1": 3365,
      "drivetrucktru3pos44pos55cit5": 3366,
      "drivetrucktru3pos44pos55cit4": 3367,
      "drivetrucktru3pos44pos55cit2": 3368,
      "drivetrucktru3pos44pos55cit3": 3369,
      "drivetrucktru3pos44pos55cit6": 3370,
      "drivetrucktru3pos44pos66cit1": 3371,
      "drivetrucktru3pos44pos66cit5": 3372,
      "drivetrucktru3pos44pos66cit4": 3373,
      "drivetrucktru3pos44pos66cit2": 3374,
      "drivetrucktru3pos44pos66cit3": 3375,
      "drivetrucktru3pos44pos66cit6": 3376,
      "drivetrucktru3pos44pos77cit1": 3377,
      "drivetrucktru3pos44pos77cit5": 3378,
      "drivetrucktru3pos44pos77cit4": 3379,
      "drivetrucktru3pos44pos77cit2": 3380,
      "drivetrucktru3pos44pos77cit3": 3381,
      "drivetrucktru3pos44pos77cit6": 3382,
      "drivetrucktru3pos66pos23cit5": 3383,
      "drivetrucktru3pos66pos23cit4": 3384,
      "drivetrucktru3pos66pos23cit2": 3385,
      "drivetrucktru3pos66pos23cit3": 3386,
      "drivetrucktru3pos66pos23cit1": 3387,
      "drivetrucktru3pos66pos23cit6": 3388,
      "drivetrucktru3pos66pos13cit5": 3389,
      "drivetrucktru3pos66pos13cit4": 3390,
      "drivetrucktru3pos66pos13cit2": 3391,
      "drivetrucktru3pos66pos13cit3": 3392,
      "drivetrucktru3pos66pos13cit1": 3393,
      "drivetrucktru3pos66pos13cit6": 3394,
      "drivetrucktru3pos66pos33cit5": 3395,
      "drivetrucktru3pos66pos33cit4": 3396,
      "drivetrucktru3pos66pos33cit2": 3397,
      "drivetrucktru3pos66pos33cit3": 3398,
      "drivetrucktru3pos66pos33cit1": 3399,
      "drivetrucktru3pos66pos33cit6": 3400,
      "drivetrucktru3pos66pos22cit5": 3401,
      "drivetrucktru3pos66pos22cit4": 3402,
      "drivetrucktru3pos66pos22cit2": 3403,
      "drivetrucktru3pos66pos22cit3": 3404,
      "drivetrucktru3pos66pos22cit1": 3405,
      "drivetrucktru3pos66pos22cit6": 3406,
      "drivetrucktru3pos66pos21cit5": 3407,
      "drivetrucktru3pos66pos21cit4": 3408,
      "drivetrucktru3pos66pos21cit2": 3409,
      "drivetrucktru3pos66pos21cit3": 3410,
      "drivetrucktru3pos66pos21cit1": 3411,
      "drivetrucktru3pos66pos21cit6": 3412,
      "drivetrucktru3pos66pos12cit5": 3413,
      "drivetrucktru3pos66pos12cit4": 3414,
      "drivetrucktru3pos66pos12cit2": 3415,
      "drivetrucktru3pos66pos12cit3": 3416,
      "drivetrucktru3pos66pos12cit1": 3417,
      "drivetrucktru3pos66pos12cit6": 3418,
      "drivetrucktru3pos66pos11cit5": 3419,
      "drivetrucktru3pos66pos11cit4": 3420,
      "drivetrucktru3pos66pos11cit2": 3421,
      "drivetrucktru3pos66pos11cit3": 3422,
      "drivetrucktru3pos66pos11cit1": 3423,
      "drivetrucktru3pos66pos11cit6": 3424,
      "drivetrucktru3pos66pos55cit1": 3425,
      "drivetrucktru3pos66pos55cit5": 3426,
      "drivetrucktru3pos66pos55cit4": 3427,
      "drivetrucktru3pos66pos55cit2": 3428,
      "drivetrucktru3pos66pos55cit3": 3429,
      "drivetrucktru3pos66pos55cit6": 3430,
      "drivetrucktru3pos66pos44cit1": 3431,
      "drivetrucktru3pos66pos44cit5": 3432,
      "drivetrucktru3pos66pos44cit4": 3433,
      "drivetrucktru3pos66pos44cit2": 3434,
      "drivetrucktru3pos66pos44cit3": 3435,
      "drivetrucktru3pos66pos44cit6": 3436,
      "drivetrucktru3pos66pos77cit1": 3437,
      "drivetrucktru3pos66pos77cit5": 3438,
      "drivetrucktru3pos66pos77cit4": 3439,
      "drivetrucktru3pos66pos77cit2": 3440,
      "drivetrucktru3pos66pos77cit3": 3441,
      "drivetrucktru3pos66pos77cit6": 3442,
      "drivetrucktru3pos77pos23cit5": 3443,
      "drivetrucktru3pos77pos23cit4": 3444,
      "drivetrucktru3pos77pos23cit2": 3445,
      "drivetrucktru3pos77pos23cit3": 3446,
      "drivetrucktru3pos77pos23cit1": 3447,
      "drivetrucktru3pos77pos23cit6": 3448,
      "drivetrucktru3pos77pos13cit5": 3449,
      "drivetrucktru3pos77pos13cit4": 3450,
      "drivetrucktru3pos77pos13cit2": 3451,
      "drivetrucktru3pos77pos13cit3": 3452,
      "drivetrucktru3pos77pos13cit1": 3453,
      "drivetrucktru3pos77pos13cit6": 3454,
      "drivetrucktru3pos77pos33cit5": 3455,
      "drivetrucktru3pos77pos33cit4": 3456,
      "drivetrucktru3pos77pos33cit2": 3457,
      "drivetrucktru3pos77pos33cit3": 3458,
      "drivetrucktru3pos77pos33cit1": 3459,
      "drivetrucktru3pos77pos33cit6": 3460,
      "drivetrucktru3pos77pos22cit5": 3461,
      "drivetrucktru3pos77pos22cit4": 3462,
      "drivetrucktru3pos77pos22cit2": 3463,
      "drivetrucktru3pos77pos22cit3": 3464,
      "drivetrucktru3pos77pos22cit1": 3465,
      "drivetrucktru3pos77pos22cit6": 3466,
      "drivetrucktru3pos77pos21cit5": 3467,
      "drivetrucktru3pos77pos21cit4": 3468,
      "drivetrucktru3pos77pos21cit2": 3469,
      "drivetrucktru3pos77pos21cit3": 3470,
      "drivetrucktru3pos77pos21cit1": 3471,
      "drivetrucktru3pos77pos21cit6": 3472,
      "drivetrucktru3pos77pos12cit5": 3473,
      "drivetrucktru3pos77pos12cit4": 3474,
      "drivetrucktru3pos77pos12cit2": 3475,
      "drivetrucktru3pos77pos12cit3": 3476,
      "drivetrucktru3pos77pos12cit1": 3477,
      "drivetrucktru3pos77pos12cit6": 3478,
      "drivetrucktru3pos77pos11cit5": 3479,
      "drivetrucktru3pos77pos11cit4": 3480,
      "drivetrucktru3pos77pos11cit2": 3481,
      "drivetrucktru3pos77pos11cit3": 3482,
      "drivetrucktru3pos77pos11cit1": 3483,
      "drivetrucktru3pos77pos11cit6": 3484,
      "drivetrucktru3pos77pos55cit1": 3485,
      "drivetrucktru3pos77pos55cit5": 3486,
      "drivetrucktru3pos77pos55cit4": 3487,
      "drivetrucktru3pos77pos55cit2": 3488,
      "drivetrucktru3pos77pos55cit3": 3489,
      "drivetrucktru3pos77pos55cit6": 3490,
      "drivetrucktru3pos77pos44cit1": 3491,
      "drivetrucktru3pos77pos44cit5": 3492,
      "drivetrucktru3pos77pos44cit4": 3493,
      "drivetrucktru3pos77pos44cit2": 3494,
      "drivetrucktru3pos77pos44cit3": 3495,
      "drivetrucktru3pos77pos44cit6": 3496,
      "drivetrucktru3pos77pos66cit1": 3497,
      "drivetrucktru3pos77pos66cit5": 3498,
      "drivetrucktru3pos77pos66cit4": 3499,
      "drivetrucktru3pos77pos66cit2": 3500,
      "drivetrucktru3pos77pos66cit3": 3501,
      "drivetrucktru3pos77pos66cit6": 3502,
      "loadtruckobj33tru3apt5": 3503,
      "loadtruckobj33tru3apt8": 3504,
      "loadtruckobj33tru3apt6": 3505,
      "loadtruckobj33tru3apt7": 3506,
      "loadtruckobj33tru3apt4": 3507,
      "loadtruckobj33tru2apt5": 3508,
      "loadtruckobj33tru2apt8": 3509,
      "loadtruckobj33tru2apt4": 3510,
      "loadtruckobj33tru2apt6": 3511,
      "loadtruckobj33tru2apt7": 3512,
      "loadtruckobj33tru1apt5": 3513,
      "loadtruckobj33tru1apt8": 3514,
      "loadtruckobj33tru1apt6": 3515,
      "loadtruckobj33tru1apt7": 3516,
      "loadtruckobj33tru1apt4": 3517,
      "loadtruckobj33tru3pos55": 3518,
      "loadtruckobj33tru3pos44": 3519,
      "loadtruckobj33tru3pos66": 3520,
      "loadtruckobj33tru3pos77": 3521,
      "loadtruckobj33tru4apt5": 3522,
      "loadtruckobj33tru4apt8": 3523,
      "loadtruckobj33tru4apt6": 3524,
      "loadtruckobj33tru4apt7": 3525,
      "loadtruckobj33tru5apt8": 3526,
      "loadtruckobj33tru5apt6": 3527,
      "loadtruckobj33tru5apt7": 3528,
      "loadtruckobj33tru5apt4": 3529,
      "loadtruckobj33tru2pos55": 3530,
      "loadtruckobj33tru2pos44": 3531,
      "loadtruckobj33tru2pos66": 3532,
      "loadtruckobj33tru2pos77": 3533,
      "loadtruckobj33tru1pos55": 3534,
      "loadtruckobj33tru1pos44": 3535,
      "loadtruckobj33tru1pos66": 3536,
      "loadtruckobj33tru1pos77": 3537,
      "loadtruckobj33tru3apt2": 3538,
      "loadtruckobj33tru3apt1": 3539,
      "loadtruckobj33tru2apt3": 3540,
      "loadtruckobj33tru2apt1": 3541,
      "loadtruckobj33tru1apt2": 3542,
      "loadtruckobj33tru1apt3": 3543,
      "loadtruckobj33tru4apt2": 3544,
      "loadtruckobj33tru4apt3": 3545,
      "loadtruckobj33tru4apt1": 3546,
      "loadtruckobj33tru5apt2": 3547,
      "loadtruckobj33tru5apt3": 3548,
      "loadtruckobj33tru5apt1": 3549,
      "loadtruckobj33tru3apt3": 3550,
      "loadtruckobj33tru2apt2": 3551,
      "loadtruckobj33tru1apt1": 3552,
      "loadtruckobj33tru4apt4": 3553,
      "loadtruckobj33tru5apt5": 3554,
      "loadtruckobj33tru3pos22": 3555,
      "loadtruckobj33tru3pos23": 3556,
      "loadtruckobj33tru3pos21": 3557,
      "loadtruckobj33tru3pos12": 3558,
      "loadtruckobj33tru3pos13": 3559,
      "loadtruckobj33tru3pos11": 3560,
      "loadtruckobj33tru3pos33": 3561,
      "loadtruckobj33tru2pos22": 3562,
      "loadtruckobj33tru2pos21": 3563,
      "loadtruckobj33tru2pos12": 3564,
      "loadtruckobj33tru2pos11": 3565,
      "loadtruckobj33tru2pos23": 3566,
      "loadtruckobj33tru2pos13": 3567,
      "loadtruckobj33tru2pos33": 3568,
      "loadtruckobj33tru1pos22": 3569,
      "loadtruckobj33tru1pos21": 3570,
      "loadtruckobj33tru1pos12": 3571,
      "loadtruckobj33tru1pos11": 3572,
      "loadtruckobj33tru1pos23": 3573,
      "loadtruckobj33tru1pos13": 3574,
      "loadtruckobj33tru1pos33": 3575,
      "loadtruckobj33tru5pos55": 3576,
      "loadtruckobj33tru5pos44": 3577,
      "loadtruckobj33tru5pos66": 3578,
      "loadtruckobj33tru5pos77": 3579,
      "loadtruckobj33tru5pos22": 3580,
      "loadtruckobj33tru5pos21": 3581,
      "loadtruckobj33tru5pos12": 3582,
      "loadtruckobj33tru5pos11": 3583,
      "loadtruckobj33tru5pos23": 3584,
      "loadtruckobj33tru5pos13": 3585,
      "loadtruckobj33tru5pos33": 3586,
      "loadtruckobj33tru4pos55": 3587,
      "loadtruckobj33tru4pos44": 3588,
      "loadtruckobj33tru4pos66": 3589,
      "loadtruckobj33tru4pos77": 3590,
      "loadtruckobj33tru4pos22": 3591,
      "loadtruckobj33tru4pos21": 3592,
      "loadtruckobj33tru4pos12": 3593,
      "loadtruckobj33tru4pos11": 3594,
      "loadtruckobj33tru4pos23": 3595,
      "loadtruckobj33tru4pos13": 3596,
      "loadtruckobj33tru4pos33": 3597,
      "loadtruckobj55tru3apt5": 3598,
      "loadtruckobj55tru3apt8": 3599,
      "loadtruckobj55tru3apt6": 3600,
      "loadtruckobj55tru3apt7": 3601,
      "loadtruckobj55tru3apt4": 3602,
      "loadtruckobj55tru2apt5": 3603,
      "loadtruckobj55tru2apt8": 3604,
      "loadtruckobj55tru2apt4": 3605,
      "loadtruckobj55tru2apt6": 3606,
      "loadtruckobj55tru2apt7": 3607,
      "loadtruckobj55tru1apt5": 3608,
      "loadtruckobj55tru1apt8": 3609,
      "loadtruckobj55tru1apt6": 3610,
      "loadtruckobj55tru1apt7": 3611,
      "loadtruckobj55tru1apt4": 3612,
      "loadtruckobj55tru3pos55": 3613,
      "loadtruckobj55tru3pos44": 3614,
      "loadtruckobj55tru3pos66": 3615,
      "loadtruckobj55tru3pos77": 3616,
      "loadtruckobj55tru4apt5": 3617,
      "loadtruckobj55tru4apt8": 3618,
      "loadtruckobj55tru4apt6": 3619,
      "loadtruckobj55tru4apt7": 3620,
      "loadtruckobj55tru5apt8": 3621,
      "loadtruckobj55tru5apt6": 3622,
      "loadtruckobj55tru5apt7": 3623,
      "loadtruckobj55tru5apt4": 3624,
      "loadtruckobj55tru2pos55": 3625,
      "loadtruckobj55tru2pos44": 3626,
      "loadtruckobj55tru2pos66": 3627,
      "loadtruckobj55tru2pos77": 3628,
      "loadtruckobj55tru1pos55": 3629,
      "loadtruckobj55tru1pos44": 3630,
      "loadtruckobj55tru1pos66": 3631,
      "loadtruckobj55tru1pos77": 3632,
      "loadtruckobj55tru3apt2": 3633,
      "loadtruckobj55tru3apt1": 3634,
      "loadtruckobj55tru2apt3": 3635,
      "loadtruckobj55tru2apt1": 3636,
      "loadtruckobj55tru1apt2": 3637,
      "loadtruckobj55tru1apt3": 3638,
      "loadtruckobj55tru4apt2": 3639,
      "loadtruckobj55tru4apt3": 3640,
      "loadtruckobj55tru4apt1": 3641,
      "loadtruckobj55tru5apt2": 3642,
      "loadtruckobj55tru5apt3": 3643,
      "loadtruckobj55tru5apt1": 3644,
      "loadtruckobj55tru3apt3": 3645,
      "loadtruckobj55tru2apt2": 3646,
      "loadtruckobj55tru1apt1": 3647,
      "loadtruckobj55tru4apt4": 3648,
      "loadtruckobj55tru5apt5": 3649,
      "loadtruckobj55tru3pos22": 3650,
      "loadtruckobj55tru3pos23": 3651,
      "loadtruckobj55tru3pos21": 3652,
      "loadtruckobj55tru3pos12": 3653,
      "loadtruckobj55tru3pos13": 3654,
      "loadtruckobj55tru3pos11": 3655,
      "loadtruckobj55tru3pos33": 3656,
      "loadtruckobj55tru2pos22": 3657,
      "loadtruckobj55tru2pos21": 3658,
      "loadtruckobj55tru2pos12": 3659,
      "loadtruckobj55tru2pos11": 3660,
      "loadtruckobj55tru2pos23": 3661,
      "loadtruckobj55tru2pos13": 3662,
      "loadtruckobj55tru2pos33": 3663,
      "loadtruckobj55tru1pos22": 3664,
      "loadtruckobj55tru1pos21": 3665,
      "loadtruckobj55tru1pos12": 3666,
      "loadtruckobj55tru1pos11": 3667,
      "loadtruckobj55tru1pos23": 3668,
      "loadtruckobj55tru1pos13": 3669,
      "loadtruckobj55tru1pos33": 3670,
      "loadtruckobj55tru5pos55": 3671,
      "loadtruckobj55tru5pos44": 3672,
      "loadtruckobj55tru5pos66": 3673,
      "loadtruckobj55tru5pos77": 3674,
      "loadtruckobj55tru5pos22": 3675,
      "loadtruckobj55tru5pos21": 3676,
      "loadtruckobj55tru5pos12": 3677,
      "loadtruckobj55tru5pos11": 3678,
      "loadtruckobj55tru5pos23": 3679,
      "loadtruckobj55tru5pos13": 3680,
      "loadtruckobj55tru5pos33": 3681,
      "loadtruckobj55tru4pos55": 3682,
      "loadtruckobj55tru4pos44": 3683,
      "loadtruckobj55tru4pos66": 3684,
      "loadtruckobj55tru4pos77": 3685,
      "loadtruckobj55tru4pos22": 3686,
      "loadtruckobj55tru4pos21": 3687,
      "loadtruckobj55tru4pos12": 3688,
      "loadtruckobj55tru4pos11": 3689,
      "loadtruckobj55tru4pos23": 3690,
      "loadtruckobj55tru4pos13": 3691,
      "loadtruckobj55tru4pos33": 3692,
      "loadtruckobj44tru3apt5": 3693,
      "loadtruckobj44tru3apt8": 3694,
      "loadtruckobj44tru3apt6": 3695,
      "loadtruckobj44tru3apt7": 3696,
      "loadtruckobj44tru3apt4": 3697,
      "loadtruckobj44tru2apt5": 3698,
      "loadtruckobj44tru2apt8": 3699,
      "loadtruckobj44tru2apt4": 3700,
      "loadtruckobj44tru2apt6": 3701,
      "loadtruckobj44tru2apt7": 3702,
      "loadtruckobj44tru1apt5": 3703,
      "loadtruckobj44tru1apt8": 3704,
      "loadtruckobj44tru1apt6": 3705,
      "loadtruckobj44tru1apt7": 3706,
      "loadtruckobj44tru1apt4": 3707,
      "loadtruckobj44tru3pos55": 3708,
      "loadtruckobj44tru3pos44": 3709,
      "loadtruckobj44tru3pos66": 3710,
      "loadtruckobj44tru3pos77": 3711,
      "loadtruckobj44tru4apt5": 3712,
      "loadtruckobj44tru4apt8": 3713,
      "loadtruckobj44tru4apt6": 3714,
      "loadtruckobj44tru4apt7": 3715,
      "loadtruckobj44tru5apt8": 3716,
      "loadtruckobj44tru5apt6": 3717,
      "loadtruckobj44tru5apt7": 3718,
      "loadtruckobj44tru5apt4": 3719,
      "loadtruckobj44tru2pos55": 3720,
      "loadtruckobj44tru2pos44": 3721,
      "loadtruckobj44tru2pos66": 3722,
      "loadtruckobj44tru2pos77": 3723,
      "loadtruckobj44tru1pos55": 3724,
      "loadtruckobj44tru1pos44": 3725,
      "loadtruckobj44tru1pos66": 3726,
      "loadtruckobj44tru1pos77": 3727,
      "loadtruckobj44tru3apt2": 3728,
      "loadtruckobj44tru3apt1": 3729,
      "loadtruckobj44tru2apt3": 3730,
      "loadtruckobj44tru2apt1": 3731,
      "loadtruckobj44tru1apt2": 3732,
      "loadtruckobj44tru1apt3": 3733,
      "loadtruckobj44tru4apt2": 3734,
      "loadtruckobj44tru4apt3": 3735,
      "loadtruckobj44tru4apt1": 3736,
      "loadtruckobj44tru5apt2": 3737,
      "loadtruckobj44tru5apt3": 3738,
      "loadtruckobj44tru5apt1": 3739,
      "loadtruckobj44tru3apt3": 3740,
      "loadtruckobj44tru2apt2": 3741,
      "loadtruckobj44tru1apt1": 3742,
      "loadtruckobj44tru4apt4": 3743,
      "loadtruckobj44tru5apt5": 3744,
      "loadtruckobj44tru3pos22": 3745,
      "loadtruckobj44tru3pos23": 3746,
      "loadtruckobj44tru3pos21": 3747,
      "loadtruckobj44tru3pos12": 3748,
      "loadtruckobj44tru3pos13": 3749,
      "loadtruckobj44tru3pos11": 3750,
      "loadtruckobj44tru3pos33": 3751,
      "loadtruckobj44tru2pos22": 3752,
      "loadtruckobj44tru2pos21": 3753,
      "loadtruckobj44tru2pos12": 3754,
      "loadtruckobj44tru2pos11": 3755,
      "loadtruckobj44tru2pos23": 3756,
      "loadtruckobj44tru2pos13": 3757,
      "loadtruckobj44tru2pos33": 3758,
      "loadtruckobj44tru1pos22": 3759,
      "loadtruckobj44tru1pos21": 3760,
      "loadtruckobj44tru1pos12": 3761,
      "loadtruckobj44tru1pos11": 3762,
      "loadtruckobj44tru1pos23": 3763,
      "loadtruckobj44tru1pos13": 3764,
      "loadtruckobj44tru1pos33": 3765,
      "loadtruckobj44tru5pos55": 3766,
      "loadtruckobj44tru5pos44": 3767,
      "loadtruckobj44tru5pos66": 3768,
      "loadtruckobj44tru5pos77": 3769,
      "loadtruckobj44tru5pos22": 3770,
      "loadtruckobj44tru5pos21": 3771,
      "loadtruckobj44tru5pos12": 3772,
      "loadtruckobj44tru5pos11": 3773,
      "loadtruckobj44tru5pos23": 3774,
      "loadtruckobj44tru5pos13": 3775,
      "loadtruckobj44tru5pos33": 3776,
      "loadtruckobj44tru4pos55": 3777,
      "loadtruckobj44tru4pos44": 3778,
      "loadtruckobj44tru4pos66": 3779,
      "loadtruckobj44tru4pos77": 3780,
      "loadtruckobj44tru4pos22": 3781,
      "loadtruckobj44tru4pos21": 3782,
      "loadtruckobj44tru4pos12": 3783,
      "loadtruckobj44tru4pos11": 3784,
      "loadtruckobj44tru4pos23": 3785,
      "loadtruckobj44tru4pos13": 3786,
      "loadtruckobj44tru4pos33": 3787,
      "loadtruckobj66tru3apt5": 3788,
      "loadtruckobj66tru3apt8": 3789,
      "loadtruckobj66tru3apt6": 3790,
      "loadtruckobj66tru3apt7": 3791,
      "loadtruckobj66tru3apt4": 3792,
      "loadtruckobj66tru2apt5": 3793,
      "loadtruckobj66tru2apt8": 3794,
      "loadtruckobj66tru2apt4": 3795,
      "loadtruckobj66tru2apt6": 3796,
      "loadtruckobj66tru2apt7": 3797,
      "loadtruckobj66tru1apt5": 3798,
      "loadtruckobj66tru1apt8": 3799,
      "loadtruckobj66tru1apt6": 3800,
      "loadtruckobj66tru1apt7": 3801,
      "loadtruckobj66tru1apt4": 3802,
      "loadtruckobj66tru3pos55": 3803,
      "loadtruckobj66tru3pos44": 3804,
      "loadtruckobj66tru3pos66": 3805,
      "loadtruckobj66tru3pos77": 3806,
      "loadtruckobj66tru4apt5": 3807,
      "loadtruckobj66tru4apt8": 3808,
      "loadtruckobj66tru4apt6": 3809,
      "loadtruckobj66tru4apt7": 3810,
      "loadtruckobj66tru5apt8": 3811,
      "loadtruckobj66tru5apt6": 3812,
      "loadtruckobj66tru5apt7": 3813,
      "loadtruckobj66tru5apt4": 3814,
      "loadtruckobj66tru2pos55": 3815,
      "loadtruckobj66tru2pos44": 3816,
      "loadtruckobj66tru2pos66": 3817,
      "loadtruckobj66tru2pos77": 3818,
      "loadtruckobj66tru1pos55": 3819,
      "loadtruckobj66tru1pos44": 3820,
      "loadtruckobj66tru1pos66": 3821,
      "loadtruckobj66tru1pos77": 3822,
      "loadtruckobj66tru3apt2": 3823,
      "loadtruckobj66tru3apt1": 3824,
      "loadtruckobj66tru2apt3": 3825,
      "loadtruckobj66tru2apt1": 3826,
      "loadtruckobj66tru1apt2": 3827,
      "loadtruckobj66tru1apt3": 3828,
      "loadtruckobj66tru4apt2": 3829,
      "loadtruckobj66tru4apt3": 3830,
      "loadtruckobj66tru4apt1": 3831,
      "loadtruckobj66tru5apt2": 3832,
      "loadtruckobj66tru5apt3": 3833,
      "loadtruckobj66tru5apt1": 3834,
      "loadtruckobj66tru3apt3": 3835,
      "loadtruckobj66tru2apt2": 3836,
      "loadtruckobj66tru1apt1": 3837,
      "loadtruckobj66tru4apt4": 3838,
      "loadtruckobj66tru5apt5": 3839,
      "loadtruckobj66tru3pos22": 3840,
      "loadtruckobj66tru3pos23": 3841,
      "loadtruckobj66tru3pos21": 3842,
      "loadtruckobj66tru3pos12": 3843,
      "loadtruckobj66tru3pos13": 3844,
      "loadtruckobj66tru3pos11": 3845,
      "loadtruckobj66tru3pos33": 3846,
      "loadtruckobj66tru2pos22": 3847,
      "loadtruckobj66tru2pos21": 3848,
      "loadtruckobj66tru2pos12": 3849,
      "loadtruckobj66tru2pos11": 3850,
      "loadtruckobj66tru2pos23": 3851,
      "loadtruckobj66tru2pos13": 3852,
      "loadtruckobj66tru2pos33": 3853,
      "loadtruckobj66tru1pos22": 3854,
      "loadtruckobj66tru1pos21": 3855,
      "loadtruckobj66tru1pos12": 3856,
      "loadtruckobj66tru1pos11": 3857,
      "loadtruckobj66tru1pos23": 3858,
      "loadtruckobj66tru1pos13": 3859,
      "loadtruckobj66tru1pos33": 3860,
      "loadtruckobj66tru5pos55": 3861,
      "loadtruckobj66tru5pos44": 3862,
      "loadtruckobj66tru5pos66": 3863,
      "loadtruckobj66tru5pos77": 3864,
      "loadtruckobj66tru5pos22": 3865,
      "loadtruckobj66tru5pos21": 3866,
      "loadtruckobj66tru5pos12": 3867,
      "loadtruckobj66tru5pos11": 3868,
      "loadtruckobj66tru5pos23": 3869,
      "loadtruckobj66tru5pos13": 3870,
      "loadtruckobj66tru5pos33": 3871,
      "loadtruckobj66tru4pos55": 3872,
      "loadtruckobj66tru4pos44": 3873,
      "loadtruckobj66tru4pos66": 3874,
      "loadtruckobj66tru4pos77": 3875,
      "loadtruckobj66tru4pos22": 3876,
      "loadtruckobj66tru4pos21": 3877,
      "loadtruckobj66tru4pos12": 3878,
      "loadtruckobj66tru4pos11": 3879,
      "loadtruckobj66tru4pos23": 3880,
      "loadtruckobj66tru4pos13": 3881,
      "loadtruckobj66tru4pos33": 3882,
      "loadtruckobj77tru3apt5": 3883,
      "loadtruckobj77tru3apt8": 3884,
      "loadtruckobj77tru3apt6": 3885,
      "loadtruckobj77tru3apt7": 3886,
      "loadtruckobj77tru3apt4": 3887,
      "loadtruckobj77tru2apt5": 3888,
      "loadtruckobj77tru2apt8": 3889,
      "loadtruckobj77tru2apt4": 3890,
      "loadtruckobj77tru2apt6": 3891,
      "loadtruckobj77tru2apt7": 3892,
      "loadtruckobj77tru1apt5": 3893,
      "loadtruckobj77tru1apt8": 3894,
      "loadtruckobj77tru1apt6": 3895,
      "loadtruckobj77tru1apt7": 3896,
      "loadtruckobj77tru1apt4": 3897,
      "loadtruckobj77tru3pos55": 3898,
      "loadtruckobj77tru3pos44": 3899,
      "loadtruckobj77tru3pos66": 3900,
      "loadtruckobj77tru3pos77": 3901,
      "loadtruckobj77tru4apt5": 3902,
      "loadtruckobj77tru4apt8": 3903,
      "loadtruckobj77tru4apt6": 3904,
      "loadtruckobj77tru4apt7": 3905,
      "loadtruckobj77tru5apt8": 3906,
      "loadtruckobj77tru5apt6": 3907,
      "loadtruckobj77tru5apt7": 3908,
      "loadtruckobj77tru5apt4": 3909,
      "loadtruckobj77tru2pos55": 3910,
      "loadtruckobj77tru2pos44": 3911,
      "loadtruckobj77tru2pos66": 3912,
      "loadtruckobj77tru2pos77": 3913,
      "loadtruckobj77tru1pos55": 3914,
      "loadtruckobj77tru1pos44": 3915,
      "loadtruckobj77tru1pos66": 3916,
      "loadtruckobj77tru1pos77": 3917,
      "loadtruckobj77tru3apt2": 3918,
      "loadtruckobj77tru3apt1": 3919,
      "loadtruckobj77tru2apt3": 3920,
      "loadtruckobj77tru2apt1": 3921,
      "loadtruckobj77tru1apt2": 3922,
      "loadtruckobj77tru1apt3": 3923,
      "loadtruckobj77tru4apt2": 3924,
      "loadtruckobj77tru4apt3": 3925,
      "loadtruckobj77tru4apt1": 3926,
      "loadtruckobj77tru5apt2": 3927,
      "loadtruckobj77tru5apt3": 3928,
      "loadtruckobj77tru5apt1": 3929,
      "loadtruckobj77tru3apt3": 3930,
      "loadtruckobj77tru2apt2": 3931,
      "loadtruckobj77tru1apt1": 3932,
      "loadtruckobj77tru4apt4": 3933,
      "loadtruckobj77tru5apt5": 3934,
      "loadtruckobj77tru3pos22": 3935,
      "loadtruckobj77tru3pos23": 3936,
      "loadtruckobj77tru3pos21": 3937,
      "loadtruckobj77tru3pos12": 3938,
      "loadtruckobj77tru3pos13": 3939,
      "loadtruckobj77tru3pos11": 3940,
      "loadtruckobj77tru3pos33": 3941,
      "loadtruckobj77tru2pos22": 3942,
      "loadtruckobj77tru2pos21": 3943,
      "loadtruckobj77tru2pos12": 3944,
      "loadtruckobj77tru2pos11": 3945,
      "loadtruckobj77tru2pos23": 3946,
      "loadtruckobj77tru2pos13": 3947,
      "loadtruckobj77tru2pos33": 3948,
      "loadtruckobj77tru1pos22": 3949,
      "loadtruckobj77tru1pos21": 3950,
      "loadtruckobj77tru1pos12": 3951,
      "loadtruckobj77tru1pos11": 3952,
      "loadtruckobj77tru1pos23": 3953,
      "loadtruckobj77tru1pos13": 3954,
      "loadtruckobj77tru1pos33": 3955,
      "loadtruckobj77tru5pos55": 3956,
      "loadtruckobj77tru5pos44": 3957,
      "loadtruckobj77tru5pos66": 3958,
      "loadtruckobj77tru5pos77": 3959,
      "loadtruckobj77tru5pos22": 3960,
      "loadtruckobj77tru5pos21": 3961,
      "loadtruckobj77tru5pos12": 3962,
      "loadtruckobj77tru5pos11": 3963,
      "loadtruckobj77tru5pos23": 3964,
      "loadtruckobj77tru5pos13": 3965,
      "loadtruckobj77tru5pos33": 3966,
      "loadtruckobj77tru4pos55": 3967,
      "loadtruckobj77tru4pos44": 3968,
      "loadtruckobj77tru4pos66": 3969,
      "loadtruckobj77tru4pos77": 3970,
      "loadtruckobj77tru4pos22": 3971,
      "loadtruckobj77tru4pos21": 3972,
      "loadtruckobj77tru4pos12": 3973,
      "loadtruckobj77tru4pos11": 3974,
      "loadtruckobj77tru4pos23": 3975,
      "loadtruckobj77tru4pos13": 3976,
      "loadtruckobj77tru4pos33": 3977,
      "loadtruckobj00tru3apt5": 3978,
      "loadtruckobj00tru3apt8": 3979,
      "loadtruckobj00tru3apt6": 3980,
      "loadtruckobj00tru3apt7": 3981,
      "loadtruckobj00tru3apt4": 3982,
      "loadtruckobj00tru2apt5": 3983,
      "loadtruckobj00tru2apt8": 3984,
      "loadtruckobj00tru2apt4": 3985,
      "loadtruckobj00tru2apt6": 3986,
      "loadtruckobj00tru2apt7": 3987,
      "loadtruckobj00tru1apt5": 3988,
      "loadtruckobj00tru1apt8": 3989,
      "loadtruckobj00tru1apt6": 3990,
      "loadtruckobj00tru1apt7": 3991,
      "loadtruckobj00tru1apt4": 3992,
      "loadtruckobj00tru3pos55": 3993,
      "loadtruckobj00tru3pos44": 3994,
      "loadtruckobj00tru3pos66": 3995,
      "loadtruckobj00tru3pos77": 3996,
      "loadtruckobj00tru4apt5": 3997,
      "loadtruckobj00tru4apt8": 3998,
      "loadtruckobj00tru4apt6": 3999,
      "loadtruckobj00tru4apt7": 4000,
      "loadtruckobj00tru5apt8": 4001,
      "loadtruckobj00tru5apt6": 4002,
      "loadtruckobj00tru5apt7": 4003,
      "loadtruckobj00tru5apt4": 4004,
      "loadtruckobj00tru2pos55": 4005,
      "loadtruckobj00tru2pos44": 4006,
      "loadtruckobj00tru2pos66": 4007,
      "loadtruckobj00tru2pos77": 4008,
      "loadtruckobj00tru1pos55": 4009,
      "loadtruckobj00tru1pos44": 4010,
      "loadtruckobj00tru1pos66": 4011,
      "loadtruckobj00tru1pos77": 4012,
      "loadtruckobj00tru3apt2": 4013,
      "loadtruckobj00tru3apt1": 4014,
      "loadtruckobj00tru2apt3": 4015,
      "loadtruckobj00tru2apt1": 4016,
      "loadtruckobj00tru1apt2": 4017,
      "loadtruckobj00tru1apt3": 4018,
      "loadtruckobj00tru4apt2": 4019,
      "loadtruckobj00tru4apt3": 4020,
      "loadtruckobj00tru4apt1": 4021,
      "loadtruckobj00tru5apt2": 4022,
      "loadtruckobj00tru5apt3": 4023,
      "loadtruckobj00tru5apt1": 4024,
      "loadtruckobj00tru3apt3": 4025,
      "loadtruckobj00tru2apt2": 4026,
      "loadtruckobj00tru1apt1": 4027,
      "loadtruckobj00tru4apt4": 4028,
      "loadtruckobj00tru5apt5": 4029,
      "loadtruckobj00tru3pos22": 4030,
      "loadtruckobj00tru3pos23": 4031,
      "loadtruckobj00tru3pos21": 4032,
      "loadtruckobj00tru3pos12": 4033,
      "loadtruckobj00tru3pos13": 4034,
      "loadtruckobj00tru3pos11": 4035,
      "loadtruckobj00tru3pos33": 4036,
      "loadtruckobj00tru2pos22": 4037,
      "loadtruckobj00tru2pos21": 4038,
      "loadtruckobj00tru2pos12": 4039,
      "loadtruckobj00tru2pos11": 4040,
      "loadtruckobj00tru2pos23": 4041,
      "loadtruckobj00tru2pos13": 4042,
      "loadtruckobj00tru2pos33": 4043,
      "loadtruckobj00tru1pos22": 4044,
      "loadtruckobj00tru1pos21": 4045,
      "loadtruckobj00tru1pos12": 4046,
      "loadtruckobj00tru1pos11": 4047,
      "loadtruckobj00tru1pos23": 4048,
      "loadtruckobj00tru1pos13": 4049,
      "loadtruckobj00tru1pos33": 4050,
      "loadtruckobj00tru5pos55": 4051,
      "loadtruckobj00tru5pos44": 4052,
      "loadtruckobj00tru5pos66": 4053,
      "loadtruckobj00tru5pos77": 4054,
      "loadtruckobj00tru5pos22": 4055,
      "loadtruckobj00tru5pos21": 4056,
      "loadtruckobj00tru5pos12": 4057,
      "loadtruckobj00tru5pos11": 4058,
      "loadtruckobj00tru5pos23": 4059,
      "loadtruckobj00tru5pos13": 4060,
      "loadtruckobj00tru5pos33": 4061,
      "loadtruckobj00tru4pos55": 4062,
      "loadtruckobj00tru4pos44": 4063,
      "loadtruckobj00tru4pos66": 4064,
      "loadtruckobj00tru4pos77": 4065,
      "loadtruckobj00tru4pos22": 4066,
      "loadtruckobj00tru4pos21": 4067,
      "loadtruckobj00tru4pos12": 4068,
      "loadtruckobj00tru4pos11": 4069,
      "loadtruckobj00tru4pos23": 4070,
      "loadtruckobj00tru4pos13": 4071,
      "loadtruckobj00tru4pos33": 4072,
      "loadtruckobj88tru3apt5": 4073,
      "loadtruckobj88tru3apt8": 4074,
      "loadtruckobj88tru3apt6": 4075,
      "loadtruckobj88tru3apt7": 4076,
      "loadtruckobj88tru3apt4": 4077,
      "loadtruckobj88tru2apt5": 4078,
      "loadtruckobj88tru2apt8": 4079,
      "loadtruckobj88tru2apt4": 4080,
      "loadtruckobj88tru2apt6": 4081,
      "loadtruckobj88tru2apt7": 4082,
      "loadtruckobj88tru1apt5": 4083,
      "loadtruckobj88tru1apt8": 4084,
      "loadtruckobj88tru1apt6": 4085,
      "loadtruckobj88tru1apt7": 4086,
      "loadtruckobj88tru1apt4": 4087,
      "loadtruckobj88tru3pos55": 4088,
      "loadtruckobj88tru3pos44": 4089,
      "loadtruckobj88tru3pos66": 4090,
      "loadtruckobj88tru3pos77": 4091,
      "loadtruckobj88tru4apt5": 4092,
      "loadtruckobj88tru4apt8": 4093,
      "loadtruckobj88tru4apt6": 4094,
      "loadtruckobj88tru4apt7": 4095,
      "loadtruckobj88tru5apt8": 4096,
      "loadtruckobj88tru5apt6": 4097,
      "loadtruckobj88tru5apt7": 4098,
      "loadtruckobj88tru5apt4": 4099,
      "loadtruckobj88tru2pos55": 4100,
      "loadtruckobj88tru2pos44": 4101,
      "loadtruckobj88tru2pos66": 4102,
      "loadtruckobj88tru2pos77": 4103,
      "loadtruckobj88tru1pos55": 4104,
      "loadtruckobj88tru1pos44": 4105,
      "loadtruckobj88tru1pos66": 4106,
      "loadtruckobj88tru1pos77": 4107,
      "loadtruckobj88tru3apt2": 4108,
      "loadtruckobj88tru3apt1": 4109,
      "loadtruckobj88tru2apt3": 4110,
      "loadtruckobj88tru2apt1": 4111,
      "loadtruckobj88tru1apt2": 4112,
      "loadtruckobj88tru1apt3": 4113,
      "loadtruckobj88tru4apt2": 4114,
      "loadtruckobj88tru4apt3": 4115,
      "loadtruckobj88tru4apt1": 4116,
      "loadtruckobj88tru5apt2": 4117,
      "loadtruckobj88tru5apt3": 4118,
      "loadtruckobj88tru5apt1": 4119,
      "loadtruckobj88tru3apt3": 4120,
      "loadtruckobj88tru2apt2": 4121,
      "loadtruckobj88tru1apt1": 4122,
      "loadtruckobj88tru4apt4": 4123,
      "loadtruckobj88tru5apt5": 4124,
      "loadtruckobj88tru3pos22": 4125,
      "loadtruckobj88tru3pos23": 4126,
      "loadtruckobj88tru3pos21": 4127,
      "loadtruckobj88tru3pos12": 4128,
      "loadtruckobj88tru3pos13": 4129,
      "loadtruckobj88tru3pos11": 4130,
      "loadtruckobj88tru3pos33": 4131,
      "loadtruckobj88tru2pos22": 4132,
      "loadtruckobj88tru2pos21": 4133,
      "loadtruckobj88tru2pos12": 4134,
      "loadtruckobj88tru2pos11": 4135,
      "loadtruckobj88tru2pos23": 4136,
      "loadtruckobj88tru2pos13": 4137,
      "loadtruckobj88tru2pos33": 4138,
      "loadtruckobj88tru1pos22": 4139,
      "loadtruckobj88tru1pos21": 4140,
      "loadtruckobj88tru1pos12": 4141,
      "loadtruckobj88tru1pos11": 4142,
      "loadtruckobj88tru1pos23": 4143,
      "loadtruckobj88tru1pos13": 4144,
      "loadtruckobj88tru1pos33": 4145,
      "loadtruckobj88tru5pos55": 4146,
      "loadtruckobj88tru5pos44": 4147,
      "loadtruckobj88tru5pos66": 4148,
      "loadtruckobj88tru5pos77": 4149,
      "loadtruckobj88tru5pos22": 4150,
      "loadtruckobj88tru5pos21": 4151,
      "loadtruckobj88tru5pos12": 4152,
      "loadtruckobj88tru5pos11": 4153,
      "loadtruckobj88tru5pos23": 4154,
      "loadtruckobj88tru5pos13": 4155,
      "loadtruckobj88tru5pos33": 4156,
      "loadtruckobj88tru4pos55": 4157,
      "loadtruckobj88tru4pos44": 4158,
      "loadtruckobj88tru4pos66": 4159,
      "loadtruckobj88tru4pos77": 4160,
      "loadtruckobj88tru4pos22": 4161,
      "loadtruckobj88tru4pos21": 4162,
      "loadtruckobj88tru4pos12": 4163,
      "loadtruckobj88tru4pos11": 4164,
      "loadtruckobj88tru4pos23": 4165,
      "loadtruckobj88tru4pos13": 4166,
      "loadtruckobj88tru4pos33": 4167,
      "loadtruckobj99tru3apt5": 4168,
      "loadtruckobj99tru3apt8": 4169,
      "loadtruckobj99tru3apt6": 4170,
      "loadtruckobj99tru3apt7": 4171,
      "loadtruckobj99tru3apt4": 4172,
      "loadtruckobj99tru2apt5": 4173,
      "loadtruckobj99tru2apt8": 4174,
      "loadtruckobj99tru2apt4": 4175,
      "loadtruckobj99tru2apt6": 4176,
      "loadtruckobj99tru2apt7": 4177,
      "loadtruckobj99tru1apt5": 4178,
      "loadtruckobj99tru1apt8": 4179,
      "loadtruckobj99tru1apt6": 4180,
      "loadtruckobj99tru1apt7": 4181,
      "loadtruckobj99tru1apt4": 4182,
      "loadtruckobj99tru3pos55": 4183,
      "loadtruckobj99tru3pos44": 4184,
      "loadtruckobj99tru3pos66": 4185,
      "loadtruckobj99tru3pos77": 4186,
      "loadtruckobj99tru4apt5": 4187,
      "loadtruckobj99tru4apt8": 4188,
      "loadtruckobj99tru4apt6": 4189,
      "loadtruckobj99tru4apt7": 4190,
      "loadtruckobj99tru5apt8": 4191,
      "loadtruckobj99tru5apt6": 4192,
      "loadtruckobj99tru5apt7": 4193,
      "loadtruckobj99tru5apt4": 4194,
      "loadtruckobj99tru2pos55": 4195,
      "loadtruckobj99tru2pos44": 4196,
      "loadtruckobj99tru2pos66": 4197,
      "loadtruckobj99tru2pos77": 4198,
      "loadtruckobj99tru1pos55": 4199,
      "loadtruckobj99tru1pos44": 4200,
      "loadtruckobj99tru1pos66": 4201,
      "loadtruckobj99tru1pos77": 4202,
      "loadtruckobj99tru3apt2": 4203,
      "loadtruckobj99tru3apt1": 4204,
      "loadtruckobj99tru2apt3": 4205,
      "loadtruckobj99tru2apt1": 4206,
      "loadtruckobj99tru1apt2": 4207,
      "loadtruckobj99tru1apt3": 4208,
      "loadtruckobj99tru4apt2": 4209,
      "loadtruckobj99tru4apt3": 4210,
      "loadtruckobj99tru4apt1": 4211,
      "loadtruckobj99tru5apt2": 4212,
      "loadtruckobj99tru5apt3": 4213,
      "loadtruckobj99tru5apt1": 4214,
      "loadtruckobj99tru3apt3": 4215,
      "loadtruckobj99tru2apt2": 4216,
      "loadtruckobj99tru1apt1": 4217,
      "loadtruckobj99tru4apt4": 4218,
      "loadtruckobj99tru5apt5": 4219,
      "loadtruckobj99tru3pos22": 4220,
      "loadtruckobj99tru3pos23": 4221,
      "loadtruckobj99tru3pos21": 4222,
      "loadtruckobj99tru3pos12": 4223,
      "loadtruckobj99tru3pos13": 4224,
      "loadtruckobj99tru3pos11": 4225,
      "loadtruckobj99tru3pos33": 4226,
      "loadtruckobj99tru2pos22": 4227,
      "loadtruckobj99tru2pos21": 4228,
      "loadtruckobj99tru2pos12": 4229,
      "loadtruckobj99tru2pos11": 4230,
      "loadtruckobj99tru2pos23": 4231,
      "loadtruckobj99tru2pos13": 4232,
      "loadtruckobj99tru2pos33": 4233,
      "loadtruckobj99tru1pos22": 4234,
      "loadtruckobj99tru1pos21": 4235,
      "loadtruckobj99tru1pos12": 4236,
      "loadtruckobj99tru1pos11": 4237,
      "loadtruckobj99tru1pos23": 4238,
      "loadtruckobj99tru1pos13": 4239,
      "loadtruckobj99tru1pos33": 4240,
      "loadtruckobj99tru5pos55": 4241,
      "loadtruckobj99tru5pos44": 4242,
      "loadtruckobj99tru5pos66": 4243,
      "loadtruckobj99tru5pos77": 4244,
      "loadtruckobj99tru5pos22": 4245,
      "loadtruckobj99tru5pos21": 4246,
      "loadtruckobj99tru5pos12": 4247,
      "loadtruckobj99tru5pos11": 4248,
      "loadtruckobj99tru5pos23": 4249,
      "loadtruckobj99tru5pos13": 4250,
      "loadtruckobj99tru5pos33": 4251,
      "loadtruckobj99tru4pos55": 4252,
      "loadtruckobj99tru4pos44": 4253,
      "loadtruckobj99tru4pos66": 4254,
      "loadtruckobj99tru4pos77": 4255,
      "loadtruckobj99tru4pos22": 4256,
      "loadtruckobj99tru4pos21": 4257,
      "loadtruckobj99tru4pos12": 4258,
      "loadtruckobj99tru4pos11": 4259,
      "loadtruckobj99tru4pos23": 4260,
      "loadtruckobj99tru4pos13": 4261,
      "loadtruckobj99tru4pos33": 4262,
      "unloadtruckobj33tru3apt5": 4263,
      "unloadtruckobj33tru3apt8": 4264,
      "unloadtruckobj33tru3apt6": 4265,
      "unloadtruckobj33tru3apt7": 4266,
      "unloadtruckobj33tru3apt4": 4267,
      "unloadtruckobj33tru2apt5": 4268,
      "unloadtruckobj33tru2apt8": 4269,
      "unloadtruckobj33tru2apt4": 4270,
      "unloadtruckobj33tru2apt6": 4271,
      "unloadtruckobj33tru2apt7": 4272,
      "unloadtruckobj33tru1apt5": 4273,
      "unloadtruckobj33tru1apt8": 4274,
      "unloadtruckobj33tru1apt6": 4275,
      "unloadtruckobj33tru1apt7": 4276,
      "unloadtruckobj33tru1apt4": 4277,
      "unloadtruckobj33tru3pos55": 4278,
      "unloadtruckobj33tru3pos44": 4279,
      "unloadtruckobj33tru3pos66": 4280,
      "unloadtruckobj33tru3pos77": 4281,
      "unloadtruckobj33tru4apt5": 4282,
      "unloadtruckobj33tru4apt8": 4283,
      "unloadtruckobj33tru4apt6": 4284,
      "unloadtruckobj33tru4apt7": 4285,
      "unloadtruckobj33tru5apt8": 4286,
      "unloadtruckobj33tru5apt6": 4287,
      "unloadtruckobj33tru5apt7": 4288,
      "unloadtruckobj33tru5apt4": 4289,
      "unloadtruckobj33tru2pos55": 4290,
      "unloadtruckobj33tru2pos44": 4291,
      "unloadtruckobj33tru2pos66": 4292,
      "unloadtruckobj33tru2pos77": 4293,
      "unloadtruckobj33tru1pos55": 4294,
      "unloadtruckobj33tru1pos44": 4295,
      "unloadtruckobj33tru1pos66": 4296,
      "unloadtruckobj33tru1pos77": 4297,
      "unloadtruckobj33tru3apt2": 4298,
      "unloadtruckobj33tru3apt1": 4299,
      "unloadtruckobj33tru2apt3": 4300,
      "unloadtruckobj33tru2apt1": 4301,
      "unloadtruckobj33tru1apt2": 4302,
      "unloadtruckobj33tru1apt3": 4303,
      "unloadtruckobj33tru4apt2": 4304,
      "unloadtruckobj33tru4apt3": 4305,
      "unloadtruckobj33tru4apt1": 4306,
      "unloadtruckobj33tru5apt2": 4307,
      "unloadtruckobj33tru5apt3": 4308,
      "unloadtruckobj33tru5apt1": 4309,
      "unloadtruckobj33tru3apt3": 4310,
      "unloadtruckobj33tru2apt2": 4311,
      "unloadtruckobj33tru1apt1": 4312,
      "unloadtruckobj33tru4apt4": 4313,
      "unloadtruckobj33tru5apt5": 4314,
      "unloadtruckobj33tru3pos22": 4315,
      "unloadtruckobj33tru3pos23": 4316,
      "unloadtruckobj33tru3pos21": 4317,
      "unloadtruckobj33tru3pos12": 4318,
      "unloadtruckobj33tru3pos13": 4319,
      "unloadtruckobj33tru3pos11": 4320,
      "unloadtruckobj33tru3pos33": 4321,
      "unloadtruckobj33tru2pos22": 4322,
      "unloadtruckobj33tru2pos21": 4323,
      "unloadtruckobj33tru2pos12": 4324,
      "unloadtruckobj33tru2pos11": 4325,
      "unloadtruckobj33tru2pos23": 4326,
      "unloadtruckobj33tru2pos13": 4327,
      "unloadtruckobj33tru2pos33": 4328,
      "unloadtruckobj33tru1pos22": 4329,
      "unloadtruckobj33tru1pos21": 4330,
      "unloadtruckobj33tru1pos12": 4331,
      "unloadtruckobj33tru1pos11": 4332,
      "unloadtruckobj33tru1pos23": 4333,
      "unloadtruckobj33tru1pos13": 4334,
      "unloadtruckobj33tru1pos33": 4335,
      "unloadtruckobj33tru5pos55": 4336,
      "unloadtruckobj33tru5pos44": 4337,
      "unloadtruckobj33tru5pos66": 4338,
      "unloadtruckobj33tru5pos77": 4339,
      "unloadtruckobj33tru5pos22": 4340,
      "unloadtruckobj33tru5pos21": 4341,
      "unloadtruckobj33tru5pos12": 4342,
      "unloadtruckobj33tru5pos11": 4343,
      "unloadtruckobj33tru5pos23": 4344,
      "unloadtruckobj33tru5pos13": 4345,
      "unloadtruckobj33tru5pos33": 4346,
      "unloadtruckobj33tru4pos55": 4347,
      "unloadtruckobj33tru4pos44": 4348,
      "unloadtruckobj33tru4pos66": 4349,
      "unloadtruckobj33tru4pos77": 4350,
      "unloadtruckobj33tru4pos22": 4351,
      "unloadtruckobj33tru4pos21": 4352,
      "unloadtruckobj33tru4pos12": 4353,
      "unloadtruckobj33tru4pos11": 4354,
      "unloadtruckobj33tru4pos23": 4355,
      "unloadtruckobj33tru4pos13": 4356,
      "unloadtruckobj33tru4pos33": 4357,
      "unloadtruckobj55tru3apt5": 4358,
      "unloadtruckobj55tru3apt8": 4359,
      "unloadtruckobj55tru3apt6": 4360,
      "unloadtruckobj55tru3apt7": 4361,
      "unloadtruckobj55tru3apt4": 4362,
      "unloadtruckobj55tru2apt5": 4363,
      "unloadtruckobj55tru2apt8": 4364,
      "unloadtruckobj55tru2apt4": 4365,
      "unloadtruckobj55tru2apt6": 4366,
      "unloadtruckobj55tru2apt7": 4367,
      "unloadtruckobj55tru1apt5": 4368,
      "unloadtruckobj55tru1apt8": 4369,
      "unloadtruckobj55tru1apt6": 4370,
      "unloadtruckobj55tru1apt7": 4371,
      "unloadtruckobj55tru1apt4": 4372,
      "unloadtruckobj55tru3pos55": 4373,
      "unloadtruckobj55tru3pos44": 4374,
      "unloadtruckobj55tru3pos66": 4375,
      "unloadtruckobj55tru3pos77": 4376,
      "unloadtruckobj55tru4apt5": 4377,
      "unloadtruckobj55tru4apt8": 4378,
      "unloadtruckobj55tru4apt6": 4379,
      "unloadtruckobj55tru4apt7": 4380,
      "unloadtruckobj55tru5apt8": 4381,
      "unloadtruckobj55tru5apt6": 4382,
      "unloadtruckobj55tru5apt7": 4383,
      "unloadtruckobj55tru5apt4": 4384,
      "unloadtruckobj55tru2pos55": 4385,
      "unloadtruckobj55tru2pos44": 4386,
      "unloadtruckobj55tru2pos66": 4387,
      "unloadtruckobj55tru2pos77": 4388,
      "unloadtruckobj55tru1pos55": 4389,
      "unloadtruckobj55tru1pos44": 4390,
      "unloadtruckobj55tru1pos66": 4391,
      "unloadtruckobj55tru1pos77": 4392,
      "unloadtruckobj55tru3apt2": 4393,
      "unloadtruckobj55tru3apt1": 4394,
      "unloadtruckobj55tru2apt3": 4395,
      "unloadtruckobj55tru2apt1": 4396,
      "unloadtruckobj55tru1apt2": 4397,
      "unloadtruckobj55tru1apt3": 4398,
      "unloadtruckobj55tru4apt2": 4399,
      "unloadtruckobj55tru4apt3": 4400,
      "unloadtruckobj55tru4apt1": 4401,
      "unloadtruckobj55tru5apt2": 4402,
      "unloadtruckobj55tru5apt3": 4403,
      "unloadtruckobj55tru5apt1": 4404,
      "unloadtruckobj55tru3apt3": 4405,
      "unloadtruckobj55tru2apt2": 4406,
      "unloadtruckobj55tru1apt1": 4407,
      "unloadtruckobj55tru4apt4": 4408,
      "unloadtruckobj55tru5apt5": 4409,
      "unloadtruckobj55tru3pos22": 4410,
      "unloadtruckobj55tru3pos23": 4411,
      "unloadtruckobj55tru3pos21": 4412,
      "unloadtruckobj55tru3pos12": 4413,
      "unloadtruckobj55tru3pos13": 4414,
      "unloadtruckobj55tru3pos11": 4415,
      "unloadtruckobj55tru3pos33": 4416,
      "unloadtruckobj55tru2pos22": 4417,
      "unloadtruckobj55tru2pos21": 4418,
      "unloadtruckobj55tru2pos12": 4419,
      "unloadtruckobj55tru2pos11": 4420,
      "unloadtruckobj55tru2pos23": 4421,
      "unloadtruckobj55tru2pos13": 4422,
      "unloadtruckobj55tru2pos33": 4423,
      "unloadtruckobj55tru1pos22": 4424,
      "unloadtruckobj55tru1pos21": 4425,
      "unloadtruckobj55tru1pos12": 4426,
      "unloadtruckobj55tru1pos11": 4427,
      "unloadtruckobj55tru1pos23": 4428,
      "unloadtruckobj55tru1pos13": 4429,
      "unloadtruckobj55tru1pos33": 4430,
      "unloadtruckobj55tru5pos55": 4431,
      "unloadtruckobj55tru5pos44": 4432,
      "unloadtruckobj55tru5pos66": 4433,
      "unloadtruckobj55tru5pos77": 4434,
      "unloadtruckobj55tru5pos22": 4435,
      "unloadtruckobj55tru5pos21": 4436,
      "unloadtruckobj55tru5pos12": 4437,
      "unloadtruckobj55tru5pos11": 4438,
      "unloadtruckobj55tru5pos23": 4439,
      "unloadtruckobj55tru5pos13": 4440,
      "unloadtruckobj55tru5pos33": 4441,
      "unloadtruckobj55tru4pos55": 4442,
      "unloadtruckobj55tru4pos44": 4443,
      "unloadtruckobj55tru4pos66": 4444,
      "unloadtruckobj55tru4pos77": 4445,
      "unloadtruckobj55tru4pos22": 4446,
      "unloadtruckobj55tru4pos21": 4447,
      "unloadtruckobj55tru4pos12": 4448,
      "unloadtruckobj55tru4pos11": 4449,
      "unloadtruckobj55tru4pos23": 4450,
      "unloadtruckobj55tru4pos13": 4451,
      "unloadtruckobj55tru4pos33": 4452,
      "unloadtruckobj44tru3apt5": 4453,
      "unloadtruckobj44tru3apt8": 4454,
      "unloadtruckobj44tru3apt6": 4455,
      "unloadtruckobj44tru3apt7": 4456,
      "unloadtruckobj44tru3apt4": 4457,
      "unloadtruckobj44tru2apt5": 4458,
      "unloadtruckobj44tru2apt8": 4459,
      "unloadtruckobj44tru2apt4": 4460,
      "unloadtruckobj44tru2apt6": 4461,
      "unloadtruckobj44tru2apt7": 4462,
      "unloadtruckobj44tru1apt5": 4463,
      "unloadtruckobj44tru1apt8": 4464,
      "unloadtruckobj44tru1apt6": 4465,
      "unloadtruckobj44tru1apt7": 4466,
      "unloadtruckobj44tru1apt4": 4467,
      "unloadtruckobj44tru3pos55": 4468,
      "unloadtruckobj44tru3pos44": 4469,
      "unloadtruckobj44tru3pos66": 4470,
      "unloadtruckobj44tru3pos77": 4471,
      "unloadtruckobj44tru4apt5": 4472,
      "unloadtruckobj44tru4apt8": 4473,
      "unloadtruckobj44tru4apt6": 4474,
      "unloadtruckobj44tru4apt7": 4475,
      "unloadtruckobj44tru5apt8": 4476,
      "unloadtruckobj44tru5apt6": 4477,
      "unloadtruckobj44tru5apt7": 4478,
      "unloadtruckobj44tru5apt4": 4479,
      "unloadtruckobj44tru2pos55": 4480,
      "unloadtruckobj44tru2pos44": 4481,
      "unloadtruckobj44tru2pos66": 4482,
      "unloadtruckobj44tru2pos77": 4483,
      "unloadtruckobj44tru1pos55": 4484,
      "unloadtruckobj44tru1pos44": 4485,
      "unloadtruckobj44tru1pos66": 4486,
      "unloadtruckobj44tru1pos77": 4487,
      "unloadtruckobj44tru3apt2": 4488,
      "unloadtruckobj44tru3apt1": 4489,
      "unloadtruckobj44tru2apt3": 4490,
      "unloadtruckobj44tru2apt1": 4491,
      "unloadtruckobj44tru1apt2": 4492,
      "unloadtruckobj44tru1apt3": 4493,
      "unloadtruckobj44tru4apt2": 4494,
      "unloadtruckobj44tru4apt3": 4495,
      "unloadtruckobj44tru4apt1": 4496,
      "unloadtruckobj44tru5apt2": 4497,
      "unloadtruckobj44tru5apt3": 4498,
      "unloadtruckobj44tru5apt1": 4499,
      "unloadtruckobj44tru3apt3": 4500,
      "unloadtruckobj44tru2apt2": 4501,
      "unloadtruckobj44tru1apt1": 4502,
      "unloadtruckobj44tru4apt4": 4503,
      "unloadtruckobj44tru5apt5": 4504,
      "unloadtruckobj44tru3pos22": 4505,
      "unloadtruckobj44tru3pos23": 4506,
      "unloadtruckobj44tru3pos21": 4507,
      "unloadtruckobj44tru3pos12": 4508,
      "unloadtruckobj44tru3pos13": 4509,
      "unloadtruckobj44tru3pos11": 4510,
      "unloadtruckobj44tru3pos33": 4511,
      "unloadtruckobj44tru2pos22": 4512,
      "unloadtruckobj44tru2pos21": 4513,
      "unloadtruckobj44tru2pos12": 4514,
      "unloadtruckobj44tru2pos11": 4515,
      "unloadtruckobj44tru2pos23": 4516,
      "unloadtruckobj44tru2pos13": 4517,
      "unloadtruckobj44tru2pos33": 4518,
      "unloadtruckobj44tru1pos22": 4519,
      "unloadtruckobj44tru1pos21": 4520,
      "unloadtruckobj44tru1pos12": 4521,
      "unloadtruckobj44tru1pos11": 4522,
      "unloadtruckobj44tru1pos23": 4523,
      "unloadtruckobj44tru1pos13": 4524,
      "unloadtruckobj44tru1pos33": 4525,
      "unloadtruckobj44tru5pos55": 4526,
      "unloadtruckobj44tru5pos44": 4527,
      "unloadtruckobj44tru5pos66": 4528,
      "unloadtruckobj44tru5pos77": 4529,
      "unloadtruckobj44tru5pos22": 4530,
      "unloadtruckobj44tru5pos21": 4531,
      "unloadtruckobj44tru5pos12": 4532,
      "unloadtruckobj44tru5pos11": 4533,
      "unloadtruckobj44tru5pos23": 4534,
      "unloadtruckobj44tru5pos13": 4535,
      "unloadtruckobj44tru5pos33": 4536,
      "unloadtruckobj44tru4pos55": 4537,
      "unloadtruckobj44tru4pos44": 4538,
      "unloadtruckobj44tru4pos66": 4539,
      "unloadtruckobj44tru4pos77": 4540,
      "unloadtruckobj44tru4pos22": 4541,
      "unloadtruckobj44tru4pos21": 4542,
      "unloadtruckobj44tru4pos12": 4543,
      "unloadtruckobj44tru4pos11": 4544,
      "unloadtruckobj44tru4pos23": 4545,
      "unloadtruckobj44tru4pos13": 4546,
      "unloadtruckobj44tru4pos33": 4547,
      "unloadtruckobj66tru3apt5": 4548,
      "unloadtruckobj66tru3apt8": 4549,
      "unloadtruckobj66tru3apt6": 4550,
      "unloadtruckobj66tru3apt7": 4551,
      "unloadtruckobj66tru3apt4": 4552,
      "unloadtruckobj66tru2apt5": 4553,
      "unloadtruckobj66tru2apt8": 4554,
      "unloadtruckobj66tru2apt4": 4555,
      "unloadtruckobj66tru2apt6": 4556,
      "unloadtruckobj66tru2apt7": 4557,
      "unloadtruckobj66tru1apt5": 4558,
      "unloadtruckobj66tru1apt8": 4559,
      "unloadtruckobj66tru1apt6": 4560,
      "unloadtruckobj66tru1apt7": 4561,
      "unloadtruckobj66tru1apt4": 4562,
      "unloadtruckobj66tru3pos55": 4563,
      "unloadtruckobj66tru3pos44": 4564,
      "unloadtruckobj66tru3pos66": 4565,
      "unloadtruckobj66tru3pos77": 4566,
      "unloadtruckobj66tru4apt5": 4567,
      "unloadtruckobj66tru4apt8": 4568,
      "unloadtruckobj66tru4apt6": 4569,
      "unloadtruckobj66tru4apt7": 4570,
      "unloadtruckobj66tru5apt8": 4571,
      "unloadtruckobj66tru5apt6": 4572,
      "unloadtruckobj66tru5apt7": 4573,
      "unloadtruckobj66tru5apt4": 4574,
      "unloadtruckobj66tru2pos55": 4575,
      "unloadtruckobj66tru2pos44": 4576,
      "unloadtruckobj66tru2pos66": 4577,
      "unloadtruckobj66tru2pos77": 4578,
      "unloadtruckobj66tru1pos55": 4579,
      "unloadtruckobj66tru1pos44": 4580,
      "unloadtruckobj66tru1pos66": 4581,
      "unloadtruckobj66tru1pos77": 4582,
      "unloadtruckobj66tru3apt2": 4583,
      "unloadtruckobj66tru3apt1": 4584,
      "unloadtruckobj66tru2apt3": 4585,
      "unloadtruckobj66tru2apt1": 4586,
      "unloadtruckobj66tru1apt2": 4587,
      "unloadtruckobj66tru1apt3": 4588,
      "unloadtruckobj66tru4apt2": 4589,
      "unloadtruckobj66tru4apt3": 4590,
      "unloadtruckobj66tru4apt1": 4591,
      "unloadtruckobj66tru5apt2": 4592,
      "unloadtruckobj66tru5apt3": 4593,
      "unloadtruckobj66tru5apt1": 4594,
      "unloadtruckobj66tru3apt3": 4595,
      "unloadtruckobj66tru2apt2": 4596,
      "unloadtruckobj66tru1apt1": 4597,
      "unloadtruckobj66tru4apt4": 4598,
      "unloadtruckobj66tru5apt5": 4599,
      "unloadtruckobj66tru3pos22": 4600,
      "unloadtruckobj66tru3pos23": 4601,
      "unloadtruckobj66tru3pos21": 4602,
      "unloadtruckobj66tru3pos12": 4603,
      "unloadtruckobj66tru3pos13": 4604,
      "unloadtruckobj66tru3pos11": 4605,
      "unloadtruckobj66tru3pos33": 4606,
      "unloadtruckobj66tru2pos22": 4607,
      "unloadtruckobj66tru2pos21": 4608,
      "unloadtruckobj66tru2pos12": 4609,
      "unloadtruckobj66tru2pos11": 4610,
      "unloadtruckobj66tru2pos23": 4611,
      "unloadtruckobj66tru2pos13": 4612,
      "unloadtruckobj66tru2pos33": 4613,
      "unloadtruckobj66tru1pos22": 4614,
      "unloadtruckobj66tru1pos21": 4615,
      "unloadtruckobj66tru1pos12": 4616,
      "unloadtruckobj66tru1pos11": 4617,
      "unloadtruckobj66tru1pos23": 4618,
      "unloadtruckobj66tru1pos13": 4619,
      "unloadtruckobj66tru1pos33": 4620,
      "unloadtruckobj66tru5pos55": 4621,
      "unloadtruckobj66tru5pos44": 4622,
      "unloadtruckobj66tru5pos66": 4623,
      "unloadtruckobj66tru5pos77": 4624,
      "unloadtruckobj66tru5pos22": 4625,
      "unloadtruckobj66tru5pos21": 4626,
      "unloadtruckobj66tru5pos12": 4627,
      "unloadtruckobj66tru5pos11": 4628,
      "unloadtruckobj66tru5pos23": 4629,
      "unloadtruckobj66tru5pos13": 4630,
      "unloadtruckobj66tru5pos33": 4631,
      "unloadtruckobj66tru4pos55": 4632,
      "unloadtruckobj66tru4pos44": 4633,
      "unloadtruckobj66tru4pos66": 4634,
      "unloadtruckobj66tru4pos77": 4635,
      "unloadtruckobj66tru4pos22": 4636,
      "unloadtruckobj66tru4pos21": 4637,
      "unloadtruckobj66tru4pos12": 4638,
      "unloadtruckobj66tru4pos11": 4639,
      "unloadtruckobj66tru4pos23": 4640,
      "unloadtruckobj66tru4pos13": 4641,
      "unloadtruckobj66tru4pos33": 4642,
      "unloadtruckobj77tru3apt5": 4643,
      "unloadtruckobj77tru3apt8": 4644,
      "unloadtruckobj77tru3apt6": 4645,
      "unloadtruckobj77tru3apt7": 4646,
      "unloadtruckobj77tru3apt4": 4647,
      "unloadtruckobj77tru2apt5": 4648,
      "unloadtruckobj77tru2apt8": 4649,
      "unloadtruckobj77tru2apt4": 4650,
      "unloadtruckobj77tru2apt6": 4651,
      "unloadtruckobj77tru2apt7": 4652,
      "unloadtruckobj77tru1apt5": 4653,
      "unloadtruckobj77tru1apt8": 4654,
      "unloadtruckobj77tru1apt6": 4655,
      "unloadtruckobj77tru1apt7": 4656,
      "unloadtruckobj77tru1apt4": 4657,
      "unloadtruckobj77tru3pos55": 4658,
      "unloadtruckobj77tru3pos44": 4659,
      "unloadtruckobj77tru3pos66": 4660,
      "unloadtruckobj77tru3pos77": 4661,
      "unloadtruckobj77tru4apt5": 4662,
      "unloadtruckobj77tru4apt8": 4663,
      "unloadtruckobj77tru4apt6": 4664,
      "unloadtruckobj77tru4apt7": 4665,
      "unloadtruckobj77tru5apt8": 4666,
      "unloadtruckobj77tru5apt6": 4667,
      "unloadtruckobj77tru5apt7": 4668,
      "unloadtruckobj77tru5apt4": 4669,
      "unloadtruckobj77tru2pos55": 4670,
      "unloadtruckobj77tru2pos44": 4671,
      "unloadtruckobj77tru2pos66": 4672,
      "unloadtruckobj77tru2pos77": 4673,
      "unloadtruckobj77tru1pos55": 4674,
      "unloadtruckobj77tru1pos44": 4675,
      "unloadtruckobj77tru1pos66": 4676,
      "unloadtruckobj77tru1pos77": 4677,
      "unloadtruckobj77tru3apt2": 4678,
      "unloadtruckobj77tru3apt1": 4679,
      "unloadtruckobj77tru2apt3": 4680,
      "unloadtruckobj77tru2apt1": 4681,
      "unloadtruckobj77tru1apt2": 4682,
      "unloadtruckobj77tru1apt3": 4683,
      "unloadtruckobj77tru4apt2": 4684,
      "unloadtruckobj77tru4apt3": 4685,
      "unloadtruckobj77tru4apt1": 4686,
      "unloadtruckobj77tru5apt2": 4687,
      "unloadtruckobj77tru5apt3": 4688,
      "unloadtruckobj77tru5apt1": 4689,
      "unloadtruckobj77tru3apt3": 4690,
      "unloadtruckobj77tru2apt2": 4691,
      "unloadtruckobj77tru1apt1": 4692,
      "unloadtruckobj77tru4apt4": 4693,
      "unloadtruckobj77tru5apt5": 4694,
      "unloadtruckobj77tru3pos22": 4695,
      "unloadtruckobj77tru3pos23": 4696,
      "unloadtruckobj77tru3pos21": 4697,
      "unloadtruckobj77tru3pos12": 4698,
      "unloadtruckobj77tru3pos13": 4699,
      "unloadtruckobj77tru3pos11": 4700,
      "unloadtruckobj77tru3pos33": 4701,
      "unloadtruckobj77tru2pos22": 4702,
      "unloadtruckobj77tru2pos21": 4703,
      "unloadtruckobj77tru2pos12": 4704,
      "unloadtruckobj77tru2pos11": 4705,
      "unloadtruckobj77tru2pos23": 4706,
      "unloadtruckobj77tru2pos13": 4707,
      "unloadtruckobj77tru2pos33": 4708,
      "unloadtruckobj77tru1pos22": 4709,
      "unloadtruckobj77tru1pos21": 4710,
      "unloadtruckobj77tru1pos12": 4711,
      "unloadtruckobj77tru1pos11": 4712,
      "unloadtruckobj77tru1pos23": 4713,
      "unloadtruckobj77tru1pos13": 4714,
      "unloadtruckobj77tru1pos33": 4715,
      "unloadtruckobj77tru5pos55": 4716,
      "unloadtruckobj77tru5pos44": 4717,
      "unloadtruckobj77tru5pos66": 4718,
      "unloadtruckobj77tru5pos77": 4719,
      "unloadtruckobj77tru5pos22": 4720,
      "unloadtruckobj77tru5pos21": 4721,
      "unloadtruckobj77tru5pos12": 4722,
      "unloadtruckobj77tru5pos11": 4723,
      "unloadtruckobj77tru5pos23": 4724,
      "unloadtruckobj77tru5pos13": 4725,
      "unloadtruckobj77tru5pos33": 4726,
      "unloadtruckobj77tru4pos55": 4727,
      "unloadtruckobj77tru4pos44": 4728,
      "unloadtruckobj77tru4pos66": 4729,
      "unloadtruckobj77tru4pos77": 4730,
      "unloadtruckobj77tru4pos22": 4731,
      "unloadtruckobj77tru4pos21": 4732,
      "unloadtruckobj77tru4pos12": 4733,
      "unloadtruckobj77tru4pos11": 4734,
      "unloadtruckobj77tru4pos23": 4735,
      "unloadtruckobj77tru4pos13": 4736,
      "unloadtruckobj77tru4pos33": 4737,
      "unloadtruckobj00tru3apt5": 4738,
      "unloadtruckobj00tru3apt8": 4739,
      "unloadtruckobj00tru3apt6": 4740,
      "unloadtruckobj00tru3apt7": 4741,
      "unloadtruckobj00tru3apt4": 4742,
      "unloadtruckobj00tru2apt5": 4743,
      "unloadtruckobj00tru2apt8": 4744,
      "unloadtruckobj00tru2apt4": 4745,
      "unloadtruckobj00tru2apt6": 4746,
      "unloadtruckobj00tru2apt7": 4747,
      "unloadtruckobj00tru1apt5": 4748,
      "unloadtruckobj00tru1apt8": 4749,
      "unloadtruckobj00tru1apt6": 4750,
      "unloadtruckobj00tru1apt7": 4751,
      "unloadtruckobj00tru1apt4": 4752,
      "unloadtruckobj00tru3pos55": 4753,
      "unloadtruckobj00tru3pos44": 4754,
      "unloadtruckobj00tru3pos66": 4755,
      "unloadtruckobj00tru3pos77": 4756,
      "unloadtruckobj00tru4apt5": 4757,
      "unloadtruckobj00tru4apt8": 4758,
      "unloadtruckobj00tru4apt6": 4759,
      "unloadtruckobj00tru4apt7": 4760,
      "unloadtruckobj00tru5apt8": 4761,
      "unloadtruckobj00tru5apt6": 4762,
      "unloadtruckobj00tru5apt7": 4763,
      "unloadtruckobj00tru5apt4": 4764,
      "unloadtruckobj00tru2pos55": 4765,
      "unloadtruckobj00tru2pos44": 4766,
      "unloadtruckobj00tru2pos66": 4767,
      "unloadtruckobj00tru2pos77": 4768,
      "unloadtruckobj00tru1pos55": 4769,
      "unloadtruckobj00tru1pos44": 4770,
      "unloadtruckobj00tru1pos66": 4771,
      "unloadtruckobj00tru1pos77": 4772,
      "unloadtruckobj00tru3apt2": 4773,
      "unloadtruckobj00tru3apt1": 4774,
      "unloadtruckobj00tru2apt3": 4775,
      "unloadtruckobj00tru2apt1": 4776,
      "unloadtruckobj00tru1apt2": 4777,
      "unloadtruckobj00tru1apt3": 4778,
      "unloadtruckobj00tru4apt2": 4779,
      "unloadtruckobj00tru4apt3": 4780,
      "unloadtruckobj00tru4apt1": 4781,
      "unloadtruckobj00tru5apt2": 4782,
      "unloadtruckobj00tru5apt3": 4783,
      "unloadtruckobj00tru5apt1": 4784,
      "unloadtruckobj00tru3apt3": 4785,
      "unloadtruckobj00tru2apt2": 4786,
      "unloadtruckobj00tru1apt1": 4787,
      "unloadtruckobj00tru4apt4": 4788,
      "unloadtruckobj00tru5apt5": 4789,
      "unloadtruckobj00tru3pos22": 4790,
      "unloadtruckobj00tru3pos23": 4791,
      "unloadtruckobj00tru3pos21": 4792,
      "unloadtruckobj00tru3pos12": 4793,
      "unloadtruckobj00tru3pos13": 4794,
      "unloadtruckobj00tru3pos11": 4795,
      "unloadtruckobj00tru3pos33": 4796,
      "unloadtruckobj00tru2pos22": 4797,
      "unloadtruckobj00tru2pos21": 4798,
      "unloadtruckobj00tru2pos12": 4799,
      "unloadtruckobj00tru2pos11": 4800,
      "unloadtruckobj00tru2pos23": 4801,
      "unloadtruckobj00tru2pos13": 4802,
      "unloadtruckobj00tru2pos33": 4803,
      "unloadtruckobj00tru1pos22": 4804,
      "unloadtruckobj00tru1pos21": 4805,
      "unloadtruckobj00tru1pos12": 4806,
      "unloadtruckobj00tru1pos11": 4807,
      "unloadtruckobj00tru1pos23": 4808,
      "unloadtruckobj00tru1pos13": 4809,
      "unloadtruckobj00tru1pos33": 4810,
      "unloadtruckobj00tru5pos55": 4811,
      "unloadtruckobj00tru5pos44": 4812,
      "unloadtruckobj00tru5pos66": 4813,
      "unloadtruckobj00tru5pos77": 4814,
      "unloadtruckobj00tru5pos22": 4815,
      "unloadtruckobj00tru5pos21": 4816,
      "unloadtruckobj00tru5pos12": 4817,
      "unloadtruckobj00tru5pos11": 4818,
      "unloadtruckobj00tru5pos23": 4819,
      "unloadtruckobj00tru5pos13": 4820,
      "unloadtruckobj00tru5pos33": 4821,
      "unloadtruckobj00tru4pos55": 4822,
      "unloadtruckobj00tru4pos44": 4823,
      "unloadtruckobj00tru4pos66": 4824,
      "unloadtruckobj00tru4pos77": 4825,
      "unloadtruckobj00tru4pos22": 4826,
      "unloadtruckobj00tru4pos21": 4827,
      "unloadtruckobj00tru4pos12": 4828,
      "unloadtruckobj00tru4pos11": 4829,
      "unloadtruckobj00tru4pos23": 4830,
      "unloadtruckobj00tru4pos13": 4831,
      "unloadtruckobj00tru4pos33": 4832,
      "unloadtruckobj88tru3apt5": 4833,
      "unloadtruckobj88tru3apt8": 4834,
      "unloadtruckobj88tru3apt6": 4835,
      "unloadtruckobj88tru3apt7": 4836,
      "unloadtruckobj88tru3apt4": 4837,
      "unloadtruckobj88tru2apt5": 4838,
      "unloadtruckobj88tru2apt8": 4839,
      "unloadtruckobj88tru2apt4": 4840,
      "unloadtruckobj88tru2apt6": 4841,
      "unloadtruckobj88tru2apt7": 4842,
      "unloadtruckobj88tru1apt5": 4843,
      "unloadtruckobj88tru1apt8": 4844,
      "unloadtruckobj88tru1apt6": 4845,
      "unloadtruckobj88tru1apt7": 4846,
      "unloadtruckobj88tru1apt4": 4847,
      "unloadtruckobj88tru3pos55": 4848,
      "unloadtruckobj88tru3pos44": 4849,
      "unloadtruckobj88tru3pos66": 4850,
      "unloadtruckobj88tru3pos77": 4851,
      "unloadtruckobj88tru4apt5": 4852,
      "unloadtruckobj88tru4apt8": 4853,
      "unloadtruckobj88tru4apt6": 4854,
      "unloadtruckobj88tru4apt7": 4855,
      "unloadtruckobj88tru5apt8": 4856,
      "unloadtruckobj88tru5apt6": 4857,
      "unloadtruckobj88tru5apt7": 4858,
      "unloadtruckobj88tru5apt4": 4859,
      "unloadtruckobj88tru2pos55": 4860,
      "unloadtruckobj88tru2pos44": 4861,
      "unloadtruckobj88tru2pos66": 4862,
      "unloadtruckobj88tru2pos77": 4863,
      "unloadtruckobj88tru1pos55": 4864,
      "unloadtruckobj88tru1pos44": 4865,
      "unloadtruckobj88tru1pos66": 4866,
      "unloadtruckobj88tru1pos77": 4867,
      "unloadtruckobj88tru3apt2": 4868,
      "unloadtruckobj88tru3apt1": 4869,
      "unloadtruckobj88tru2apt3": 4870,
      "unloadtruckobj88tru2apt1": 4871,
      "unloadtruckobj88tru1apt2": 4872,
      "unloadtruckobj88tru1apt3": 4873,
      "unloadtruckobj88tru4apt2": 4874,
      "unloadtruckobj88tru4apt3": 4875,
      "unloadtruckobj88tru4apt1": 4876,
      "unloadtruckobj88tru5apt2": 4877,
      "unloadtruckobj88tru5apt3": 4878,
      "unloadtruckobj88tru5apt1": 4879,
      "unloadtruckobj88tru3apt3": 4880,
      "unloadtruckobj88tru2apt2": 4881,
      "unloadtruckobj88tru1apt1": 4882,
      "unloadtruckobj88tru4apt4": 4883,
      "unloadtruckobj88tru5apt5": 4884,
      "unloadtruckobj88tru3pos22": 4885,
      "unloadtruckobj88tru3pos23": 4886,
      "unloadtruckobj88tru3pos21": 4887,
      "unloadtruckobj88tru3pos12": 4888,
      "unloadtruckobj88tru3pos13": 4889,
      "unloadtruckobj88tru3pos11": 4890,
      "unloadtruckobj88tru3pos33": 4891,
      "unloadtruckobj88tru2pos22": 4892,
      "unloadtruckobj88tru2pos21": 4893,
      "unloadtruckobj88tru2pos12": 4894,
      "unloadtruckobj88tru2pos11": 4895,
      "unloadtruckobj88tru2pos23": 4896,
      "unloadtruckobj88tru2pos13": 4897,
      "unloadtruckobj88tru2pos33": 4898,
      "unloadtruckobj88tru1pos22": 4899,
      "unloadtruckobj88tru1pos21": 4900,
      "unloadtruckobj88tru1pos12": 4901,
      "unloadtruckobj88tru1pos11": 4902,
      "unloadtruckobj88tru1pos23": 4903,
      "unloadtruckobj88tru1pos13": 4904,
      "unloadtruckobj88tru1pos33": 4905,
      "unloadtruckobj88tru5pos55": 4906,
      "unloadtruckobj88tru5pos44": 4907,
      "unloadtruckobj88tru5pos66": 4908,
      "unloadtruckobj88tru5pos77": 4909,
      "unloadtruckobj88tru5pos22": 4910,
      "unloadtruckobj88tru5pos21": 4911,
      "unloadtruckobj88tru5pos12": 4912,
      "unloadtruckobj88tru5pos11": 4913,
      "unloadtruckobj88tru5pos23": 4914,
      "unloadtruckobj88tru5pos13": 4915,
      "unloadtruckobj88tru5pos33": 4916,
      "unloadtruckobj88tru4pos55": 4917,
      "unloadtruckobj88tru4pos44": 4918,
      "unloadtruckobj88tru4pos66": 4919,
      "unloadtruckobj88tru4pos77": 4920,
      "unloadtruckobj88tru4pos22": 4921,
      "unloadtruckobj88tru4pos21": 4922,
      "unloadtruckobj88tru4pos12": 4923,
      "unloadtruckobj88tru4pos11": 4924,
      "unloadtruckobj88tru4pos23": 4925,
      "unloadtruckobj88tru4pos13": 4926,
      "unloadtruckobj88tru4pos33": 4927,
      "unloadtruckobj99tru3apt5": 4928,
      "unloadtruckobj99tru3apt8": 4929,
      "unloadtruckobj99tru3apt6": 4930,
      "unloadtruckobj99tru3apt7": 4931,
      "unloadtruckobj99tru3apt4": 4932,
      "unloadtruckobj99tru2apt5": 4933,
      "unloadtruckobj99tru2apt8": 4934,
      "unloadtruckobj99tru2apt4": 4935,
      "unloadtruckobj99tru2apt6": 4936,
      "unloadtruckobj99tru2apt7": 4937,
      "unloadtruckobj99tru1apt5": 4938,
      "unloadtruckobj99tru1apt8": 4939,
      "unloadtruckobj99tru1apt6": 4940,
      "unloadtruckobj99tru1apt7": 4941,
      "unloadtruckobj99tru1apt4": 4942,
      "unloadtruckobj99tru3pos55": 4943,
      "unloadtruckobj99tru3pos44": 4944,
      "unloadtruckobj99tru3pos66": 4945,
      "unloadtruckobj99tru3pos77": 4946,
      "unloadtruckobj99tru4apt5": 4947,
      "unloadtruckobj99tru4apt8": 4948,
      "unloadtruckobj99tru4apt6": 4949,
      "unloadtruckobj99tru4apt7": 4950,
      "unloadtruckobj99tru5apt8": 4951,
      "unloadtruckobj99tru5apt6": 4952,
      "unloadtruckobj99tru5apt7": 4953,
      "unloadtruckobj99tru5apt4": 4954,
      "unloadtruckobj99tru2pos55": 4955,
      "unloadtruckobj99tru2pos44": 4956,
      "unloadtruckobj99tru2pos66": 4957,
      "unloadtruckobj99tru2pos77": 4958,
      "unloadtruckobj99tru1pos55": 4959,
      "unloadtruckobj99tru1pos44": 4960,
      "unloadtruckobj99tru1pos66": 4961,
      "unloadtruckobj99tru1pos77": 4962,
      "unloadtruckobj99tru3apt2": 4963,
      "unloadtruckobj99tru3apt1": 4964,
      "unloadtruckobj99tru2apt3": 4965,
      "unloadtruckobj99tru2apt1": 4966,
      "unloadtruckobj99tru1apt2": 4967,
      "unloadtruckobj99tru1apt3": 4968,
      "unloadtruckobj99tru4apt2": 4969,
      "unloadtruckobj99tru4apt3": 4970,
      "unloadtruckobj99tru4apt1": 4971,
      "unloadtruckobj99tru5apt2": 4972,
      "unloadtruckobj99tru5apt3": 4973,
      "unloadtruckobj99tru5apt1": 4974,
      "unloadtruckobj99tru3apt3": 4975,
      "unloadtruckobj99tru2apt2": 4976,
      "unloadtruckobj99tru1apt1": 4977,
      "unloadtruckobj99tru4apt4": 4978,
      "unloadtruckobj99tru5apt5": 4979,
      "unloadtruckobj99tru3pos22": 4980,
      "unloadtruckobj99tru3pos23": 4981,
      "unloadtruckobj99tru3pos21": 4982,
      "unloadtruckobj99tru3pos12": 4983,
      "unloadtruckobj99tru3pos13": 4984,
      "unloadtruckobj99tru3pos11": 4985,
      "unloadtruckobj99tru3pos33": 4986,
      "unloadtruckobj99tru2pos22": 4987,
      "unloadtruckobj99tru2pos21": 4988,
      "unloadtruckobj99tru2pos12": 4989,
      "unloadtruckobj99tru2pos11": 4990,
      "unloadtruckobj99tru2pos23": 4991,
      "unloadtruckobj99tru2pos13": 4992,
      "unloadtruckobj99tru2pos33": 4993,
      "unloadtruckobj99tru1pos22": 4994,
      "unloadtruckobj99tru1pos21": 4995,
      "unloadtruckobj99tru1pos12": 4996,
      "unloadtruckobj99tru1pos11": 4997,
      "unloadtruckobj99tru1pos23": 4998,
      "unloadtruckobj99tru1pos13": 4999,
      "unloadtruckobj99tru1pos33": 5000,
      "unloadtruckobj99tru5pos55": 5001,
      "unloadtruckobj99tru5pos44": 5002,
      "unloadtruckobj99tru5pos66": 5003,
      "unloadtruckobj99tru5pos77": 5004,
      "unloadtruckobj99tru5pos22": 5005,
      "unloadtruckobj99tru5pos21": 5006,
      "unloadtruckobj99tru5pos12": 5007,
      "unloadtruckobj99tru5pos11": 5008,
      "unloadtruckobj99tru5pos23": 5009,
      "unloadtruckobj99tru5pos13": 5010,
      "unloadtruckobj99tru5pos33": 5011,
      "unloadtruckobj99tru4pos55": 5012,
      "unloadtruckobj99tru4pos44": 5013,
      "unloadtruckobj99tru4pos66": 5014,
      "unloadtruckobj99tru4pos77": 5015,
      "unloadtruckobj99tru4pos22": 5016,
      "unloadtruckobj99tru4pos21": 5017,
      "unloadtruckobj99tru4pos12": 5018,
      "unloadtruckobj99tru4pos11": 5019,
      "unloadtruckobj99tru4pos23": 5020,
      "unloadtruckobj99tru4pos13": 5021,
      "unloadtruckobj99tru4pos33": 5022,
      "loadtruckobj23tru3apt5": 5023,
      "loadtruckobj23tru3apt8": 5024,
      "loadtruckobj23tru3apt6": 5025,
      "loadtruckobj23tru3apt7": 5026,
      "loadtruckobj23tru3apt4": 5027,
      "loadtruckobj23tru2apt5": 5028,
      "loadtruckobj23tru2apt8": 5029,
      "loadtruckobj23tru2apt4": 5030,
      "loadtruckobj23tru2apt6": 5031,
      "loadtruckobj23tru2apt7": 5032,
      "loadtruckobj23tru1apt5": 5033,
      "loadtruckobj23tru1apt8": 5034,
      "loadtruckobj23tru1apt6": 5035,
      "loadtruckobj23tru1apt7": 5036,
      "loadtruckobj23tru1apt4": 5037,
      "loadtruckobj23tru3pos55": 5038,
      "loadtruckobj23tru3pos44": 5039,
      "loadtruckobj23tru3pos66": 5040,
      "loadtruckobj23tru3pos77": 5041,
      "loadtruckobj23tru4apt5": 5042,
      "loadtruckobj23tru4apt8": 5043,
      "loadtruckobj23tru4apt6": 5044,
      "loadtruckobj23tru4apt7": 5045,
      "loadtruckobj23tru5apt8": 5046,
      "loadtruckobj23tru5apt6": 5047,
      "loadtruckobj23tru5apt7": 5048,
      "loadtruckobj23tru5apt4": 5049,
      "loadtruckobj23tru2pos55": 5050,
      "loadtruckobj23tru2pos44": 5051,
      "loadtruckobj23tru2pos66": 5052,
      "loadtruckobj23tru2pos77": 5053,
      "loadtruckobj23tru1pos55": 5054,
      "loadtruckobj23tru1pos44": 5055,
      "loadtruckobj23tru1pos66": 5056,
      "loadtruckobj23tru1pos77": 5057,
      "loadtruckobj23tru3apt2": 5058,
      "loadtruckobj23tru3apt1": 5059,
      "loadtruckobj23tru2apt3": 5060,
      "loadtruckobj23tru2apt1": 5061,
      "loadtruckobj23tru1apt2": 5062,
      "loadtruckobj23tru1apt3": 5063,
      "loadtruckobj23tru4apt2": 5064,
[...]
